<unk>	0
<s>	0
</s>	0
▁.	-0
▁t	-1
he	-2
▁a	-3
in	-4
ou	-5
▁w	-6
re	-7
▁s	-8
▁I	-9
is	-10
ha	-11
on	-12
▁the	-13
▁m	-14
er	-15
▁to	-16
▁b	-17
▁d	-18
▁T	-19
▁c	-20
an	-21
▁f	-22
▁y	-23
ing	-24
om	-25
ed	-26
▁l	-27
en	-28
▁you	-29
or	-30
it	-31
ll	-32
▁p	-33
es	-34
▁o	-35
ar	-36
▁n	-37
▁is	-38
ve	-39
as	-40
▁g	-41
hat	-42
at	-43
▁ha	-44
▁?	-45
▁h	-46
▁in	-47
▁of	-48
▁,	-49
ot	-50
ow	-51
▁W	-52
▁The	-53
▁an	-54
▁he	-55
▁be	-56
▁H	-57
le	-58
▁th	-59
ay	-60
▁e	-61
▁Tom	-62
et	-63
id	-64
us	-65
ld	-66
ic	-67
im	-68
ver	-69
▁S	-70
▁do	-71
▁that	-72
ke	-73
▁was	-74
▁on	-75
▁He	-76
▁re	-77
al	-78
▁me	-79
oo	-80
▁st	-81
▁for	-82
gh	-83
▁li	-84
ri	-85
▁it	-86
ent	-87
▁M	-88
▁we	-89
▁Y	-90
ch	-91
▁have	-92
st	-93
▁k	-94
ion	-95
ly	-96
ad	-97
ut	-98
▁and	-99
ant	-100
▁A	-101
un	-102
se	-103
▁not	-104
▁ne	-105
▁You	-106
am	-107
ro	-108
▁are	-109
ght	-110
▁my	-111
▁D	-112
out	-113
ce	-114
ir	-115
ould	-116
ith	-117
ill	-118
▁We	-119
her	-120
▁with	-121
▁this	-122
ome	-123
ter	-124
▁can	-125
▁go	-126
▁your	-127
▁She	-128
▁don	-129
very	-130
▁kn	-131
▁It	-132
all	-133
ra	-134
ct	-135
▁at	-136
▁want	-137
▁se	-138
ur	-139
▁as	-140
▁his	-141
▁know	-142
pp	-143
▁like	-144
ea	-145
hing	-146
if	-147
ore	-148
ck	-149
one	-150
▁C	-151
▁sh	-152
▁wor	-153
ust	-154
ook	-155
▁did	-156
op	-157
ink	-158
▁her	-159
▁ab	-160
▁!	-161
▁j	-162
▁him	-163
ge	-164
end	-165
il	-166
ary	-167
▁has	-168
ake	-169
up	-170
ul	-171
▁sp	-172
▁Th	-173
▁wh	-174
▁al	-175
▁so	-176
▁all	-177
han	-178
ry	-179
ren	-180
ood	-181
▁us	-182
oun	-183
ist	-184
▁What	-185
▁su	-186
ain	-187
▁r	-188
▁any	-189
▁This	-190
▁de	-191
rom	-192
▁will	-193
▁ex	-194
▁what	-195
ble	-196
est	-197
▁tim	-198
▁"	-199
▁un	-200
▁think	-201
▁lo	-202
and	-203
▁pl	-204
▁L	-205
ind	-206
▁E	-207
our	-208
ong	-209
red	-210
▁They	-211
ear	-212
ation	-213
art	-214
▁up	-215
▁F	-216
ol	-217
▁time	-218
ate	-219
▁com	-220
ast	-221
▁Do	-222
▁out	-223
▁Mary	-224
ess	-225
qu	-226
▁B	-227
ive	-228
ers	-229
▁very	-230
▁about	-231
ight	-232
▁from	-233
▁P	-234
▁con	-235
▁had	-236
ell	-237
▁one	-238
el	-239
▁get	-240
▁N	-241
ally	-242
ie	-243
▁Wh	-244
hen	-245
▁no	-246
fe	-247
▁sa	-248
ame	-249
ice	-250
▁see	-251
um	-252
▁by	-253
ig	-254
der	-255
▁man	-256
ak	-257
res	-258
ays	-259
▁My	-260
▁but	-261
▁That	-262
▁need	-263
▁were	-264
▁v	-265
day	-266
os	-267
▁does	-268
▁pro	-269
▁here	-270
▁tr	-271
ish	-272
▁didn	-273
▁going	-274
▁G	-275
ous	-276
ap	-277
ack	-278
▁work	-279
▁she	-280
ort	-281
alk	-282
▁good	-283
▁too	-284
ost	-285
ep	-286
▁look	-287
▁There	-288
here	-289
▁would	-290
▁int	-291
▁there	-292
ud	-293
▁ch	-294
▁every	-295
▁How	-296
▁than	-297
▁should	-298
ound	-299
ase	-300
▁ar	-301
▁cl	-302
thing	-303
ree	-304
lf	-305
ven	-306
▁J	-307
▁-	-308
▁just	-309
▁or	-310
od	-311
▁some	-312
ine	-313
other	-314
▁ag	-315
lp	-316
ard	-317
▁O	-318
▁more	-319
▁who	-320
▁Don	-321
▁qu	-322
▁fe	-323
▁help	-324
row	-325
▁been	-326
▁am	-327
ought	-328
▁happ	-329
▁co	-330
ite	-331
▁le	-332
▁never	-333
th	-334
eop	-335
▁could	-336
ag	-337
eople	-338
▁ro	-339
▁got	-340
ass	-341
ity	-342
ick	-343
ild	-344
ves	-345
riend	-346
ved	-347
itt	-348
age	-349
omet	-350
▁they	-351
▁off	-352
▁wr	-353
▁af	-354
▁en	-355
eak	-356
ide	-357
▁car	-358
▁fa	-359
ng	-360
▁ri	-361
ather	-362
▁when	-363
uch	-364
▁comp	-365
ect	-366
ure	-367
ang	-368
cc	-369
▁exp	-370
▁Is	-371
em	-372
▁eat	-373
▁doesn	-374
▁people	-375
▁really	-376
ning	-377
▁much	-378
▁book	-379
▁tw	-380
▁im	-381
▁them	-382
▁speak	-383
▁new	-384
▁now	-385
▁talk	-386
▁come	-387
ob	-388
▁won	-389
▁if	-390
▁year	-391
▁ad	-392
lease	-393
hed	-394
ough	-395
▁bu	-396
▁our	-397
are	-398
▁bec	-399
ave	-400
▁Why	-401
▁bet	-402
ool	-403
self	-404
▁take	-405
▁under	-406
▁say	-407
▁long	-408
▁read	-409
▁somet	-410
pt	-411
ving	-412
▁tell	-413
ther	-414
▁sm	-415
▁back	-416
▁wat	-417
ies	-418
▁day	-419
▁home	-420
▁friend	-421
ab	-422
▁only	-423
ans	-424
▁br	-425
ways	-426
rain	-427
▁ask	-428
▁make	-429
▁thing	-430
ts	-431
▁love	-432
ami	-433
▁bl	-434
ence	-435
oney	-436
oy	-437
able	-438
▁Can	-439
▁always	-440
▁lot	-441
nd	-442
▁R	-443
▁Let	-444
ber	-445
▁fl	-446
▁said	-447
▁dis	-448
ue	-449
ade	-450
▁over	-451
reat	-452
use	-453
▁how	-454
ount	-455
ress	-456
ft	-457
ouse	-458
▁stud	-459
▁If	-460
▁something	-461
▁right	-462
▁Are	-463
▁money	-464
▁last	-465
ried	-466
ody	-467
▁child	-468
▁play	-469
▁must	-470
▁pre	-471
▁old	-472
▁their	-473
ose	-474
own	-475
▁call	-476
▁dr	-477
rench	-478
▁pr	-479
▁French	-480
▁again	-481
ci	-482
urn	-483
▁many	-484
ment	-485
▁other	-486
▁two	-487
▁Ch	-488
eri	-489
▁house	-490
ty	-491
ach	-492
▁anything	-493
▁bel	-494
▁made	-495
▁happen	-496
▁Z	-497
ance	-498
▁into	-499
iz	-500
▁still	-501
▁told	-502
▁way	-503
au	-504
▁let	-505
fore	-506
▁imp	-507
▁har	-508
▁mo	-509
▁ke	-510
▁lea	-511
▁app	-512
▁sch	-513
▁bus	-514
▁feel	-515
iss	-516
▁down	-517
▁went	-518
iri	-519
▁aw	-520
▁well	-521
ark	-522
get	-523
▁school	-524
▁No	-525
▁op	-526
▁sw	-527
▁chan	-528
▁thought	-529
ated	-530
▁In	-531
▁Ziri	-532
▁gr	-533
▁underst	-534
ich	-535
ait	-536
orrow	-537
ise	-538
ittle	-539
▁tea	-540
▁K	-541
wn	-542
▁isn	-543
▁po	-544
▁dif	-545
▁Did	-546
▁before	-547
read	-548
ac	-549
▁Where	-550
▁res	-551
ict	-552
ult	-553
▁today	-554
▁better	-555
ire	-556
▁left	-557
▁little	-558
▁sc	-559
▁gu	-560
▁room	-561
ile	-562
▁When	-563
▁acc	-564
si	-565
▁life	-566
▁part	-567
ied	-568
ause	-569
ions	-570
▁hand	-571
irst	-572
▁Who	-573
▁after	-574
▁Every	-575
▁lear	-576
▁night	-577
▁te	-578
mer	-579
▁dog	-580
▁pa	-581
▁understand	-582
▁rem	-583
ting	-584
▁belie	-585
hes	-586
ek	-587
▁wait	-588
ms	-589
ip	-590
▁three	-591
leep	-592
ful	-593
ten	-594
ory	-595
▁Sami	-596
ew	-597
xt	-598
▁His	-599
▁start	-600
▁find	-601
▁years	-602
ngl	-603
ace	-604
▁dec	-605
▁stay	-606
▁father	-607
▁Engl	-608
▁Please	-609
og	-610
▁cat	-611
▁buy	-612
▁tom	-613
▁cont	-614
angu	-615
▁live	-616
akes	-617
▁gir	-618
▁where	-619
▁proble	-620
▁give	-621
▁try	-622
te	-623
ester	-624
▁count	-625
ign	-626
▁hard	-627
▁langu	-628
▁week	-629
▁first	-630
▁put	-631
▁St	-632
▁doing	-633
▁tomorrow	-634
▁nothing	-635
▁wanted	-636
▁children	-637
▁plan	-638
▁English	-639
aut	-640
body	-641
ath	-642
▁drink	-643
▁even	-644
▁str	-645
▁world	-646
ian	-647
▁Have	-648
ok	-649
▁water	-650
fic	-651
▁everything	-652
▁care	-653
▁job	-654
rest	-655
▁word	-656
les	-657
▁fin	-658
▁pol	-659
▁came	-660
▁ph	-661
▁because	-662
▁things	-663
▁gl	-664
ired	-665
▁quest	-666
▁without	-667
▁leave	-668
▁att	-669
▁hat	-670
▁pers	-671
▁hop	-672
▁beaut	-673
ond	-674
▁saw	-675
esterday	-676
▁ear	-677
▁friends	-678
▁walk	-679
aught	-680
▁believe	-681
▁learn	-682
any	-683
▁Al	-684
▁away	-685
▁door	-686
ife	-687
▁sha	-688
▁mother	-689
ull	-690
▁che	-691
igh	-692
▁open	-693
▁sure	-694
▁found	-695
▁sent	-696
uck	-697
▁great	-698
▁cha	-699
▁sur	-700
vel	-701
▁ra	-702
▁took	-703
▁sleep	-704
ted	-705
▁id	-706
apan	-707
orm	-708
▁sl	-709
▁Japan	-710
▁mor	-711
▁bad	-712
▁fo	-713
▁asked	-714
ia	-715
▁mat	-716
▁1	-717
ready	-718
▁done	-719
▁already	-720
▁name	-721
▁boy	-722
▁mar	-723
▁often	-724
▁act	-725
erm	-726
▁des	-727
▁meet	-728
▁Your	-729
▁use	-730
rist	-731
▁late	-732
ens	-733
▁best	-734
▁next	-735
▁U	-736
ese	-737
ents	-738
▁tra	-739
▁rain	-740
ream	-741
▁girl	-742
iful	-743
▁problem	-744
▁Christ	-745
▁turn	-746
sw	-747
▁enough	-748
▁wom	-749
uth	-750
▁please	-751
ail	-752
▁cr	-753
▁person	-754
ock	-755
▁ever	-756
ces	-757
▁happy	-758
▁young	-759
▁morning	-760
▁may	-761
▁used	-762
▁cle	-763
▁beautiful	-764
▁On	-765
▁yesterday	-766
▁big	-767
▁eas	-768
▁kind	-769
▁lost	-770
▁All	-771
▁war	-772
pe	-773
aking	-774
▁wasn	-775
ub	-776
▁beg	-777
▁min	-778
▁being	-779
▁answ	-780
▁bo	-781
▁same	-782
▁dri	-783
▁end	-784
ffe	-785
▁la	-786
ister	-787
▁soon	-788
cher	-789
▁why	-790
▁gave	-791
▁show	-792
pped	-793
▁hope	-794
ors	-795
▁wind	-796
▁wants	-797
▁looking	-798
▁study	-799
▁language	-800
▁sec	-801
erest	-802
ited	-803
▁ten	-804
ident	-805
▁ac	-806
▁wrong	-807
ug	-808
▁mon	-809
ert	-810
ised	-811
▁around	-812
▁lik	-813
oth	-814
▁own	-815
▁met	-816
▁sing	-817
▁sk	-818
▁hear	-819
▁interest	-820
▁ey	-821
ince	-822
▁brother	-823
per	-824
▁hun	-825
▁list	-826
▁rec	-827
ical	-828
ious	-829
▁keep	-830
side	-831
▁pass	-832
▁train	-833
▁run	-834
rents	-835
▁bed	-836
▁inv	-837
▁sn	-838
▁yet	-839
iv	-840
oke	-841
▁most	-842
▁bro	-843
mas	-844
▁adv	-845
▁hour	-846
ced	-847
▁fun	-848
feren	-849
▁these	-850
▁watch	-851
▁mist	-852
▁seen	-853
▁per	-854
▁country	-855
ff	-856
ord	-857
▁such	-858
we	-859
ix	-860
▁bought	-861
▁Christmas	-862
▁hur	-863
▁cold	-864
▁rep	-865
▁bre	-866
med	-867
▁mind	-868
▁happened	-869
als	-870
▁teacher	-871
▁heard	-872
▁knows	-873
ged	-874
▁miss	-875
▁em	-876
▁idea	-877
orn	-878
▁bir	-879
raid	-880
ually	-881
▁pres	-882
ank	-883
▁hot	-884
oston	-885
▁Boston	-886
▁couldn	-887
▁el	-888
▁fr	-889
▁;	-890
ars	-891
▁afraid	-892
▁place	-893
▁far	-894
ished	-895
act	-896
lic	-897
▁knew	-898
▁alone	-899
sible	-900
▁days	-901
▁sister	-902
ys	-903
▁rel	-904
▁few	-905
▁letter	-906
▁parents	-907
▁its	-908
▁arri	-909
▁Alg	-910
led	-911
ann	-912
▁truth	-913
▁haven	-914
ered	-915
ctor	-916
▁pos	-917
▁pain	-918
▁vis	-919
▁diffic	-920
▁question	-921
▁May	-922
▁trans	-923
ember	-924
▁rest	-925
▁ob	-926
ons	-927
▁Be	-928
gry	-929
▁differen	-930
▁another	-931
▁swim	-932
▁answer	-933
▁stop	-934
▁An	-935
ever	-936
▁pret	-937
ating	-938
▁win	-939
▁looks	-940
▁which	-941
▁while	-942
▁comm	-943
ple	-944
▁food	-945
▁supp	-946
ition	-947
orry	-948
▁Algeri	-949
pr	-950
aby	-951
osed	-952
▁thr	-953
▁sho	-954
▁kill	-955
▁class	-956
cept	-957
ros	-958
▁inc	-959
▁Fr	-960
ute	-961
ject	-962
oc	-963
ater	-964
▁pay	-965
▁books	-966
▁fore	-967
▁To	-968
most	-969
▁bit	-970
amily	-971
not	-972
▁Some	-973
gether	-974
▁tried	-975
▁family	-976
cle	-977
▁sit	-978
▁true	-979
▁each	-980
▁forg	-981
▁able	-982
▁cons	-983
▁mus	-984
▁anyone	-985
int	-986
▁those	-987
▁import	-988
▁spe	-989
▁called	-990
▁difficult	-991
▁light	-992
du	-993
▁through	-994
▁Our	-995
ret	-996
▁small	-997
▁wife	-998
ner	-999
ffee	-1000
▁real	-1001
▁police	-1002
▁else	-1003
▁2	-1004
▁expl	-1005
ations	-1006
oh	-1007
ork	-1008
ided	-1009
▁cannot	-1010
ates	-1011
▁air	-1012
▁together	-1013
▁disc	-1014
▁change	-1015
▁coming	-1016
▁myself	-1017
av	-1018
▁remember	-1019
▁party	-1020
▁started	-1021
▁head	-1022
▁tired	-1023
▁woman	-1024
▁break	-1025
▁coffee	-1026
▁likes	-1027
▁wonder	-1028
▁As	-1029
▁month	-1030
▁reg	-1031
▁getting	-1032
▁ent	-1033
▁wish	-1034
▁news	-1035
▁matter	-1036
ower	-1037
▁busy	-1038
▁seems	-1039
ages	-1040
▁Would	-1041
▁listen	-1042
ital	-1043
▁dream	-1044
meric	-1045
▁Americ	-1046
▁doctor	-1047
▁almost	-1048
▁mov	-1049
anger	-1050
ier	-1051
▁hum	-1052
▁yourself	-1053
llow	-1054
▁easy	-1055
▁prom	-1056
anni	-1057
ract	-1058
▁Not	-1059
▁resp	-1060
▁himself	-1061
pl	-1062
▁hair	-1063
▁Yanni	-1064
00	-1065
▁wear	-1066
ason	-1067
iness	-1068
▁city	-1069
▁once	-1070
umb	-1071
▁Her	-1072
▁someone	-1073
ph	-1074
vers	-1075
▁Does	-1076
more	-1077
▁heart	-1078
oud	-1079
▁sun	-1080
▁talking	-1081
alth	-1082
▁inf	-1083
▁add	-1084
▁eyes	-1085
▁window	-1086
▁anymore	-1087
ween	-1088
▁free	-1089
ger	-1090
▁son	-1091
▁looked	-1092
▁married	-1093
▁nice	-1094
▁trying	-1095
▁ele	-1096
ize	-1097
▁lives	-1098
be	-1099
ared	-1100
ings	-1101
▁might	-1102
▁ref	-1103
▁cook	-1104
▁early	-1105
▁expect	-1106
▁important	-1107
▁against	-1108
less	-1109
ross	-1110
▁cap	-1111
▁ret	-1112
gg	-1113
▁write	-1114
cy	-1115
old	-1116
▁music	-1117
ove	-1118
ense	-1119
▁needs	-1120
▁forget	-1121
ote	-1122
▁since	-1123
▁lar	-1124
▁law	-1125
▁high	-1126
▁between	-1127
▁Germ	-1128
▁Could	-1129
▁comple	-1130
▁transl	-1131
▁fell	-1132
fect	-1133
▁Everyone	-1134
ets	-1135
▁pretty	-1136
▁Un	-1137
cess	-1138
▁phone	-1139
▁gi	-1140
▁sol	-1141
▁sorry	-1142
▁These	-1143
olog	-1144
▁stand	-1145
oon	-1146
▁fav	-1147
▁red	-1148
▁mean	-1149
▁surpr	-1150
▁exam	-1151
▁Will	-1152
▁become	-1153
ps	-1154
app	-1155
ily	-1156
ries	-1157
▁words	-1158
ks	-1159
▁hate	-1160
▁sick	-1161
▁then	-1162
▁conc	-1163
▁working	-1164
▁ready	-1165
▁accident	-1166
▁died	-1167
▁Than	-1168
▁both	-1169
▁makes	-1170
used	-1171
la	-1172
▁conf	-1173
▁says	-1174
▁wouldn	-1175
▁five	-1176
▁pict	-1177
br	-1178
ohn	-1179
▁ago	-1180
▁John	-1181
▁unt	-1182
inner	-1183
▁aren	-1184
▁face	-1185
▁fire	-1186
▁decided	-1187
aper	-1188
▁table	-1189
▁everyone	-1190
▁mom	-1191
▁having	-1192
▁danger	-1193
ax	-1194
ness	-1195
▁full	-1196
▁lau	-1197
ange	-1198
▁story	-1199
▁kid	-1200
▁inter	-1201
▁follow	-1202
▁waiting	-1203
ime	-1204
ual	-1205
▁sound	-1206
▁Japanese	-1207
iet	-1208
▁ap	-1209
▁meeting	-1210
▁forgot	-1211
ched	-1212
▁sum	-1213
umber	-1214
▁tree	-1215
so	-1216
▁sub	-1217
ash	-1218
ists	-1219
▁times	-1220
▁Sp	-1221
ward	-1222
▁playing	-1223
▁At	-1224
erv	-1225
▁One	-1226
▁art	-1227
▁men	-1228
▁near	-1229
▁sentence	-1230
▁God	-1231
▁mil	-1232
▁tri	-1233
ato	-1234
ont	-1235
ision	-1236
ention	-1237
▁France	-1238
its	-1239
▁game	-1240
▁spend	-1241
▁comput	-1242
▁Algeria	-1243
▁different	-1244
oice	-1245
utes	-1246
ular	-1247
▁fast	-1248
▁living	-1249
▁snow	-1250
elt	-1251
▁sto	-1252
ately	-1253
▁office	-1254
▁dep	-1255
▁dress	-1256
joy	-1257
arth	-1258
▁hours	-1259
ics	-1260
rew	-1261
▁writ	-1262
▁grand	-1263
aughter	-1264
▁Af	-1265
▁broke	-1266
▁hands	-1267
▁ind	-1268
▁fall	-1269
▁ill	-1270
▁longer	-1271
▁dead	-1272
ral	-1273
▁cra	-1274
ike	-1275
ction	-1276
▁Chin	-1277
▁coll	-1278
▁cost	-1279
▁hor	-1280
▁med	-1281
imes	-1282
▁nat	-1283
▁stre	-1284
▁glass	-1285
▁eating	-1286
▁station	-1287
onight	-1288
zy	-1289
air	-1290
where	-1291
▁quick	-1292
▁trust	-1293
▁became	-1294
▁sat	-1295
▁V	-1296
man	-1297
▁sim	-1298
▁until	-1299
▁quite	-1300
▁park	-1301
▁death	-1302
▁grow	-1303
▁less	-1304
▁town	-1305
▁Nob	-1306
▁cor	-1307
ati	-1308
▁number	-1309
unch	-1310
▁sal	-1311
▁thir	-1312
▁cry	-1313
▁minutes	-1314
▁weather	-1315
ures	-1316
▁col	-1317
▁set	-1318
▁arrived	-1319
▁company	-1320
▁cut	-1321
▁dinner	-1322
az	-1323
▁ev	-1324
▁ter	-1325
▁tonight	-1326
▁reading	-1327
▁die	-1328
▁enjoy	-1329
▁gen	-1330
ither	-1331
▁health	-1332
▁reason	-1333
▁Dan	-1334
▁abs	-1335
▁complete	-1336
uring	-1337
▁anim	-1338
erious	-1339
ying	-1340
▁Nobody	-1341
▁students	-1342
▁ins	-1343
▁gone	-1344
▁shouldn	-1345
▁clean	-1346
▁comes	-1347
▁movie	-1348
oin	-1349
▁Stop	-1350
▁felt	-1351
▁short	-1352
ump	-1353
ably	-1354
▁travel	-1355
ial	-1356
ming	-1357
▁Take	-1358
▁fish	-1359
▁mine	-1360
eb	-1361
▁born	-1362
▁build	-1363
▁leg	-1364
ned	-1365
▁Give	-1366
▁wall	-1367
▁river	-1368
▁visit	-1369
cial	-1370
▁finished	-1371
sel	-1372
leas	-1373
▁pen	-1374
▁begin	-1375
▁computer	-1376
▁dist	-1377
▁hurt	-1378
▁birth	-1379
icy	-1380
▁Sh	-1381
dd	-1382
▁ate	-1383
▁beh	-1384
▁Aust	-1385
fer	-1386
ized	-1387
ured	-1388
▁turned	-1389
ism	-1390
▁Tell	-1391
▁song	-1392
▁tele	-1393
▁also	-1394
▁large	-1395
▁white	-1396
▁TV	-1397
▁sy	-1398
▁And	-1399
▁fail	-1400
▁four	-1401
▁goes	-1402
▁present	-1403
ric	-1404
▁making	-1405
itten	-1406
▁summer	-1407
work	-1408
▁Mar	-1409
▁adm	-1410
▁behind	-1411
▁black	-1412
▁serious	-1413
osp	-1414
▁exc	-1415
▁neigh	-1416
tle	-1417
aken	-1418
▁favor	-1419
▁neighb	-1420
▁whole	-1421
ouble	-1422
▁ass	-1423
▁loves	-1424
▁Go	-1425
hip	-1426
▁six	-1427
oking	-1428
▁angry	-1429
▁usually	-1430
▁fam	-1431
▁works	-1432
▁daughter	-1433
▁Mr	-1434
▁Many	-1435
▁clot	-1436
▁agree	-1437
unk	-1438
port	-1439
▁drive	-1440
▁possible	-1441
▁interesting	-1442
irt	-1443
▁mem	-1444
▁flow	-1445
▁inst	-1446
▁close	-1447
▁gard	-1448
oup	-1449
▁pie	-1450
▁sign	-1451
▁strong	-1452
con	-1453
ison	-1454
▁team	-1455
▁later	-1456
▁doll	-1457
▁rich	-1458
▁mistake	-1459
▁Par	-1460
▁Austral	-1461
land	-1462
▁bird	-1463
▁laugh	-1464
▁caught	-1465
ences	-1466
▁wine	-1467
▁lived	-1468
▁age	-1469
aster	-1470
selves	-1471
▁exact	-1472
▁business	-1473
▁ext	-1474
▁pop	-1475
▁poor	-1476
▁order	-1477
bed	-1478
ling	-1479
▁disapp	-1480
ants	-1481
▁det	-1482
▁outside	-1483
▁swe	-1484
▁second	-1485
▁questions	-1486
▁pri	-1487
▁tre	-1488
ertain	-1489
▁street	-1490
fort	-1491
▁fact	-1492
uation	-1493
▁clear	-1494
▁moment	-1495
▁tall	-1496
▁point	-1497
▁garden	-1498
▁Australia	-1499
▁Lay	-1500
▁whe	-1501
▁others	-1502
▁perfect	-1503
▁kiss	-1504
▁milk	-1505
ensive	-1506
▁accept	-1507
upid	-1508
▁inform	-1509
▁saying	-1510
ball	-1511
▁cam	-1512
▁ran	-1513
▁speaks	-1514
eal	-1515
room	-1516
ained	-1517
▁known	-1518
▁lunch	-1519
▁picture	-1520
▁Come	-1521
▁es	-1522
▁return	-1523
ead	-1524
ains	-1525
▁opp	-1526
▁prob	-1527
▁Layla	-1528
▁pleas	-1529
▁killed	-1530
▁taking	-1531
ccess	-1532
ently	-1533
▁dark	-1534
▁German	-1535
▁quickly	-1536
▁opin	-1537
▁allow	-1538
▁For	-1539
▁lie	-1540
▁stupid	-1541
▁luck	-1542
ey	-1543
▁tou	-1544
▁human	-1545
▁learning	-1546
▁Get	-1547
▁Kaby	-1548
▁baby	-1549
▁hosp	-1550
iction	-1551
▁secret	-1552
▁thinking	-1553
ane	-1554
▁languages	-1555
▁cent	-1556
▁sold	-1557
io	-1558
▁Rus	-1559
▁box	-1560
▁dra	-1561
▁shoes	-1562
ee	-1563
▁cou	-1564
▁spent	-1565
▁lose	-1566
▁hungry	-1567
cl	-1568
idd	-1569
▁sell	-1570
▁Paris	-1571
▁produ	-1572
uss	-1573
▁Br	-1574
ution	-1575
▁began	-1576
▁chance	-1577
aur	-1578
itc	-1579
ider	-1580
▁foot	-1581
▁mess	-1582
▁past	-1583
▁necess	-1584
ush	-1585
▁seem	-1586
▁Russi	-1587
▁student	-1588
▁slow	-1589
▁Which	-1590
▁People	-1591
▁clothes	-1592
▁Look	-1593
▁move	-1594
itting	-1595
ific	-1596
▁dro	-1597
▁trouble	-1598
▁hospital	-1599
▁bag	-1600
▁hon	-1601
▁road	-1602
▁front	-1603
▁So	-1604
▁fut	-1605
▁land	-1606
▁exactly	-1607
▁half	-1608
▁probably	-1609
▁pick	-1610
▁situation	-1611
oub	-1612
band	-1613
▁wearing	-1614
ames	-1615
▁gre	-1616
ended	-1617
▁After	-1618
▁strange	-1619
▁pur	-1620
▁loved	-1621
▁sil	-1622
▁uni	-1623
▁cour	-1624
▁success	-1625
me	-1626
enty	-1627
▁aftern	-1628
▁rather	-1629
▁written	-1630
ears	-1631
▁hotel	-1632
▁expensive	-1633
▁completely	-1634
rect	-1635
▁bot	-1636
▁hus	-1637
▁pub	-1638
▁ris	-1639
ities	-1640
▁worry	-1641
ats	-1642
ken	-1643
▁glad	-1644
▁rece	-1645
▁3	-1646
gar	-1647
ima	-1648
▁tem	-1649
▁compl	-1650
▁wrote	-1651
▁future	-1652
▁changed	-1653
▁husband	-1654
▁Now	-1655
▁flowers	-1656
ins	-1657
▁rul	-1658
▁catch	-1659
▁earth	-1660
▁mount	-1661
oss	-1662
▁av	-1663
▁flo	-1664
▁women	-1665
▁afternoon	-1666
ny	-1667
ffic	-1668
▁Just	-1669
uro	-1670
fast	-1671
pping	-1672
▁evening	-1673
▁experi	-1674
▁dangerous	-1675
▁sci	-1676
ative	-1677
▁Here	-1678
▁kept	-1679
▁trip	-1680
▁store	-1681
▁prefer	-1682
▁Yes	-1683
▁gif	-1684
▁check	-1685
▁worth	-1686
ib	-1687
ude	-1688
▁tick	-1689
▁power	-1690
▁brought	-1691
outh	-1692
▁key	-1693
ility	-1694
▁cake	-1695
▁birthday	-1696
cap	-1697
▁ca	-1698
▁smell	-1699
▁stopped	-1700
pect	-1701
▁Mon	-1702
▁Sun	-1703
▁side	-1704
▁bring	-1705
ible	-1706
▁surprised	-1707
▁arm	-1708
▁bicy	-1709
▁paid	-1710
▁ty	-1711
▁char	-1712
▁problems	-1713
▁Everything	-1714
nis	-1715
ined	-1716
▁But	-1717
▁Tok	-1718
▁del	-1719
▁helped	-1720
▁dem	-1721
▁advice	-1722
▁learned	-1723
▁sea	-1724
gy	-1725
▁di	-1726
▁bank	-1727
▁post	-1728
ressed	-1729
▁fight	-1730
dred	-1731
▁fil	-1732
▁beer	-1733
▁polit	-1734
▁takes	-1735
▁during	-1736
▁mistakes	-1737
▁breakfast	-1738
▁ve	-1739
▁least	-1740
▁teach	-1741
ech	-1742
ches	-1743
▁bread	-1744
cri	-1745
ored	-1746
▁Euro	-1747
▁along	-1748
▁foreign	-1749
▁opinion	-1750
▁cal	-1751
▁def	-1752
▁careful	-1753
▁speaking	-1754
way	-1755
▁interested	-1756
ator	-1757
▁crazy	-1758
ery	-1759
▁pati	-1760
▁needed	-1761
▁favorite	-1762
vern	-1763
▁Somet	-1764
▁closed	-1765
▁certain	-1766
uit	-1767
▁mark	-1768
▁contin	-1769
▁hundred	-1770
iew	-1771
ule	-1772
▁fix	-1773
▁gra	-1774
▁squ	-1775
conom	-1776
▁older	-1777
▁thinks	-1778
ards	-1779
▁hit	-1780
▁gener	-1781
▁tennis	-1782
▁restaur	-1783
▁homework	-1784
▁eaten	-1785
▁paper	-1786
▁broken	-1787
▁writing	-1788
orts	-1789
▁plane	-1790
▁asleep	-1791
▁Everybody	-1792
bit	-1793
ived	-1794
▁Rima	-1795
▁case	-1796
▁enem	-1797
▁Maybe	-1798
▁girls	-1799
▁anybody	-1800
▁bicycle	-1801
▁Ber	-1802
▁fly	-1803
▁safe	-1804
▁sense	-1805
▁Europe	-1806
▁animals	-1807
tern	-1808
▁send	-1809
ination	-1810
▁building	-1811
▁information	-1812
ik	-1813
sper	-1814
▁fool	-1815
▁gets	-1816
▁watching	-1817
▁cur	-1818
▁deal	-1819
▁horse	-1820
▁Nothing	-1821
▁studying	-1822
▁egg	-1823
▁fig	-1824
▁prot	-1825
▁thank	-1826
▁Ke	-1827
▁ce	-1828
▁guess	-1829
▁econom	-1830
▁With	-1831
▁beha	-1832
▁blue	-1833
▁hold	-1834
▁prof	-1835
▁prog	-1836
eba	-1837
▁cup	-1838
▁Thank	-1839
▁blood	-1840
▁discuss	-1841
ef	-1842
ram	-1843
ror	-1844
ging	-1845
ully	-1846
▁hasn	-1847
ational	-1848
▁respon	-1849
▁ma	-1850
▁phot	-1851
▁cross	-1852
▁worked	-1853
▁feeling	-1854
by	-1855
▁sad	-1856
▁Tato	-1857
▁medic	-1858
▁smoking	-1859
ceed	-1860
ians	-1861
▁tax	-1862
▁girlf	-1863
▁means	-1864
▁Monday	-1865
▁correct	-1866
▁decision	-1867
▁necessary	-1868
▁girlfriend	-1869
▁sus	-1870
▁clim	-1871
▁taken	-1872
▁stayed	-1873
▁sometimes	-1874
▁aff	-1875
▁bar	-1876
▁mag	-1877
▁deep	-1878
▁heav	-1879
▁drunk	-1880
▁Tatoeba	-1881
ma	-1882
eth	-1883
rell	-1884
▁yours	-1885
▁restaurant	-1886
erve	-1887
▁Put	-1888
▁pian	-1889
▁test	-1890
▁ed	-1891
▁New	-1892
▁sky	-1893
▁kids	-1894
▁ship	-1895
▁sever	-1896
▁cond	-1897
▁king	-1898
▁floor	-1899
▁several	-1900
▁eng	-1901
▁vac	-1902
▁doub	-1903
▁rules	-1904
▁terri	-1905
▁famous	-1906
bs	-1907
ilt	-1908
▁guy	-1909
▁lead	-1910
▁tast	-1911
▁chair	-1912
▁thirty	-1913
▁diction	-1914
▁American	-1915
ults	-1916
▁mis	-1917
▁apple	-1918
▁leaving	-1919
▁drinking	-1920
▁sentences	-1921
ru	-1922
right	-1923
▁prop	-1924
▁appro	-1925
▁govern	-1926
▁explain	-1927
▁supposed	-1928
mp	-1929
ots	-1930
▁bas	-1931
▁par	-1932
▁eight	-1933
▁exist	-1934
▁finish	-1935
ines	-1936
▁sup	-1937
▁escap	-1938
▁proud	-1939
▁touch	-1940
▁prison	-1941
▁running	-1942
oose	-1943
▁ice	-1944
▁umb	-1945
▁novel	-1946
▁Thanks	-1947
▁missed	-1948
▁Today	-1949
▁smoke	-1950
▁inside	-1951
▁played	-1952
▁talked	-1953
▁walked	-1954
▁everybody	-1955
ural	-1956
ustom	-1957
▁across	-1958
▁America	-1959
▁umbrell	-1960
▁whether	-1961
▁attention	-1962
uc	-1963
▁body	-1964
▁dogs	-1965
▁Canad	-1966
▁herself	-1967
▁Ex	-1968
▁hist	-1969
▁beach	-1970
▁quiet	-1971
▁report	-1972
reed	-1973
▁opened	-1974
▁dollars	-1975
▁finally	-1976
yo	-1977
uff	-1978
▁ann	-1979
▁hid	-1980
▁imag	-1981
▁libr	-1982
▁prep	-1983
▁top	-1984
▁ball	-1985
▁lock	-1986
▁Tokyo	-1987
▁bath	-1988
▁Esper	-1989
▁choice	-1990
▁Esperant	-1991
▁dictionary	-1992
▁boss	-1993
▁trees	-1994
▁honest	-1995
phone	-1996
▁conv	-1997
▁fine	-1998
medi	-1999
▁Even	-2000
▁vill	-2001
▁respect	-2002
▁weekend	-2003
eg	-2004
rent	-2005
▁ord	-2006
▁China	-2007
▁winter	-2008
▁promise	-2009
▁mad	-2010
▁treat	-2011
airs	-2012
▁Ital	-2013
▁speech	-2014
era	-2015
ges	-2016
rol	-2017
idge	-2018
▁bill	-2019
▁apart	-2020
▁const	-2021
▁public	-2022
anc	-2023
erc	-2024
head	-2025
▁bur	-2026
▁stra	-2027
▁price	-2028
▁Esperanto	-2029
hess	-2030
▁pea	-2031
ature	-2032
clock	-2033
ented	-2034
ggest	-2035
▁mach	-2036
▁given	-2037
▁pract	-2038
▁apolog	-2039
▁suggest	-2040
▁worried	-2041
▁swimming	-2042
ding	-2043
▁Keep	-2044
▁United	-2045
▁government	-2046
▁fat	-2047
▁ide	-2048
▁dest	-2049
▁requ	-2050
▁immedi	-2051
▁umbrella	-2052
▁Am	-2053
ices	-2054
road	-2055
▁los	-2056
▁meat	-2057
▁elect	-2058
come	-2059
▁ren	-2060
fully	-2061
▁Chinese	-2062
ird	-2063
une	-2064
ened	-2065
▁guys	-2066
▁piano	-2067
▁traffic	-2068
arch	-2069
ield	-2070
▁impos	-2071
▁voice	-2072
dden	-2073
▁crow	-2074
▁subject	-2075
oid	-2076
oof	-2077
▁eye	-2078
▁sle	-2079
ousand	-2080
▁newsp	-2081
▁months	-2082
▁capital	-2083
een	-2084
pty	-2085
▁ir	-2086
stem	-2087
▁dire	-2088
▁sudden	-2089
▁desk	-2090
▁liked	-2091
▁library	-2092
▁rid	-2093
ached	-2094
▁Kabyle	-2095
▁common	-2096
▁telling	-2097
iol	-2098
▁20	-2099
▁occ	-2100
▁fear	-2101
▁breat	-2102
▁mountain	-2103
ety	-2104
itted	-2105
▁Life	-2106
▁belong	-2107
▁passed	-2108
▁scared	-2109
▁glasses	-2110
▁difference	-2111
ues	-2112
▁div	-2113
▁wood	-2114
▁complain	-2115
sib	-2116
aged	-2117
▁suc	-2118
▁val	-2119
▁noise	-2120
▁shirt	-2121
▁crying	-2122
▁intell	-2123
omp	-2124
ises	-2125
▁bat	-2126
▁spoke	-2127
▁borrow	-2128
▁simple	-2129
▁succeed	-2130
▁impossible	-2131
oned	-2132
▁dev	-2133
▁creat	-2134
▁impro	-2135
▁minute	-2136
▁medicine	-2137
ishing	-2138
▁States	-2139
▁seemed	-2140
▁consider	-2141
▁arg	-2142
▁gun	-2143
▁weight	-2144
▁address	-2145
▁sleeping	-2146
ief	-2147
ony	-2148
▁ign	-2149
▁rad	-2150
▁coat	-2151
▁join	-2152
▁priv	-2153
▁star	-2154
▁Those	-2155
▁attack	-2156
▁course	-2157
isf	-2158
▁Oh	-2159
▁pun	-2160
▁easily	-2161
▁experience	-2162
ls	-2163
cts	-2164
hood	-2165
oint	-2166
ones	-2167
▁lying	-2168
▁driving	-2169
▁history	-2170
omm	-2171
rup	-2172
▁cop	-2173
▁gift	-2174
aw	-2175
ring	-2176
ering	-2177
▁hurry	-2178
▁piece	-2179
▁weren	-2180
▁leaves	-2181
bo	-2182
▁equ	-2183
▁shop	-2184
▁viol	-2185
▁chess	-2186
▁state	-2187
▁uncle	-2188
▁arrive	-2189
▁expected	-2190
▁z	-2191
iled	-2192
▁Was	-2193
iling	-2194
oring	-2195
▁seat	-2196
▁popular	-2197
▁vacation	-2198
▁themselves	-2199
▁immediately	-2200
iter	-2201
vious	-2202
▁draw	-2203
▁waste	-2204
▁Sunday	-2205
iday	-2206
urch	-2207
▁cow	-2208
eared	-2209
velop	-2210
▁warm	-2211
▁built	-2212
▁green	-2213
▁except	-2214
rown	-2215
▁mur	-2216
▁clos	-2217
friend	-2218
▁fruit	-2219
▁funny	-2220
▁system	-2221
▁countries	-2222
ton	-2223
▁OK	-2224
▁Any	-2225
▁boys	-2226
▁shot	-2227
father	-2228
▁plays	-2229
▁ground	-2230
▁actually	-2231
▁Tr	-2232
atic	-2233
▁pot	-2234
▁fing	-2235
▁wash	-2236
▁heavy	-2237
▁allowed	-2238
▁invited	-2239
▁message	-2240
▁visited	-2241
ze	-2242
que	-2243
iers	-2244
anish	-2245
ushed	-2246
▁gold	-2247
▁line	-2248
▁machine	-2249
▁er	-2250
▁fif	-2251
ables	-2252
ments	-2253
▁Good	-2254
▁lawy	-2255
idence	-2256
▁dance	-2257
▁worse	-2258
▁Berber	-2259
▁partic	-2260
▁though	-2261
▁sitting	-2262
▁painting	-2263
cil	-2264
ury	-2265
▁eff	-2266
▁sand	-2267
▁shut	-2268
▁empty	-2269
▁solve	-2270
▁happens	-2271
▁pe	-2272
ends	-2273
▁cats	-2274
▁surv	-2275
itchen	-2276
vision	-2277
▁appre	-2278
▁doubt	-2279
▁sight	-2280
▁veget	-2281
▁sounds	-2282
▁protect	-2283
▁neighbor	-2284
gan	-2285
▁fair	-2286
▁carry	-2287
▁abroad	-2288
▁single	-2289
▁Spanish	-2290
▁kitchen	-2291
▁project	-2292
▁village	-2293
▁translate	-2294
ims	-2295
uge	-2296
ploy	-2297
▁hang	-2298
▁moon	-2299
▁step	-2300
▁view	-2301
▁color	-2302
▁enemy	-2303
▁seven	-2304
▁custom	-2305
▁showed	-2306
itar	-2307
▁den	-2308
▁hol	-2309
▁loc	-2310
unity	-2311
▁peace	-2312
▁Someone	-2313
▁thousand	-2314
▁somewhere	-2315
▁mill	-2316
▁lucky	-2317
▁teeth	-2318
▁twenty	-2319
▁listening	-2320
rib	-2321
▁Mus	-2322
▁eggs	-2323
▁jump	-2324
▁either	-2325
▁entire	-2326
▁special	-2327
▁walking	-2328
▁fill	-2329
▁satisf	-2330
▁airport	-2331
▁support	-2332
ior	-2333
▁bra	-2334
cious	-2335
▁alive	-2336
▁asking	-2337
▁boyfriend	-2338
▁telephone	-2339
na	-2340
form	-2341
inal	-2342
▁inj	-2343
▁self	-2344
▁extre	-2345
▁offer	-2346
▁guitar	-2347
▁regret	-2348
ogn	-2349
ued	-2350
▁Sm	-2351
▁nor	-2352
▁marry	-2353
▁mot	-2354
ocked	-2355
▁burn	-2356
▁shall	-2357
▁church	-2358
▁movies	-2359
▁account	-2360
▁concert	-2361
cum	-2362
els	-2363
ails	-2364
▁lad	-2365
▁mouth	-2366
▁space	-2367
▁slowly	-2368
▁Russian	-2369
▁intellig	-2370
har	-2371
▁prin	-2372
▁quit	-2373
▁moved	-2374
▁sugar	-2375
▁control	-2376
iced	-2377
ient	-2378
▁ser	-2379
istic	-2380
▁base	-2381
▁bear	-2382
▁capt	-2383
▁cast	-2384
▁risk	-2385
▁player	-2386
aked	-2387
olute	-2388
ondon	-2389
▁cand	-2390
▁yell	-2391
▁slept	-2392
▁London	-2393
▁lawyer	-2394
▁promised	-2395
▁Sw	-2396
lier	-2397
over	-2398
▁mir	-2399
▁crit	-2400
▁held	-2401
▁suff	-2402
▁crowd	-2403
▁delic	-2404
▁appreci	-2405
▁raining	-2406
atch	-2407
ayed	-2408
cket	-2409
ides	-2410
ires	-2411
resh	-2412
▁boat	-2413
▁save	-2414
▁group	-2415
▁recogn	-2416
▁shopping	-2417
oph	-2418
▁Try	-2419
▁inn	-2420
iddle	-2421
▁form	-2422
▁pull	-2423
▁text	-2424
▁hates	-2425
▁incre	-2426
versity	-2427
▁waited	-2428
ex	-2429
ura	-2430
▁aut	-2431
ising	-2432
▁Gree	-2433
▁seeing	-2434
▁Ar	-2435
bers	-2436
▁Never	-2437
▁knife	-2438
▁relig	-2439
▁bottle	-2440
▁camera	-2441
▁collect	-2442
▁studied	-2443
line	-2444
▁cult	-2445
▁perm	-2446
▁soup	-2447
▁received	-2448
▁beginning	-2449
▁television	-2450
▁grandfather	-2451
ourn	-2452
▁Most	-2453
▁club	-2454
▁lake	-2455
mother	-2456
▁absolute	-2457
ole	-2458
ency	-2459
ives	-2460
rage	-2461
▁dam	-2462
▁rob	-2463
ipped	-2464
ories	-2465
▁auth	-2466
▁failed	-2467
▁economy	-2468
▁forward	-2469
▁laughing	-2470
▁ben	-2471
▁tot	-2472
ality	-2473
itive	-2474
▁main	-2475
▁press	-2476
▁radio	-2477
▁storm	-2478
▁sweet	-2479
▁throw	-2480
▁result	-2481
▁ticket	-2482
key	-2483
rog	-2484
oken	-2485
rodu	-2486
▁lim	-2487
▁film	-2488
ointed	-2489
▁market	-2490
▁Germany	-2491
▁extreme	-2492
▁patient	-2493
hem	-2494
▁emb	-2495
▁opt	-2496
▁ste	-2497
▁bike	-2498
▁hell	-2499
▁birds	-2500
▁ideas	-2501
▁object	-2502
▁earlier	-2503
▁Algerian	-2504
▁surprise	-2505
▁apartment	-2506
▁vol	-2507
▁vict	-2508
▁blind	-2509
▁hardly	-2510
▁younger	-2511
uri	-2512
▁flu	-2513
▁low	-2514
▁date	-2515
▁prev	-2516
▁upon	-2517
▁among	-2518
▁cloud	-2519
▁terrible	-2520
▁president	-2521
ume	-2522
verse	-2523
▁beat	-2524
▁cars	-2525
▁flat	-2526
▁Since	-2527
▁ahead	-2528
▁field	-2529
▁concer	-2530
▁forest	-2531
irty	-2532
ters	-2533
▁cir	-2534
lcome	-2535
ology	-2536
▁ring	-2537
ealous	-2538
▁stone	-2539
▁stood	-2540
▁invest	-2541
▁advised	-2542
▁singing	-2543
▁newspaper	-2544
cer	-2545
ron	-2546
▁Tw	-2547
ocol	-2548
▁ener	-2549
▁nerv	-2550
▁serv	-2551
▁arrest	-2552
▁nervous	-2553
▁pictures	-2554
▁deb	-2555
▁pack	-2556
ildren	-2557
▁offic	-2558
▁reach	-2559
▁driver	-2560
▁proper	-2561
▁toward	-2562
▁results	-2563
cks	-2564
aded	-2565
vered	-2566
▁calm	-2567
▁mail	-2568
▁wake	-2569
ording	-2570
▁cause	-2571
▁scient	-2572
lam	-2573
▁ur	-2574
ases	-2575
▁mod	-2576
▁card	-2577
▁joke	-2578
▁twice	-2579
▁temper	-2580
▁express	-2581
▁profess	-2582
▁somebody	-2583
mb	-2584
▁10	-2585
▁keys	-2586
▁Sorry	-2587
▁Their	-2588
▁refused	-2589
▁wonderful	-2590
ili	-2591
▁Sk	-2592
▁hy	-2593
▁aud	-2594
▁jud	-2595
▁unc	-2596
▁wed	-2597
▁lack	-2598
▁prov	-2599
▁using	-2600
▁weeks	-2601
unately	-2602
▁author	-2603
▁taught	-2604
▁comfort	-2605
▁watched	-2606
ec	-2607
und	-2608
▁obs	-2609
useum	-2610
▁hide	-2611
▁ones	-2612
ission	-2613
▁weird	-2614
▁couple	-2615
▁suspect	-2616
▁Cl	-2617
chie	-2618
▁Ind	-2619
▁Pol	-2620
▁tie	-2621
ances	-2622
▁chick	-2623
▁exerc	-2624
▁fault	-2625
▁example	-2626
▁jealous	-2627
sh	-2628
▁Ne	-2629
ager	-2630
▁cool	-2631
▁eats	-2632
▁lies	-2633
▁nose	-2634
▁shar	-2635
▁Earth	-2636
▁Marie	-2637
▁drank	-2638
▁smart	-2639
▁apples	-2640
▁chocol	-2641
▁dishes	-2642
▁dreams	-2643
▁engine	-2644
▁straight	-2645
lo	-2646
set	-2647
unt	-2648
cell	-2649
▁Bra	-2650
▁wis	-2651
▁Only	-2652
▁feet	-2653
▁norm	-2654
▁becom	-2655
▁dirty	-2656
▁island	-2657
▁natural	-2658
oul	-2659
ped	-2660
icle	-2661
▁ast	-2662
▁feed	-2663
▁crime	-2664
▁organ	-2665
▁animal	-2666
▁energy	-2667
▁develop	-2668
▁extremely	-2669
gth	-2670
ache	-2671
teen	-2672
▁ble	-2673
▁owe	-2674
▁sex	-2675
▁York	-2676
▁cell	-2677
▁effe	-2678
▁soft	-2679
▁board	-2680
▁stars	-2681
▁propos	-2682
▁spoken	-2683
▁letters	-2684
▁Yesterday	-2685
▁grandmother	-2686
rely	-2687
▁Has	-2688
▁cla	-2689
olved	-2690
▁Musl	-2691
▁purp	-2692
overed	-2693
▁behav	-2694
▁afford	-2695
▁bridge	-2696
▁drinks	-2697
▁covered	-2698
▁solution	-2699
▁suddenly	-2700
▁understood	-2701
▁disappointed	-2702
rit	-2703
ses	-2704
amed	-2705
ogra	-2706
▁Ara	-2707
▁ant	-2708
▁gar	-2709
▁Both	-2710
▁From	-2711
▁area	-2712
▁cute	-2713
▁fort	-2714
▁grad	-2715
▁above	-2716
ulation	-2717
▁Should	-2718
▁kissed	-2719
▁cooking	-2720
▁Sometimes	-2721
ege	-2722
▁Sat	-2723
▁maj	-2724
▁tur	-2725
anced	-2726
▁vide	-2727
▁plans	-2728
▁stuff	-2729
▁wedding	-2730
orth	-2731
▁rule	-2732
▁fresh	-2733
▁bother	-2734
▁harder	-2735
▁museum	-2736
▁meaning	-2737
▁program	-2738
▁whatever	-2739
sy	-2740
gle	-2741
par	-2742
uts	-2743
ccer	-2744
ghed	-2745
omen	-2746
▁cre	-2747
▁rev	-2748
ified	-2749
ional	-2750
▁drug	-2751
▁educ	-2752
▁weak	-2753
▁cream	-2754
▁innoc	-2755
▁butter	-2756
▁within	-2757
▁science	-2758
▁staying	-2759
▁standing	-2760
▁delicious	-2761
▁happening	-2762
pa	-2763
izz	-2764
▁da	-2765
▁ver	-2766
ledge	-2767
light	-2768
▁huge	-2769
▁achie	-2770
▁gives	-2771
▁share	-2772
▁smile	-2773
▁tears	-2774
▁whose	-2775
▁boring	-2776
▁demand	-2777
▁impress	-2778
▁Something	-2779
ask	-2780
ows	-2781
gest	-2782
▁tal	-2783
▁poem	-2784
▁tong	-2785
▁avoid	-2786
▁choose	-2787
▁escape	-2788
▁likely	-2789
▁notice	-2790
▁pencil	-2791
▁college	-2792
▁introdu	-2793
▁million	-2794
▁neither	-2795
▁Children	-2796
▁returned	-2797
000	-2798
arr	-2799
lebr	-2800
cause	-2801
eless	-2802
▁Braz	-2803
▁incl	-2804
▁lied	-2805
▁orig	-2806
▁stri	-2807
ounded	-2808
▁compet	-2809
▁itself	-2810
▁middle	-2811
▁opport	-2812
▁chocolate	-2813
▁condition	-2814
uty	-2815
book	-2816
ests	-2817
ilty	-2818
icked	-2819
riage	-2820
▁tech	-2821
▁match	-2822
▁saved	-2823
▁Canada	-2824
▁guilty	-2825
▁memory	-2826
▁scream	-2827
▁attract	-2828
▁planning	-2829
ale	-2830
ify	-2831
rac	-2832
atoes	-2833
▁Love	-2834
▁loud	-2835
▁taxi	-2836
▁feels	-2837
▁talks	-2838
▁Brazil	-2839
▁celebr	-2840
▁nature	-2841
▁reached	-2842
▁satisfied	-2843
▁Ken	-2844
▁gas	-2845
▁oil	-2846
▁tow	-2847
▁unl	-2848
▁Lind	-2849
▁tour	-2850
▁truck	-2851
▁Russia	-2852
▁destro	-2853
▁useful	-2854
▁washing	-2855
▁appreciate	-2856
gn	-2857
amm	-2858
let	-2859
▁By	-2860
rupt	-2861
ster	-2862
uses	-2863
▁kil	-2864
astic	-2865
▁Hell	-2866
▁danc	-2867
▁harm	-2868
▁Linda	-2869
▁advant	-2870
▁cheese	-2871
▁Because	-2872
▁dressed	-2873
▁starting	-2874
de	-2875
ium	-2876
▁bri	-2877
▁due	-2878
antly	-2879
▁bare	-2880
▁dise	-2881
▁lend	-2882
▁nine	-2883
▁sour	-2884
▁Islam	-2885
▁aware	-2886
▁hiding	-2887
▁shower	-2888
▁theory	-2889
▁obvious	-2890
30	-2891
acy	-2892
udd	-2893
▁Lea	-2894
ience	-2895
under	-2896
▁suit	-2897
sidered	-2898
▁explan	-2899
▁flight	-2900
▁native	-2901
▁threat	-2902
▁calling	-2903
▁injured	-2904
▁missing	-2905
▁purpose	-2906
▁absolutely	-2907
amp	-2908
iam	-2909
cing	-2910
▁Stay	-2911
▁rese	-2912
▁skin	-2913
▁soci	-2914
▁journ	-2915
▁relax	-2916
ization	-2917
▁attend	-2918
▁critic	-2919
▁employ	-2920
▁intern	-2921
▁tongue	-2922
ai	-2923
uel	-2924
▁corn	-2925
▁roof	-2926
▁keeps	-2927
▁third	-2928
▁absent	-2929
▁faster	-2930
▁singer	-2931
▁wallet	-2932
▁fishing	-2933
▁baseball	-2934
ppy	-2935
empt	-2936
▁hig	-2937
▁techn	-2938
▁flower	-2939
▁ordered	-2940
▁universe	-2941
▁following	-2942
▁considered	-2943
▁university	-2944
coh	-2945
ils	-2946
rel	-2947
sed	-2948
▁Ky	-2949
oted	-2950
▁Sha	-2951
cohol	-2952
ining	-2953
▁Wait	-2954
▁Skura	-2955
▁appear	-2956
▁decide	-2957
▁nobody	-2958
▁soccer	-2959
▁spring	-2960
▁laughed	-2961
▁progress	-2962
ler	-2963
llen	-2964
▁rum	-2965
apers	-2966
▁goal	-2967
▁legs	-2968
▁oper	-2969
▁pizz	-2970
▁type	-2971
▁avail	-2972
▁blame	-2973
▁plant	-2974
▁worst	-2975
▁buying	-2976
▁commun	-2977
▁giving	-2978
▁locked	-2979
▁master	-2980
sibility	-2981
▁apologize	-2982
▁forgotten	-2983
ne	-2984
olen	-2985
▁iss	-2986
▁tor	-2987
hamed	-2988
▁pair	-2989
▁stick	-2990
▁stole	-2991
▁descri	-2992
▁silent	-2993
▁stolen	-2994
▁believes	-2995
▁distance	-2996
▁feelings	-2997
▁carefully	-2998
▁seriously	-2999
aven	-3000
▁fit	-3001
▁spl	-3002
▁Aren	-3003
▁Well	-3004
▁arms	-3005
▁grew	-3006
▁mood	-3007
▁ride	-3008
▁admit	-3009
▁clock	-3010
▁major	-3011
▁video	-3012
▁salary	-3013
▁ashamed	-3014
▁destroy	-3015
▁helping	-3016
▁anywhere	-3017
▁soldiers	-3018
▁vegetables	-3019
▁translation	-3020
het	-3021
▁De	-3022
dern	-3023
▁War	-3024
▁fur	-3025
▁idi	-3026
▁yen	-3027
▁Read	-3028
▁ears	-3029
▁phys	-3030
▁wise	-3031
▁suitc	-3032
▁charac	-3033
▁indust	-3034
▁planet	-3035
▁continue	-3036
▁pleasure	-3037
▁proposal	-3038
▁happiness	-3039
▁policeman	-3040
oto	-3041
uly	-3042
ilar	-3043
▁Dav	-3044
▁Exc	-3045
▁env	-3046
▁map	-3047
idden	-3048
▁dish	-3049
▁woke	-3050
▁Satur	-3051
▁fired	-3052
▁beauty	-3053
▁sooner	-3054
ointment	-3055
▁forever	-3056
▁arrested	-3057
▁football	-3058
fortunately	-3059
ah	-3060
to	-3061
nect	-3062
▁Fin	-3063
▁pet	-3064
▁und	-3065
▁Jack	-3066
▁scen	-3067
▁Bring	-3068
▁Whose	-3069
▁aband	-3070
▁favour	-3071
▁thirst	-3072
ata	-3073
▁Bl	-3074
▁Pl	-3075
phan	-3076
▁See	-3077
▁amb	-3078
▁Were	-3079
▁meant	-3080
▁round	-3081
▁spell	-3082
▁Excuse	-3083
▁breath	-3084
▁easier	-3085
▁remind	-3086
▁season	-3087
▁England	-3088
▁entered	-3089
▁explanation	-3090
▁Ad	-3091
▁Pa	-3092
▁lay	-3093
▁rock	-3094
▁Leave	-3095
▁stuck	-3096
▁Intern	-3097
▁depart	-3098
▁direct	-3099
▁normal	-3100
▁article	-3101
▁enjoyed	-3102
▁instead	-3103
▁answered	-3104
▁brothers	-3105
▁personal	-3106
▁knowledge	-3107
▁relations	-3108
asc	-3109
irm	-3110
men	-3111
haps	-3112
▁Men	-3113
▁ban	-3114
▁nur	-3115
itude	-3116
▁hill	-3117
▁meal	-3118
▁rent	-3119
▁rice	-3120
▁Afric	-3121
▁Italy	-3122
▁divor	-3123
▁agreed	-3124
▁figure	-3125
▁record	-3126
▁private	-3127
▁behavior	-3128
:30	-3129
gic	-3130
son	-3131
▁Gr	-3132
itch	-3133
ruct	-3134
▁unf	-3135
▁poet	-3136
▁ended	-3137
▁sharp	-3138
▁speed	-3139
▁opportunity	-3140
▁Of	-3141
▁Hey	-3142
▁dad	-3143
▁est	-3144
▁fre	-3145
▁mel	-3146
▁neg	-3147
▁Brit	-3148
▁Make	-3149
▁lift	-3150
▁soul	-3151
▁till	-3152
▁David	-3153
▁cried	-3154
▁bright	-3155
▁charge	-3156
▁forgive	-3157
▁growing	-3158
▁noticed	-3159
▁windows	-3160
▁innocent	-3161
▁advantage	-3162
▁everywhere	-3163
▁responsible	-3164
▁'	-3165
pes	-3166
▁wa	-3167
▁cit	-3168
▁rab	-3169
▁ski	-3170
ashed	-3171
▁cous	-3172
ograph	-3173
▁Hello	-3174
▁costs	-3175
▁finger	-3176
▁pleased	-3177
dom	-3178
omed	-3179
▁Bel	-3180
▁fle	-3181
owing	-3182
▁Arab	-3183
▁Show	-3184
▁duty	-3185
▁fuck	-3186
▁plac	-3187
▁cards	-3188
▁cheap	-3189
▁pizza	-3190
▁sched	-3191
▁Sc	-3192
▁ru	-3193
rees	-3194
▁pat	-3195
cient	-3196
ument	-3197
using	-3198
▁bott	-3199
▁drop	-3200
▁drow	-3201
▁hous	-3202
▁annoy	-3203
▁complic	-3204
▁healthy	-3205
▁improve	-3206
▁followed	-3207
▁position	-3208
▁available	-3209
uk	-3210
ung	-3211
▁pu	-3212
hest	-3213
▁Bet	-3214
▁Two	-3215
▁cig	-3216
▁shy	-3217
▁Call	-3218
▁Last	-3219
▁bark	-3220
▁quar	-3221
▁sort	-3222
▁bored	-3223
▁climb	-3224
▁magaz	-3225
▁names	-3226
▁excell	-3227
▁gotten	-3228
▁handle	-3229
▁lights	-3230
▁recomm	-3231
▁alcohol	-3232
▁chicken	-3233
▁convers	-3234
▁disease	-3235
▁imagine	-3236
▁friendly	-3237
▁recently	-3238
▁certainly	-3239
ope	-3240
▁Ab	-3241
▁Isn	-3242
▁cab	-3243
▁dry	-3244
▁imm	-3245
board	-3246
▁crim	-3247
▁desp	-3248
▁hadn	-3249
▁page	-3250
▁path	-3251
▁Kyoto	-3252
▁faith	-3253
▁games	-3254
▁taste	-3255
▁bigger	-3256
▁effort	-3257
▁courage	-3258
▁willing	-3259
▁Americans	-3260
▁Per	-3261
▁enc	-3262
▁wet	-3263
▁amaz	-3264
▁lots	-3265
▁repe	-3266
▁salt	-3267
ically	-3268
stairs	-3269
▁event	-3270
▁tight	-3271
▁effect	-3272
▁Without	-3273
▁changes	-3274
▁dropped	-3275
▁perform	-3276
▁similar	-3277
▁exercise	-3278
rat	-3279
ased	-3280
okes	-3281
rael	-3282
▁Car	-3283
enced	-3284
entle	-3285
ounds	-3286
▁acqu	-3287
▁lazy	-3288
▁spec	-3289
▁dying	-3290
▁enter	-3291
▁paint	-3292
▁murder	-3293
▁pieces	-3294
▁sports	-3295
▁wealth	-3296
▁yellow	-3297
▁contrib	-3298
▁sisters	-3299
▁population	-3300
▁intelligent	-3301
▁30	-3302
▁Pr	-3303
ancy	-3304
cent	-3305
gent	-3306
night	-3307
usted	-3308
▁army	-3309
▁furn	-3310
▁heat	-3311
▁susp	-3312
▁weap	-3313
▁deser	-3314
▁liter	-3315
▁filled	-3316
▁mirror	-3317
▁Saturday	-3318
▁involved	-3319
▁marriage	-3320
▁prepared	-3321
▁Unfortunately	-3322
lied	-3323
▁Wor	-3324
icted	-3325
iment	-3326
▁fash	-3327
▁wore	-3328
▁Greek	-3329
▁citiz	-3330
▁Israel	-3331
▁button	-3332
▁caused	-3333
▁holiday	-3334
▁practice	-3335
▁political	-3336
▁comfortable	-3337
yle	-3338
▁ju	-3339
▁ug	-3340
aret	-3341
ners	-3342
▁bow	-3343
▁ess	-3344
ender	-3345
inite	-3346
▁Jane	-3347
▁Turn	-3348
▁bite	-3349
▁farm	-3350
▁inse	-3351
▁jack	-3352
▁math	-3353
▁meas	-3354
▁neck	-3355
▁hurts	-3356
▁convin	-3357
▁picked	-3358
▁spread	-3359
▁Italian	-3360
▁attempt	-3361
▁connect	-3362
▁general	-3363
▁discovered	-3364
▁particular	-3365
▁appointment	-3366
▁conversation	-3367
aint	-3368
tery	-3369
▁000	-3370
▁Man	-3371
ening	-3372
▁Port	-3373
▁coun	-3374
▁lady	-3375
▁rude	-3376
itation	-3377
▁gentle	-3378
▁product	-3379
▁accepted	-3380
▁passport	-3381
▁excellent	-3382
▁neighbors	-3383
▁ourselves	-3384
mon	-3385
ober	-3386
▁Ask	-3387
▁lic	-3388
hered	-3389
▁bull	-3390
▁lone	-3391
▁pool	-3392
▁size	-3393
itions	-3394
reedom	-3395
▁World	-3396
▁grass	-3397
▁habit	-3398
▁thief	-3399
▁threw	-3400
▁handed	-3401
▁remain	-3402
▁search	-3403
▁washed	-3404
▁silence	-3405
▁greatest	-3406
▁complicated	-3407
apt	-3408
cha	-3409
zen	-3410
host	-3411
▁Jew	-3412
▁Oct	-3413
ulous	-3414
▁data	-3415
▁meth	-3416
▁docum	-3417
▁steal	-3418
▁clearly	-3419
▁members	-3420
▁painted	-3421
▁suppose	-3422
▁thirsty	-3423
▁national	-3424
gl	-3425
arm	-3426
iff	-3427
pri	-3428
cean	-3429
rite	-3430
▁god	-3431
▁var	-3432
aring	-3433
ators	-3434
▁Bill	-3435
▁dare	-3436
▁pill	-3437
▁stom	-3438
▁brain	-3439
▁fixed	-3440
▁persu	-3441
▁separ	-3442
▁upset	-3443
▁castle	-3444
▁houses	-3445
▁social	-3446
▁accused	-3447
▁contact	-3448
▁totally	-3449
▁believed	-3450
ius	-3451
▁deg	-3452
▁ham	-3453
▁mid	-3454
usion	-3455
▁pron	-3456
▁email	-3457
▁ghost	-3458
▁wears	-3459
▁Portug	-3460
▁corner	-3461
▁flying	-3462
▁moving	-3463
▁remark	-3464
▁writer	-3465
▁October	-3466
▁belongs	-3467
▁failure	-3468
▁society	-3469
▁welcome	-3470
ns	-3471
ano	-3472
▁Em	-3473
ples	-3474
▁Acc	-3475
▁Gab	-3476
▁Hum	-3477
▁Jim	-3478
hings	-3479
▁Once	-3480
▁cred	-3481
▁obey	-3482
▁vote	-3483
arrass	-3484
urious	-3485
▁judge	-3486
▁pregn	-3487
▁Things	-3488
▁amount	-3489
▁bedroom	-3490
▁falling	-3491
▁studies	-3492
▁workers	-3493
▁teachers	-3494
▁embarrass	-3495
▁perfectly	-3496
ees	-3497
atin	-3498
days	-3499
lect	-3500
lled	-3501
vert	-3502
▁Jes	-3503
▁Rom	-3504
▁dig	-3505
▁joy	-3506
▁yes	-3507
arrow	-3508
ician	-3509
▁bell	-3510
▁decl	-3511
▁diet	-3512
▁exha	-3513
▁whom	-3514
ending	-3515
estern	-3516
▁calls	-3517
▁exper	-3518
▁horri	-3519
▁idiot	-3520
▁occur	-3521
▁ought	-3522
▁photo	-3523
▁squir	-3524
▁Father	-3525
▁acting	-3526
▁action	-3527
▁losing	-3528
▁slight	-3529
▁cigaret	-3530
▁deserve	-3531
▁fashion	-3532
▁schedule	-3533
▁education	-3534
▁neighbour	-3535
▁disappeared	-3536
lies	-3537
▁Bob	-3538
hemat	-3539
▁None	-3540
▁aunt	-3541
▁bask	-3542
▁cash	-3543
▁flag	-3544
▁rang	-3545
▁ugly	-3546
▁Jesus	-3547
▁Kabyl	-3548
▁naked	-3549
▁named	-3550
▁Friday	-3551
▁cancer	-3552
▁method	-3553
▁nearly	-3554
▁paying	-3555
▁earthqu	-3556
▁service	-3557
▁Internet	-3558
▁contract	-3559
▁fighting	-3560
▁investig	-3561
▁listened	-3562
▁mistaken	-3563
▁understands	-3564
cul	-3565
ldom	-3566
onna	-3567
uted	-3568
ware	-3569
▁fro	-3570
cture	-3571
dered	-3572
tered	-3573
▁Happ	-3574
▁Time	-3575
▁hero	-3576
▁sens	-3577
▁Watch	-3578
▁assist	-3579
▁modern	-3580
▁plenty	-3581
▁smells	-3582
▁century	-3583
▁convinced	-3584
▁recognize	-3585
amb	-3586
val	-3587
▁Gu	-3588
▁Op	-3589
▁bal	-3590
▁dea	-3591
▁fal	-3592
▁fed	-3593
imate	-3594
iture	-3595
stand	-3596
▁Each	-3597
▁Help	-3598
▁pred	-3599
▁runs	-3600
rently	-3601
▁level	-3602
▁rains	-3603
▁shoot	-3604
▁stren	-3605
▁colour	-3606
▁forced	-3607
▁fright	-3608
▁intend	-3609
▁seldom	-3610
▁escaped	-3611
▁further	-3612
▁audience	-3613
▁headache	-3614
▁suitcase	-3615
▁translated	-3616
aka	-3617
oll	-3618
omb	-3619
ilos	-3620
reen	-3621
▁cro	-3622
▁sla	-3623
iliar	-3624
urity	-3625
▁coin	-3626
▁jail	-3627
▁ways	-3628
▁brown	-3629
▁cance	-3630
▁juice	-3631
▁sandw	-3632
▁songs	-3633
▁usual	-3634
▁accomp	-3635
▁affect	-3636
▁clever	-3637
▁smiled	-3638
▁hearing	-3639
▁reality	-3640
▁tickets	-3641
▁becoming	-3642
▁relationship	-3643
go	-3644
lu	-3645
eds	-3646
pha	-3647
▁Sa	-3648
▁cy	-3649
rets	-3650
▁100	-3651
▁Day	-3652
▁hes	-3653
▁disg	-3654
▁poin	-3655
ential	-3656
ermark	-3657
▁oppos	-3658
▁thick	-3659
▁center	-3660
▁plants	-3661
▁challen	-3662
▁matters	-3663
▁teaching	-3664
▁supermark	-3665
rate	-3666
riel	-3667
▁anx	-3668
rated	-3669
▁rose	-3670
▁webs	-3671
▁apply	-3672
▁badly	-3673
▁sheep	-3674
▁tough	-3675
▁Africa	-3676
▁guests	-3677
▁taller	-3678
▁Gabriel	-3679
▁culture	-3680
▁enemies	-3681
▁managed	-3682
▁realize	-3683
▁stomach	-3684
▁European	-3685
▁electric	-3686
▁impressed	-3687
ev	-3688
iny	-3689
ona	-3690
tes	-3691
iest	-3692
racy	-3693
uary	-3694
yond	-3695
▁Col	-3696
▁non	-3697
fered	-3698
hange	-3699
ption	-3700
▁Sant	-3701
▁deaf	-3702
▁evil	-3703
▁mass	-3704
▁task	-3705
ration	-3706
▁First	-3707
▁illeg	-3708
olution	-3709
▁nation	-3710
▁resign	-3711
▁ability	-3712
▁created	-3713
▁Tomorrow	-3714
▁horrible	-3715
▁remained	-3716
▁character	-3717
▁explained	-3718
▁favourite	-3719
▁furniture	-3720
▁mountains	-3721
gers	-3722
ulty	-3723
▁Tur	-3724
▁hob	-3725
inary	-3726
▁Thom	-3727
▁betr	-3728
▁emer	-3729
▁noon	-3730
▁scar	-3731
inated	-3732
▁airpl	-3733
▁contr	-3734
▁lesson	-3735
▁raised	-3736
▁answers	-3737
▁pregnant	-3738
▁According	-3739
▁friendship	-3740
▁temperature	-3741
att	-3742
ival	-3743
ivil	-3744
▁pan	-3745
icide	-3746
iting	-3747
▁disp	-3748
▁elev	-3749
▁liar	-3750
▁trad	-3751
▁wild	-3752
▁Women	-3753
▁drove	-3754
▁helps	-3755
▁basket	-3756
▁sleepy	-3757
▁strict	-3758
▁fortune	-3759
▁mention	-3760
▁potatoes	-3761
▁examination	-3762
▁neighborhood	-3763
ji	-3764
ugg	-3765
eral	-3766
▁hom	-3767
▁jam	-3768
▁mos	-3769
▁psy	-3770
oured	-3771
▁Write	-3772
▁anger	-3773
▁democ	-3774
▁hated	-3775
▁skill	-3776
▁value	-3777
▁youth	-3778
▁Mother	-3779
▁burned	-3780
▁clouds	-3781
▁orange	-3782
▁carried	-3783
▁speaker	-3784
▁magazine	-3785
▁childhood	-3786
▁classroom	-3787
▁expecting	-3788
▁complaining	-3789
ipp	-3790
icks	-3791
king	-3792
lder	-3793
▁App	-3794
▁Pro	-3795
▁Rem	-3796
asons	-3797
ctors	-3798
ounce	-3799
▁camp	-3800
▁file	-3801
▁rate	-3802
▁Latin	-3803
▁brave	-3804
▁minim	-3805
▁motor	-3806
▁pants	-3807
▁prove	-3808
▁Muslim	-3809
▁Thomas	-3810
▁access	-3811
▁beyond	-3812
▁lonely	-3813
▁philos	-3814
▁stairs	-3815
▁William	-3816
▁crossed	-3817
▁Canadian	-3818
▁religion	-3819
▁abandoned	-3820
▁discussion	-3821
▁permission	-3822
zz	-3823
ode	-3824
▁Ph	-3825
elve	-3826
ores	-3827
▁adop	-3828
▁defe	-3829
▁iron	-3830
▁myst	-3831
▁spir	-3832
▁spot	-3833
▁surr	-3834
▁uses	-3835
▁Speak	-3836
▁Water	-3837
▁local	-3838
▁stock	-3839
▁fallen	-3840
▁manage	-3841
▁Western	-3842
▁efforts	-3843
▁receive	-3844
▁towards	-3845
▁convince	-3846
▁pressure	-3847
▁supermarket	-3848
oom	-3849
▁Me	-3850
illy	-3851
ingu	-3852
▁Dad	-3853
▁Hun	-3854
▁Jud	-3855
▁lat	-3856
▁mob	-3857
▁pig	-3858
erial	-3859
essed	-3860
orses	-3861
orter	-3862
▁anal	-3863
▁race	-3864
▁sale	-3865
▁simp	-3866
▁sons	-3867
▁tool	-3868
▁wide	-3869
cially	-3870
ounced	-3871
▁Spain	-3872
▁burst	-3873
▁raise	-3874
▁tells	-3875
▁woods	-3876
▁design	-3877
▁determ	-3878
▁includ	-3879
▁online	-3880
▁polite	-3881
▁thanks	-3882
▁unable	-3883
▁dancing	-3884
▁depends	-3885
▁offered	-3886
▁stories	-3887
▁bathroom	-3888
▁communic	-3889
▁criminal	-3890
▁politics	-3891
▁punished	-3892
nic	-3893
▁Dr	-3894
iron	-3895
owed	-3896
▁201	-3897
▁bes	-3898
▁nap	-3899
▁pup	-3900
▁2:30	-3901
▁Didn	-3902
▁Kore	-3903
▁dust	-3904
▁forb	-3905
▁surf	-3906
▁Smith	-3907
▁awake	-3908
▁banan	-3909
▁hesit	-3910
▁honey	-3911
▁ident	-3912
▁mayor	-3913
▁mouse	-3914
▁tooth	-3915
▁unless	-3916
▁capable	-3917
▁cookies	-3918
▁freedom	-3919
▁streets	-3920
▁appeared	-3921
▁presents	-3922
▁earthquake	-3923
gr	-3924
aff	-3925
bye	-3926
por	-3927
▁US	-3928
▁cho	-3929
▁Paul	-3930
▁Rome	-3931
▁band	-3932
▁dent	-3933
▁doors	-3934
▁fifty	-3935
▁gonna	-3936
▁truly	-3937
▁accent	-3938
▁closer	-3939
▁cousin	-3940
▁pocket	-3941
▁prices	-3942
▁rarely	-3943
▁regard	-3944
hematics	-3945
ironment	-3946
▁Perhaps	-3947
▁foolish	-3948
▁respond	-3949
▁contains	-3950
▁industry	-3951
▁spending	-3952
▁introduce	-3953
▁difficulty	-3954
hib	-3955
ker	-3956
nel	-3957
iles	-3958
ivid	-3959
unte	-3960
▁Mom	-3961
▁gay	-3962
▁lab	-3963
▁log	-3964
▁List	-3965
▁Open	-3966
▁numb	-3967
▁pond	-3968
▁stat	-3969
▁thin	-3970
▁activ	-3971
▁forty	-3972
▁model	-3973
▁roses	-3974
▁super	-3975
▁barely	-3976
▁distur	-3977
▁incred	-3978
▁pulled	-3979
▁tastes	-3980
▁treated	-3981
▁realized	-3982
▁destroyed	-3983
uing	-3984
urry	-3985
vent	-3986
▁Eat	-3987
▁mer	-3988
▁pal	-3989
▁wol	-3990
iving	-3991
▁Then	-3992
▁hole	-3993
▁hung	-3994
▁mult	-3995
▁pray	-3996
▁whis	-3997
▁salad	-3998
▁sport	-3999
ference	-4000
▁jacket	-4001
▁figured	-4002
▁fingers	-4003
▁illness	-4004
▁percent	-4005
▁request	-4006
▁Whatever	-4007
▁admitted	-4008
▁familiar	-4009
▁pleasant	-4010
▁continued	-4011
esp	-4012
ips	-4013
oot	-4014
▁Che	-4015
▁Pal	-4016
▁fog	-4017
▁uns	-4018
itary	-4019
▁Face	-4020
▁golf	-4021
▁hall	-4022
▁none	-4023
▁sees	-4024
lished	-4025
▁champ	-4026
▁false	-4027
▁fever	-4028
▁force	-4029
▁issue	-4030
▁kinds	-4031
▁ocean	-4032
▁psych	-4033
ruction	-4034
▁Before	-4035
▁credit	-4036
▁detail	-4037
▁passen	-4038
▁poison	-4039
▁simply	-4040
▁starts	-4041
▁twelve	-4042
▁unlike	-4043
ervation	-4044
▁achieve	-4045
▁captain	-4046
▁details	-4047
▁factory	-4048
▁largest	-4049
▁airplane	-4050
▁evidence	-4051
▁patience	-4052
▁strength	-4053
▁professor	-4054
▁recommend	-4055
▁environment	-4056
ias	-4057
▁ow	-4058
cast	-4059
iver	-4060
▁Rob	-4061
▁hyp	-4062
lling	-4063
▁More	-4064
▁shit	-4065
▁unha	-4066
ainted	-4067
▁Three	-4068
▁cheek	-4069
▁cover	-4070
▁equal	-4071
▁jokes	-4072
▁knock	-4073
▁liber	-4074
▁nurse	-4075
▁prize	-4076
▁react	-4077
▁style	-4078
▁excuse	-4079
▁heaven	-4080
▁higher	-4081
▁narrow	-4082
▁rained	-4083
▁source	-4084
▁suffer	-4085
▁urgent	-4086
▁British	-4087
▁contain	-4088
▁passion	-4089
▁process	-4090
▁remains	-4091
▁suicide	-4092
▁theater	-4093
▁touched	-4094
▁confused	-4095
▁consists	-4096
▁misunder	-4097
kay	-4098
pir	-4099
umn	-4100
▁En	-4101
amps	-4102
bits	-4103
▁rub	-4104
gency	-4105
▁Mart	-4106
▁carp	-4107
▁comb	-4108
▁fasc	-4109
▁nuts	-4110
▁While	-4111
▁acted	-4112
▁awful	-4113
▁claim	-4114
▁concl	-4115
▁cruel	-4116
▁facts	-4117
▁ignor	-4118
▁remem	-4119
▁reply	-4120
▁scene	-4121
▁shape	-4122
▁anyway	-4123
▁begins	-4124
▁deeply	-4125
▁denied	-4126
▁jumped	-4127
▁photos	-4128
▁princi	-4129
▁amazing	-4130
▁powerful	-4131
▁research	-4132
▁traveling	-4133
▁successful	-4134
▁understanding	-4135
ito	-4136
▁Fe	-4137
▁Fl	-4138
▁Os	-4139
ites	-4140
oura	-4141
▁Gen	-4142
▁lif	-4143
▁odd	-4144
▁rap	-4145
▁reb	-4146
ament	-4147
antic	-4148
esome	-4149
▁firm	-4150
▁port	-4151
▁repl	-4152
▁vers	-4153
endent	-4154
omeday	-4155
▁added	-4156
▁guard	-4157
▁shout	-4158
▁swear	-4159
▁hoping	-4160
▁insult	-4161
▁lately	-4162
▁rights	-4163
▁square	-4164
▁writes	-4165
▁elephan	-4166
▁illegal	-4167
▁license	-4168
▁survive	-4169
▁teaches	-4170
▁volunte	-4171
▁Facebook	-4172
▁approach	-4173
▁election	-4174
▁handsome	-4175
▁security	-4176
▁intention	-4177
▁intelligence	-4178
bet	-4179
ina	-4180
rer	-4181
rop	-4182
zed	-4183
onst	-4184
wise	-4185
zing	-4186
▁200	-4187
▁Mos	-4188
▁Rep	-4189
▁fan	-4190
▁led	-4191
▁pic	-4192
▁zoo	-4193
agger	-4194
isted	-4195
order	-4196
▁Lear	-4197
▁Such	-4198
▁chem	-4199
▁pale	-4200
▁rope	-4201
▁tail	-4202
cience	-4203
isions	-4204
▁White	-4205
▁drugs	-4206
▁gifts	-4207
▁gramm	-4208
▁queen	-4209
▁rough	-4210
▁desire	-4211
▁height	-4212
▁income	-4213
▁member	-4214
▁suspic	-4215
▁complex	-4216
▁concent	-4217
▁excited	-4218
▁manager	-4219
▁prevent	-4220
▁website	-4221
▁argument	-4222
▁borrowed	-4223
▁particip	-4224
fa	-4225
gs	-4226
iven	-4227
mber	-4228
word	-4229
▁Hold	-4230
▁aver	-4231
▁chat	-4232
▁drag	-4233
▁loss	-4234
▁resc	-4235
▁thro	-4236
though	-4237
▁Trans	-4238
▁bound	-4239
▁civil	-4240
▁extra	-4241
▁goods	-4242
▁hobby	-4243
▁influ	-4244
▁oppon	-4245
▁silly	-4246
▁straw	-4247
▁weigh	-4248
▁Arabic	-4249
▁During	-4250
▁bitter	-4251
▁advance	-4252
▁climbed	-4253
▁fifteen	-4254
▁regular	-4255
▁trusted	-4256
▁unhappy	-4257
▁useless	-4258
▁Somebody	-4259
▁violence	-4260
ov	-4261
ym	-4262
ald	-4263
eor	-4264
lin	-4265
urs	-4266
▁Hi	-4267
▁Je	-4268
▁Act	-4269
▁hug	-4270
▁len	-4271
▁nin	-4272
▁typ	-4273
aries	-4274
arily	-4275
▁Pres	-4276
▁unus	-4277
▁vain	-4278
▁virt	-4279
phabet	-4280
▁Grand	-4281
▁Happy	-4282
▁lands	-4283
▁toile	-4284
ilities	-4285
▁applic	-4286
▁artist	-4287
▁rabbit	-4288
▁saving	-4289
▁skiing	-4290
▁spends	-4291
▁awesome	-4292
▁delight	-4293
▁dentist	-4294
▁quality	-4295
▁alphabet	-4296
▁changing	-4297
▁increase	-4298
▁stranger	-4299
▁agreement	-4300
▁suffering	-4301
my	-4302
oms	-4303
▁Re	-4304
▁Se	-4305
irus	-4306
▁dom	-4307
▁tap	-4308
iable	-4309
▁Comp	-4310
▁cine	-4311
▁laid	-4312
▁push	-4313
▁redu	-4314
perate	-4315
▁finan	-4316
▁shame	-4317
▁terms	-4318
▁Listen	-4319
▁circum	-4320
▁served	-4321
▁command	-4322
▁players	-4323
▁elevator	-4324
▁humanity	-4325
▁tourists	-4326
▁upstairs	-4327
▁constantly	-4328
▁yourselves	-4329
▁international	-4330
▁Uk	-4331
ship	-4332
time	-4333
▁Sch	-4334
▁aim	-4335
▁err	-4336
▁rot	-4337
▁unb	-4338
asing	-4339
inist	-4340
izing	-4341
▁dumb	-4342
▁sang	-4343
▁alarm	-4344
▁blank	-4345
▁court	-4346
▁crack	-4347
▁error	-4348
▁final	-4349
▁lines	-4350
▁reads	-4351
▁snake	-4352
▁altern	-4353
▁battle	-4354
▁cities	-4355
▁parked	-4356
▁region	-4357
▁appears	-4358
▁journey	-4359
▁kilomet	-4360
▁located	-4361
▁putting	-4362
▁sweater	-4363
▁attacked	-4364
▁economic	-4365
▁sandwich	-4366
▁software	-4367
▁religious	-4368
▁succeeded	-4369
▁responsibility	-4370
ama	-4371
ept	-4372
▁Ha	-4373
▁Mo	-4374
▁bi	-4375
▁ho	-4376
▁nu	-4377
iber	-4378
irts	-4379
sequ	-4380
▁Say	-4381
idays	-4382
iders	-4383
opher	-4384
▁emot	-4385
▁lion	-4386
▁rely	-4387
▁sink	-4388
▁Hurry	-4389
▁aller	-4390
▁cough	-4391
▁disag	-4392
▁indep	-4393
▁screw	-4394
▁south	-4395
iculous	-4396
▁detect	-4397
▁fought	-4398
▁garage	-4399
▁genius	-4400
▁highly	-4401
▁novels	-4402
aughters	-4403
▁However	-4404
▁minimum	-4405
▁selling	-4406
▁winning	-4407
▁cleaning	-4408
▁kindness	-4409
▁shoulder	-4410
▁emergency	-4411
▁importance	-4412
cco	-4413
ipe	-4414
oti	-4415
fety	-4416
hern	-4417
pper	-4418
uous	-4419
uros	-4420
▁wit	-4421
eding	-4422
▁cher	-4423
▁cris	-4424
▁curt	-4425
▁grab	-4426
▁tent	-4427
ongrat	-4428
▁North	-4429
▁Osaka	-4430
▁actor	-4431
▁based	-4432
▁benef	-4433
▁hired	-4434
▁lower	-4435
▁optim	-4436
▁towel	-4437
▁turns	-4438
▁wheel	-4439
ificial	-4440
initely	-4441
▁bottom	-4442
▁cinema	-4443
▁create	-4444
▁horses	-4445
▁interv	-4446
▁places	-4447
▁refuse	-4448
▁resist	-4449
▁strike	-4450
▁warned	-4451
▁checked	-4452
▁climate	-4453
▁drowned	-4454
▁smiling	-4455
▁fluently	-4456
▁original	-4457
▁products	-4458
▁promises	-4459
▁passengers	-4460
▁scientific	-4461
isy	-4462
ney	-4463
urd	-4464
aled	-4465
gypt	-4466
▁Mor	-4467
▁agg	-4468
▁bak	-4469
▁net	-4470
▁pra	-4471
anges	-4472
asion	-4473
mates	-4474
uated	-4475
▁King	-4476
▁Mike	-4477
▁Stud	-4478
▁ange	-4479
▁fond	-4480
▁remo	-4481
▁shad	-4482
▁term	-4483
garian	-4484
▁Bible	-4485
▁Egypt	-4486
▁Santa	-4487
▁diary	-4488
▁finds	-4489
▁rumor	-4490
▁shows	-4491
ologist	-4492
▁admire	-4493
▁damage	-4494
▁drives	-4495
▁negoti	-4496
▁picnic	-4497
▁repres	-4498
▁wishes	-4499
ongratul	-4500
▁ancient	-4501
▁anxious	-4502
▁cleaned	-4503
▁crowded	-4504
▁knocked	-4505
▁medical	-4506
▁nowhere	-4507
▁survived	-4508
▁concerned	-4509
▁attractive	-4510
▁experienced	-4511
ids	-4512
isc	-4513
nad	-4514
now	-4515
rim	-4516
zer	-4517
▁Le	-4518
cles	-4519
ompl	-4520
▁Asi	-4521
▁lit	-4522
hetic	-4523
place	-4524
wards	-4525
▁blew	-4526
▁bran	-4527
▁cock	-4528
▁tend	-4529
icians	-4530
romise	-4531
▁skirt	-4532
inating	-4533
▁advert	-4534
▁buried	-4535
▁explos	-4536
▁fridge	-4537
▁mobile	-4538
▁pushed	-4539
▁toilet	-4540
standing	-4541
▁Muslims	-4542
▁Sundays	-4543
▁Welcome	-4544
▁biggest	-4545
▁goodbye	-4546
▁instruct	-4547
▁midnight	-4548
▁opposite	-4549
▁properly	-4550
▁stronger	-4551
▁according	-4552
▁daughters	-4553
▁democracy	-4554
▁exhausted	-4555
▁appearance	-4556
▁confidence	-4557
▁invitation	-4558
▁newspapers	-4559
oe	-4560
ux	-4561
ares	-4562
uits	-4563
▁bab	-4564
▁pin	-4565
▁spo	-4566
▁tit	-4567
aches	-4568
arian	-4569
ively	-4570
umped	-4571
▁copy	-4572
▁laws	-4573
▁poll	-4574
▁rise	-4575
▁sofa	-4576
▁valu	-4577
▁vase	-4578
idents	-4579
▁India	-4580
▁flood	-4581
▁fully	-4582
▁magic	-4583
▁occup	-4584
▁shelf	-4585
▁sings	-4586
▁walks	-4587
athered	-4588
▁collap	-4589
▁consum	-4590
▁interp	-4591
▁joking	-4592
▁length	-4593
▁signed	-4594
▁terror	-4595
▁burning	-4596
▁parties	-4597
▁planned	-4598
▁reasons	-4599
▁entirely	-4600
▁squirrel	-4601
▁traveled	-4602
▁computers	-4603
▁gentleman	-4604
do	-4605
ago	-4606
ara	-4607
bly	-4608
cus	-4609
lig	-4610
ulf	-4611
▁El	-4612
fers	-4613
oked	-4614
sing	-4615
vest	-4616
▁Cla	-4617
▁bud	-4618
▁coo	-4619
▁mut	-4620
erior	-4621
iring	-4622
▁Mars	-4623
▁edge	-4624
▁gate	-4625
▁lent	-4626
▁magn	-4627
▁rail	-4628
▁rare	-4629
▁warn	-4630
omatic	-4631
▁Being	-4632
▁Maria	-4633
▁blond	-4634
▁brief	-4635
▁frequ	-4636
▁miles	-4637
▁neare	-4638
▁spare	-4639
▁total	-4640
▁larger	-4641
▁solved	-4642
pecially	-4643
▁Neither	-4644
▁average	-4645
▁comment	-4646
▁consequ	-4647
▁degrees	-4648
▁elected	-4649
▁grandpa	-4650
▁attitude	-4651
▁password	-4652
▁celebrate	-4653
▁community	-4654
▁conscious	-4655
▁customers	-4656
▁wondering	-4657
▁mathematics	-4658
iko	-4659
ixt	-4660
uct	-4661
▁12	-4662
▁Ah	-4663
▁Or	-4664
▁Po	-4665
▁ut	-4666
aced	-4667
ophy	-4668
rels	-4669
▁pil	-4670
▁scr	-4671
▁van	-4672
ublic	-4673
▁Geor	-4674
▁dear	-4675
▁dict	-4676
▁ends	-4677
▁hire	-4678
▁host	-4679
▁ours	-4680
▁Close	-4681
▁couch	-4682
▁decor	-4683
▁flies	-4684
▁insur	-4685
▁socks	-4686
▁sweat	-4687
▁tempt	-4688
▁Palest	-4689
▁affair	-4690
▁conven	-4691
▁dating	-4692
▁invite	-4693
▁orders	-4694
▁spider	-4695
▁stamps	-4696
▁talent	-4697
▁butterf	-4698
▁divorce	-4699
▁finding	-4700
▁journal	-4701
▁knowing	-4702
▁package	-4703
▁gathered	-4704
▁holidays	-4705
▁invented	-4706
▁response	-4707
▁Algerians	-4708
▁Christian	-4709
▁President	-4710
▁committed	-4711
▁confident	-4712
▁decisions	-4713
▁pretended	-4714
▁experiment	-4715
▁impression	-4716
▁ridiculous	-4717
▁imagination	-4718
▁Mt	-4719
itor	-4720
osen	-4721
soci	-4722
▁arr	-4723
▁jun	-4724
▁wha	-4725
atory	-4726
eriod	-4727
inate	-4728
▁dece	-4729
▁link	-4730
▁puts	-4731
▁sail	-4732
▁shel	-4733
atives	-4734
▁South	-4735
▁bench	-4736
▁brush	-4737
▁cares	-4738
▁grown	-4739
▁hopes	-4740
▁mosqu	-4741
▁rapid	-4742
▁sells	-4743
▁shock	-4744
▁treas	-4745
▁cooked	-4746
▁humans	-4747
▁lovely	-4748
▁pupils	-4749
▁stones	-4750
▁throat	-4751
fficient	-4752
▁accompl	-4753
▁becomes	-4754
▁doctors	-4755
▁kidding	-4756
▁mystery	-4757
▁privacy	-4758
▁shocked	-4759
▁someday	-4760
▁unusual	-4761
▁betrayed	-4762
▁careless	-4763
▁opinions	-4764
▁positive	-4765
▁whenever	-4766
▁conference	-4767
▁eventually	-4768
che	-4769
com	-4770
cut	-4771
acle	-4772
chan	-4773
iped	-4774
uese	-4775
▁Add	-4776
▁Few	-4777
▁Mic	-4778
▁adj	-4779
▁thy	-4780
asses	-4781
uries	-4782
▁Miss	-4783
▁Soon	-4784
▁bags	-4785
▁debt	-4786
▁nons	-4787
▁poss	-4788
▁chose	-4789
▁coinc	-4790
▁guide	-4791
▁lemon	-4792
▁postp	-4793
berries	-4794
▁commit	-4795
▁danced	-4796
▁defend	-4797
▁period	-4798
▁poured	-4799
▁reject	-4800
▁stream	-4801
▁wisdom	-4802
▁classes	-4803
▁current	-4804
▁dreamed	-4805
▁exagger	-4806
▁justice	-4807
▁nearest	-4808
▁turning	-4809
▁Portuguese	-4810
agn	-4811
asy	-4812
ien	-4813
nes	-4814
ste	-4815
▁Ob	-4816
hara	-4817
izes	-4818
▁Eve	-4819
▁glo	-4820
▁rom	-4821
▁wra	-4822
andal	-4823
clear	-4824
▁Toki	-4825
▁cops	-4826
▁dawn	-4827
▁disl	-4828
▁fund	-4829
▁lips	-4830
▁oven	-4831
▁pity	-4832
▁tied	-4833
▁wolf	-4834
icated	-4835
▁Shall	-4836
▁aside	-4837
▁cheer	-4838
▁elder	-4839
▁flour	-4840
▁goals	-4841
▁grave	-4842
▁image	-4843
▁legal	-4844
▁maybe	-4845
▁plate	-4846
▁punct	-4847
▁rooms	-4848
▁split	-4849
▁sword	-4850
▁Columb	-4851
▁Transl	-4852
▁claims	-4853
▁crisis	-4854
▁double	-4855
▁fairly	-4856
▁hidden	-4857
▁ignore	-4858
▁repair	-4859
▁resour	-4860
▁safety	-4861
▁stands	-4862
▁individ	-4863
▁officer	-4864
▁opening	-4865
▁wounded	-4866
▁document	-4867
▁military	-4868
▁thoughts	-4869
▁unlikely	-4870
▁discussed	-4871
▁sensitive	-4872
▁conditions	-4873
▁especially	-4874
▁performance	-4875
▁possibility	-4876
fl	-4877
eed	-4878
erk	-4879
ino	-4880
▁dy	-4881
bing	-4882
iant	-4883
obal	-4884
orms	-4885
▁ded	-4886
▁rac	-4887
▁ric	-4888
arant	-4889
ckets	-4890
riger	-4891
▁Pona	-4892
▁jobs	-4893
▁role	-4894
▁Think	-4895
▁arrog	-4896
▁below	-4897
▁block	-4898
▁grant	-4899
▁honor	-4900
▁meals	-4901
▁wound	-4902
▁autumn	-4903
▁beings	-4904
▁chosen	-4905
▁colors	-4906
▁contro	-4907
▁depend	-4908
▁meters	-4909
▁possib	-4910
▁actress	-4911
▁content	-4912
▁numbers	-4913
▁secrets	-4914
▁shorter	-4915
▁slipped	-4916
▁achieved	-4917
▁citizens	-4918
▁deserves	-4919
▁divorced	-4920
▁property	-4921
▁essential	-4922
▁financial	-4923
▁photograph	-4924
▁politician	-4925
▁competition	-4926
▁professional	-4927
ka	-4928
kn	-4929
ica	-4930
▁Su	-4931
athy	-4932
ieve	-4933
utch	-4934
▁Cha	-4935
▁sen	-4936
enses	-4937
▁June	-4938
▁Next	-4939
▁Tony	-4940
▁dism	-4941
▁fant	-4942
▁frog	-4943
▁okay	-4944
▁proof	-4945
▁sides	-4946
▁subst	-4947
▁Greece	-4948
▁calcul	-4949
▁policy	-4950
▁robbed	-4951
▁spirit	-4952
▁struck	-4953
▁barking	-4954
▁curious	-4955
▁highest	-4956
▁insects	-4957
▁require	-4958
▁smaller	-4959
▁weapons	-4960
▁Although	-4961
▁attended	-4962
▁describe	-4963
▁laughter	-4964
▁opponent	-4965
▁princess	-4966
▁refriger	-4967
▁Hungarian	-4968
▁existence	-4969
▁obviously	-4970
▁suggested	-4971
▁tradition	-4972
▁surrounded	-4973
▁embarrassed	-4974
ban	-4975
met	-4976
uce	-4977
yal	-4978
▁Bu	-4979
▁Sy	-4980
▁je	-4981
cked	-4982
inct	-4983
male	-4984
▁Har	-4985
▁Jan	-4986
▁Pet	-4987
▁Slo	-4988
▁jew	-4989
ebook	-4990
elled	-4991
ially	-4992
ounts	-4993
pring	-4994
raine	-4995
▁Cats	-4996
▁Luck	-4997
▁repa	-4998
ateful	-4999
ession	-5000
▁Nancy	-5001
▁estab	-5002
▁falls	-5003
▁fence	-5004
▁greet	-5005
▁pride	-5006
▁sacri	-5007
▁sales	-5008
▁title	-5009
▁Berlin	-5010
▁Robert	-5011
▁joined	-5012
▁kicked	-5013
▁mechan	-5014
▁origin	-5015
▁sleeps	-5016
▁weapon	-5017
▁worker	-5018
▁actions	-5019
▁hanging	-5020
▁victory	-5021
▁wasting	-5022
▁Remember	-5023
▁grateful	-5024
▁wondered	-5025
▁forbidden	-5026
▁interview	-5027
▁frightened	-5028
esc	-5029
pher	-5030
uded	-5031
▁Air	-5032
▁mix	-5033
erved	-5034
▁Swed	-5035
▁West	-5036
▁Work	-5037
▁bomb	-5038
▁cere	-5039
▁deny	-5040
▁diam	-5041
▁fate	-5042
▁grou	-5043
▁note	-5044
▁reve	-5045
▁trap	-5046
tering	-5047
▁About	-5048
▁Roman	-5049
▁beard	-5050
▁begun	-5051
▁euros	-5052
▁grows	-5053
▁parts	-5054
▁seats	-5055
▁trunk	-5056
▁Mennad	-5057
▁Polish	-5058
▁compan	-5059
▁drawer	-5060
▁female	-5061
▁monkey	-5062
▁stared	-5063
▁Jackson	-5064
▁Smoking	-5065
▁chances	-5066
▁contest	-5067
▁drawing	-5068
▁follows	-5069
▁lecture	-5070
▁motorcy	-5071
▁oranges	-5072
▁prepare	-5073
▁soldier	-5074
▁violent	-5075
▁witness	-5076
▁elephant	-5077
▁notebook	-5078
▁presence	-5079
▁valuable	-5080
▁criticism	-5081
▁cigarettes	-5082
▁technology	-5083
alt	-5084
bon	-5085
ero	-5086
ipl	-5087
ades	-5088
born	-5089
inos	-5090
resp	-5091
vere	-5092
▁Gra	-5093
▁gri	-5094
▁phr	-5095
▁tip	-5096
▁Comm	-5097
▁Long	-5098
▁Moro	-5099
▁Send	-5100
▁belt	-5101
▁lean	-5102
▁male	-5103
▁unem	-5104
angers	-5105
ffered	-5106
leased	-5107
▁Black	-5108
▁James	-5109
▁Money	-5110
▁bloom	-5111
▁colon	-5112
▁condu	-5113
▁horiz	-5114
▁humor	-5115
▁purse	-5116
▁serve	-5117
▁stage	-5118
▁trade	-5119
▁troub	-5120
▁Anyone	-5121
▁Having	-5122
▁active	-5123
▁astron	-5124
▁behave	-5125
▁compos	-5126
▁exists	-5127
▁farmer	-5128
▁headed	-5129
▁impati	-5130
▁lasted	-5131
▁leader	-5132
▁papers	-5133
▁cheated	-5134
▁citizen	-5135
▁concern	-5136
▁delayed	-5137
▁guarant	-5138
▁pretend	-5139
▁removed	-5140
▁surface	-5141
▁Columbus	-5142
▁function	-5143
▁occurred	-5144
▁persuade	-5145
▁relative	-5146
▁requires	-5147
▁suffered	-5148
▁treasure	-5149
▁contribut	-5150
▁desperate	-5151
▁screaming	-5152
▁increasing	-5153
▁philosophy	-5154
▁scientists	-5155
▁suspicious	-5156
co	-5157
:00	-5158
azz	-5159
cra	-5160
gue	-5161
mar	-5162
▁Co	-5163
▁Gl	-5164
▁Sl	-5165
geon	-5166
pril	-5167
▁Ven	-5168
▁fra	-5169
▁pow	-5170
▁toy	-5171
icing	-5172
overy	-5173
▁Char	-5174
▁Fort	-5175
▁bees	-5176
▁drew	-5177
▁earn	-5178
▁gain	-5179
▁ment	-5180
▁reci	-5181
▁teen	-5182
▁toys	-5183
everal	-5184
▁April	-5185
▁Union	-5186
▁daily	-5187
▁flash	-5188
▁pages	-5189
▁rainy	-5190
▁toler	-5191
▁trick	-5192
▁walls	-5193
▁whist	-5194
ouraged	-5195
▁Sahara	-5196
▁associ	-5197
▁eleven	-5198
▁fields	-5199
▁gloves	-5200
▁profit	-5201
▁silver	-5202
▁strate	-5203
▁stress	-5204
▁victim	-5205
▁Several	-5206
▁Ukraine	-5207
▁aggress	-5208
▁hurried	-5209
▁options	-5210
▁species	-5211
▁various	-5212
▁accustom	-5213
▁annoying	-5214
▁bleeding	-5215
▁breaking	-5216
▁exchange	-5217
▁landscap	-5218
▁majority	-5219
▁minister	-5220
▁nonsense	-5221
▁official	-5222
▁direction	-5223
▁explosion	-5224
▁insurance	-5225
▁otherwise	-5226
▁prevented	-5227
▁published	-5228
▁secretary	-5229
▁expression	-5230
▁literature	-5231
▁reasonable	-5232
▁refrigerator	-5233
ika	-5234
nam	-5235
oko	-5236
uji	-5237
▁Fo	-5238
▁Ir	-5239
▁na	-5240
asts	-5241
bage	-5242
fied	-5243
rant	-5244
umer	-5245
▁Cle	-5246
▁Con	-5247
▁ath	-5248
▁gym	-5249
▁sem	-5250
▁tig	-5251
▁tun	-5252
▁unp	-5253
▁voc	-5254
allow	-5255
ching	-5256
erves	-5257
iding	-5258
▁Scot	-5259
▁arch	-5260
▁blow	-5261
▁fake	-5262
▁flew	-5263
▁onto	-5264
▁qual	-5265
▁rout	-5266
▁spin	-5267
▁Brown	-5268
▁Great	-5269
▁alike	-5270
▁chest	-5271
▁devil	-5272
▁north	-5273
▁scare	-5274
▁spect	-5275
▁spite	-5276
▁trave	-5277
ception	-5278
ishment	-5279
stances	-5280
▁Almost	-5281
▁candid	-5282
▁closet	-5283
▁defeat	-5284
▁latest	-5285
▁oldest	-5286
▁recent	-5287
▁settle	-5288
▁sevent	-5289
ological	-5290
▁Algiers	-5291
▁Israeli	-5292
▁adopted	-5293
▁balance	-5294
▁engaged	-5295
▁holding	-5296
▁keeping	-5297
▁reminds	-5298
▁retired	-5299
▁accompan	-5300
▁allergic	-5301
▁dreaming	-5302
▁informed	-5303
▁musician	-5304
▁repaired	-5305
▁wherever	-5306
▁employees	-5307
▁generally	-5308
▁prisoners	-5309
▁definitely	-5310
▁kilometers	-5311
ky	-5312
sa	-5313
ipt	-5314
mate	-5315
▁ing	-5316
▁shr	-5317
adays	-5318
ading	-5319
ement	-5320
erson	-5321
illed	-5322
urate	-5323
verty	-5324
▁Fuji	-5325
▁Inst	-5326
▁Mark	-5327
▁anti	-5328
▁bowl	-5329
▁owns	-5330
▁pure	-5331
▁roll	-5332
▁sett	-5333
▁soap	-5334
▁thou	-5335
riting	-5336
▁Alice	-5337
▁Drink	-5338
▁absor	-5339
▁hoped	-5340
▁jeans	-5341
▁metal	-5342
▁noisy	-5343
▁poems	-5344
▁stead	-5345
▁topic	-5346
▁voted	-5347
▁Spring	-5348
▁advent	-5349
▁brings	-5350
▁expert	-5351
▁former	-5352
▁infect	-5353
▁shared	-5354
▁Kabylie	-5355
▁applied	-5356
▁breathe	-5357
▁cheaper	-5358
▁helpful	-5359
▁ignored	-5360
▁pockets	-5361
▁poverty	-5362
▁scandal	-5363
▁selfish	-5364
▁arriving	-5365
▁mosquito	-5366
▁occasion	-5367
▁released	-5368
▁thirteen	-5369
▁depressed	-5370
▁preparing	-5371
▁artificial	-5372
▁introduced	-5373
▁recognized	-5374
▁alternative	-5375
▁application	-5376
▁electricity	-5377
▁instructions	-5378
bum	-5379
eah	-5380
ham	-5381
irds	-5382
lete	-5383
sion	-5384
wing	-5385
▁Cut	-5386
▁Min	-5387
▁pit	-5388
▁rat	-5389
ittee	-5390
onest	-5391
pered	-5392
▁Shut	-5393
▁dess	-5394
▁dipl	-5395
▁entr	-5396
▁fold	-5397
▁loan	-5398
▁phen	-5399
▁prec	-5400
▁stub	-5401
▁symp	-5402
▁unex	-5403
▁wand	-5404
ground	-5405
ivered	-5406
omfort	-5407
orough	-5408
priate	-5409
▁Frank	-5410
▁Human	-5411
▁eager	-5412
▁laund	-5413
▁minor	-5414
▁moves	-5415
▁sixty	-5416
▁spoon	-5417
▁stret	-5418
▁taxes	-5419
arently	-5420
▁School	-5421
▁cancel	-5422
▁centre	-5423
▁coward	-5424
▁faults	-5425
▁ghosts	-5426
▁hammer	-5427
▁landed	-5428
▁repeat	-5429
▁rising	-5430
▁battery	-5431
▁ceiling	-5432
▁corrupt	-5433
▁customs	-5434
▁envelop	-5435
▁greater	-5436
▁nuclear	-5437
▁provide	-5438
▁shining	-5439
▁slapped	-5440
▁victims	-5441
▁disagree	-5442
▁distingu	-5443
▁exciting	-5444
▁improved	-5445
▁reliable	-5446
▁terribly	-5447
▁unemploy	-5448
▁challenge	-5449
▁disappear	-5450
▁accompanied	-5451
▁independent	-5452
▁difficulties	-5453
▁investigation	-5454
af	-5455
dy	-5456
bow	-5457
edy	-5458
raw	-5459
reg	-5460
▁dw	-5461
▁ox	-5462
back	-5463
brew	-5464
gain	-5465
gery	-5466
▁Sit	-5467
▁Ten	-5468
▁sir	-5469
▁spr	-5470
alled	-5471
bered	-5472
itter	-5473
itzer	-5474
ously	-5475
rices	-5476
ummer	-5477
▁Dogs	-5478
▁Jean	-5479
▁Jews	-5480
▁cows	-5481
▁diss	-5482
▁duck	-5483
▁exec	-5484
▁item	-5485
▁rush	-5486
▁tire	-5487
orrect	-5488
pected	-5489
usting	-5490
▁Death	-5491
▁Langu	-5492
▁Start	-5493
▁angel	-5494
▁homes	-5495
▁leads	-5496
▁owner	-5497
▁wings	-5498
▁Choose	-5499
▁Hebrew	-5500
▁Prices	-5501
▁assume	-5502
▁border	-5503
▁debate	-5504
▁frozen	-5505
▁points	-5506
▁pounds	-5507
▁retire	-5508
▁subway	-5509
▁temple	-5510
▁Switzer	-5511
▁blowing	-5512
▁diamond	-5513
▁elderly	-5514
▁funeral	-5515
▁heavily	-5516
▁killing	-5517
▁lessons	-5518
▁parking	-5519
▁planted	-5520
▁plastic	-5521
▁prefers	-5522
▁snowing	-5523
▁Actually	-5524
▁clothing	-5525
▁comments	-5526
▁crossing	-5527
▁director	-5528
▁imagined	-5529
▁intended	-5530
▁phenomen	-5531
▁signific	-5532
▁stealing	-5533
▁cigarette	-5534
▁developed	-5535
▁documents	-5536
▁effective	-5537
▁exception	-5538
▁ignorance	-5539
▁influence	-5540
▁operation	-5541
▁Switzerland	-5542
▁coincidence	-5543
▁construction	-5544
▁grandparents	-5545
ern	-5546
ift	-5547
mit	-5548
ria	-5549
ube	-5550
▁Ed	-5551
ibly	-5552
mark	-5553
olic	-5554
oops	-5555
uals	-5556
▁Use	-5557
▁dim	-5558
▁gaz	-5559
▁row	-5560
▁sym	-5561
▁tar	-5562
known	-5563
▁Fuck	-5564
▁Hand	-5565
▁Tues	-5566
▁abst	-5567
▁cart	-5568
▁dies	-5569
▁fest	-5570
▁liqu	-5571
▁puzz	-5572
▁sore	-5573
▁stun	-5574
▁symb	-5575
▁unif	-5576
▁worn	-5577
▁argue	-5578
▁brand	-5579
▁dozen	-5580
▁dried	-5581
▁ideal	-5582
▁limit	-5583
▁oblig	-5584
▁quant	-5585
▁shave	-5586
osphere	-5587
▁banana	-5588
▁bookst	-5589
▁career	-5590
▁cherry	-5591
▁collea	-5592
▁desert	-5593
▁groups	-5594
▁skills	-5595
onscious	-5596
▁Kabylia	-5597
▁billion	-5598
▁dessert	-5599
▁grabbed	-5600
▁mission	-5601
▁produce	-5602
▁thunder	-5603
▁unknown	-5604
▁warning	-5605
▁canceled	-5606
▁charming	-5607
▁disaster	-5608
▁hesitate	-5609
▁material	-5610
▁romantic	-5611
▁speakers	-5612
▁thorough	-5613
▁accompany	-5614
▁authority	-5615
▁classical	-5616
▁delighted	-5617
▁therefore	-5618
▁accustomed	-5619
▁classmates	-5620
▁foreigners	-5621
▁impressive	-5622
▁production	-5623
▁surprising	-5624
▁threatened	-5625
▁translating	-5626
acc	-5627
hew	-5628
kin	-5629
len	-5630
oly	-5631
vak	-5632
exic	-5633
fall	-5634
iety	-5635
lymp	-5636
olar	-5637
reak	-5638
rial	-5639
▁Ann	-5640
▁Cal	-5641
▁Haw	-5642
▁Mrs	-5643
▁Tan	-5644
▁atm	-5645
▁hel	-5646
▁ink	-5647
▁nut	-5648
▁wid	-5649
agers	-5650
eable	-5651
ivity	-5652
unate	-5653
▁Budd	-5654
▁Turk	-5655
▁buys	-5656
▁goat	-5657
▁gray	-5658
▁mamm	-5659
▁rank	-5660
▁suck	-5661
▁Mexic	-5662
▁assum	-5663
▁bears	-5664
▁etern	-5665
▁films	-5666
▁heads	-5667
▁reput	-5668
▁risks	-5669
▁twins	-5670
ography	-5671
▁Slovak	-5672
▁branch	-5673
▁bucket	-5674
▁dancer	-5675
▁global	-5676
▁issues	-5677
▁knight	-5678
▁limits	-5679
▁loudly	-5680
▁prince	-5681
▁prohib	-5682
▁ruined	-5683
▁symbol	-5684
▁January	-5685
▁Morocco	-5686
▁Whoever	-5687
▁absence	-5688
▁bottles	-5689
▁candles	-5690
▁crashed	-5691
▁demonst	-5692
▁protest	-5693
▁seconds	-5694
▁staring	-5695
▁version	-5696
▁drowning	-5697
▁physical	-5698
▁precious	-5699
▁talented	-5700
▁textbook	-5701
▁tomatoes	-5702
▁buildings	-5703
▁correctly	-5704
▁departure	-5705
▁interrupt	-5706
▁scientist	-5707
▁collection	-5708
▁department	-5709
▁incredible	-5710
▁necessarily	-5711
aj	-5712
gu	-5713
rot	-5714
▁CD	-5715
▁Im	-5716
▁ep	-5717
▁pi	-5718
ales	-5719
anda	-5720
anna	-5721
hold	-5722
▁Aug	-5723
▁Had	-5724
▁Med	-5725
▁Mil	-5726
▁Wed	-5727
▁gro	-5728
▁sin	-5729
▁unw	-5730
▁web	-5731
chief	-5732
icate	-5733
ilies	-5734
▁Belg	-5735
▁Febr	-5736
▁Nice	-5737
▁cure	-5738
▁lamp	-5739
▁menu	-5740
▁mush	-5741
▁nail	-5742
▁pawn	-5743
▁pear	-5744
▁plot	-5745
▁sear	-5746
▁swam	-5747
▁thee	-5748
▁Dutch	-5749
▁Korea	-5750
▁Olymp	-5751
▁album	-5752
▁ambit	-5753
▁coach	-5754
▁conce	-5755
▁crash	-5756
▁tools	-5757
inosaur	-5758
itution	-5759
▁August	-5760
▁Follow	-5761
▁beside	-5762
▁blonde	-5763
▁dollar	-5764
▁gained	-5765
▁promot	-5766
▁purcha	-5767
▁snakes	-5768
▁wasted	-5769
▁Tuesday	-5770
▁beating	-5771
▁consult	-5772
▁counter	-5773
▁fucking	-5774
▁grammar	-5775
▁granted	-5776
▁related	-5777
▁February	-5778
▁Portugal	-5779
▁addition	-5780
▁cheating	-5781
▁constant	-5782
▁separate	-5783
▁visiting	-5784
▁accidents	-5785
▁interests	-5786
▁lightning	-5787
▁pronounce	-5788
▁regularly	-5789
▁shoulders	-5790
▁uncomfort	-5791
▁atmosphere	-5792
▁complained	-5793
▁motorcycle	-5794
▁remembered	-5795
▁concentrate	-5796
▁circumstances	-5797
asp	-5798
▁11	-5799
▁Lu	-5800
case	-5801
erry	-5802
etch	-5803
liam	-5804
orns	-5805
rian	-5806
▁Kar	-5807
▁Nag	-5808
▁raw	-5809
▁vul	-5810
▁wre	-5811
iking	-5812
▁East	-5813
▁July	-5814
▁Yeah	-5815
▁chop	-5816
▁dull	-5817
▁gods	-5818
▁knee	-5819
▁lugg	-5820
▁merc	-5821
▁prim	-5822
▁sake	-5823
▁tiny	-5824
▁tort	-5825
uments	-5826
▁Thurs	-5827
▁broad	-5828
▁cases	-5829
▁fifth	-5830
▁focus	-5831
▁hello	-5832
▁holds	-5833
▁instr	-5834
▁lover	-5835
▁minds	-5836
▁miser	-5837
▁pilot	-5838
▁revol	-5839
▁steps	-5840
▁sunny	-5841
▁virus	-5842
lection	-5843
▁George	-5844
▁Little	-5845
▁Wednes	-5846
▁absurd	-5847
▁carpet	-5848
▁causes	-5849
▁chairs	-5850
▁cooper	-5851
▁doubts	-5852
▁enjoys	-5853
▁forces	-5854
▁refuge	-5855
▁rushed	-5856
▁smoked	-5857
▁supper	-5858
▁surren	-5859
▁unfair	-5860
▁wooden	-5861
▁arguing	-5862
▁blanket	-5863
▁defense	-5864
▁happier	-5865
▁laundry	-5866
▁liberty	-5867
▁luggage	-5868
▁recover	-5869
▁surgery	-5870
▁captured	-5871
▁chemical	-5872
▁discover	-5873
▁distract	-5874
▁hundreds	-5875
▁incident	-5876
▁interpre	-5877
▁memories	-5878
▁possibly	-5879
▁prisoner	-5880
▁announced	-5881
▁assistant	-5882
▁bookstore	-5883
▁breathing	-5884
▁butterfly	-5885
▁committee	-5886
▁congratul	-5887
▁graduated	-5888
▁landscape	-5889
▁transport	-5890
▁apologized	-5891
▁compromise	-5892
▁downstairs	-5893
▁reputation	-5894
▁reservation	-5895
▁consequences	-5896
▁i	-5897
box	-5898
gin	-5899
gor	-5900
qsa	-5901
▁AI	-5902
hand	-5903
keys	-5904
mare	-5905
omic	-5906
ords	-5907
rots	-5908
vant	-5909
▁Art	-5910
▁Ice	-5911
▁Ste	-5912
▁bee	-5913
▁smo	-5914
andom	-5915
arter	-5916
asant	-5917
derer	-5918
oogle	-5919
▁Cont	-5920
▁Desp	-5921
▁Over	-5922
▁Play	-5923
▁acts	-5924
▁asks	-5925
▁ease	-5926
▁fart	-5927
▁fork	-5928
▁heal	-5929
▁lawn	-5930
▁leak	-5931
▁plat	-5932
▁ruin	-5933
▁wins	-5934
alking	-5935
ourage	-5936
ulated	-5937
▁Birds	-5938
▁Check	-5939
▁Doing	-5940
▁boots	-5941
▁boxes	-5942
▁burgl	-5943
▁candy	-5944
▁coast	-5945
▁frust	-5946
▁handw	-5947
▁inher	-5948
▁naive	-5949
▁plain	-5950
▁puppy	-5951
▁tower	-5952
ability	-5953
▁Better	-5954
▁Mosque	-5955
▁Nature	-5956
▁allows	-5957
▁analys	-5958
▁bullet	-5959
▁candle	-5960
▁ending	-5961
▁gather	-5962
▁multip	-5963
▁nearby	-5964
▁option	-5965
▁reward	-5966
▁robber	-5967
▁troops	-5968
▁unique	-5969
▁violin	-5970
▁physics	-5971
▁quarter	-5972
▁sending	-5973
▁stepped	-5974
▁tallest	-5975
▁addicted	-5976
▁arrogant	-5977
▁carrying	-5978
▁engineer	-5979
▁envelope	-5980
▁families	-5981
▁measures	-5982
▁messages	-5983
▁murderer	-5984
▁required	-5985
▁Wednesday	-5986
▁bothering	-5987
▁delivered	-5988
▁nightmare	-5989
▁persuaded	-5990
▁represent	-5991
▁assistance	-5992
▁conscience	-5993
▁suggestion	-5994
▁Christopher	-5995
▁personality	-5996
▁unconscious	-5997
▁communication	-5998
▁uncomfortable	-5999
ox	-6000
sc	-6001
cel	-6002
gen	-6003
hel	-6004
isp	-6005
rap	-6006
▁13	-6007
▁Ac	-6008
▁om	-6009
enly	-6010
enth	-6011
lish	-6012
nish	-6013
onym	-6014
oons	-6015
race	-6016
reet	-6017
▁Mat	-6018
▁Net	-6019
▁Whe	-6020
▁fox	-6021
▁mic	-6022
▁rug	-6023
▁spy	-6024
▁syn	-6025
▁vit	-6026
anned	-6027
ogram	-6028
olded	-6029
osity	-6030
ouder	-6031
vable	-6032
▁Aqsa	-6033
▁Wash	-6034
▁bone	-6035
▁cave	-6036
▁deer	-6037
▁grav	-6038
▁peel	-6039
▁tear	-6040
▁west	-6041
▁balls	-6042
▁chief	-6043
▁conqu	-6044
▁enorm	-6045
▁flows	-6046
▁labor	-6047
▁lasts	-6048
▁marks	-6049
▁numer	-6050
▁pitch	-6051
▁sheet	-6052
▁shook	-6053
▁solid	-6054
liament	-6055
outhern	-6056
▁belief	-6057
▁errors	-6058
▁events	-6059
▁fruits	-6060
▁histor	-6061
▁insane	-6062
▁intent	-6063
▁ladder	-6064
▁nights	-6065
▁packed	-6066
▁placed	-6067
▁priest	-6068
▁remove	-6069
▁series	-6070
▁smooth	-6071
▁sweets	-6072
▁tasted	-6073
▁trains	-6074
▁virtue	-6075
▁Believe	-6076
▁Despite	-6077
▁Finally	-6078
▁arrival	-6079
▁blocked	-6080
▁contrad	-6081
▁cutting	-6082
▁divided	-6083
▁effects	-6084
▁measure	-6085
▁perhaps	-6086
▁predict	-6087
▁rapidly	-6088
▁showing	-6089
▁watches	-6090
▁worries	-6091
▁Learning	-6092
▁accurate	-6093
▁forgiven	-6094
▁generous	-6095
▁interrup	-6096
▁mushroom	-6097
▁overcome	-6098
▁produced	-6099
▁screamed	-6100
▁slightly	-6101
▁stopping	-6102
▁stubborn	-6103
▁impatient	-6104
▁including	-6105
▁increased	-6106
▁paintings	-6107
▁recovered	-6108
▁resources	-6109
▁strangers	-6110
▁treatment	-6111
▁neighbours	-6112
▁development	-6113
▁particularly	-6114
ba	-6115
add	-6116
ibi	-6117
wan	-6118
▁ge	-6119
harm	-6120
ints	-6121
tain	-6122
▁Mal	-6123
▁Mum	-6124
▁Pre	-6125
▁Rec	-6126
▁Sea	-6127
▁Tea	-6128
▁cot	-6129
▁pir	-6130
anged	-6131
inter	-6132
issed	-6133
▁Cath	-6134
▁Kate	-6135
▁Mond	-6136
▁Sudd	-6137
▁craw	-6138
▁inha	-6139
▁maid	-6140
▁perf	-6141
▁prey	-6142
▁sixt	-6143
▁stro	-6144
▁tale	-6145
▁volc	-6146
▁yard	-6147
lliant	-6148
ushing	-6149
▁Alber	-6150
▁Claus	-6151
▁Guess	-6152
▁Hawai	-6153
▁Peter	-6154
▁Right	-6155
▁armed	-6156
▁aston	-6157
▁baked	-6158
▁coins	-6159
▁motiv	-6160
▁prior	-6161
▁reven	-6162
▁shine	-6163
▁signs	-6164
▁simpl	-6165
▁stops	-6166
▁suits	-6167
glasses	-6168
▁Either	-6169
▁Google	-6170
▁Jewish	-6171
▁advise	-6172
▁athlet	-6173
▁device	-6174
▁manner	-6175
▁random	-6176
▁remote	-6177
▁rotten	-6178
▁shadow	-6179
▁Britain	-6180
▁Instead	-6181
▁Whether	-6182
▁bananas	-6183
▁cleared	-6184
▁depress	-6185
▁garbage	-6186
▁harvest	-6187
▁horizon	-6188
▁manners	-6189
▁passing	-6190
▁picking	-6191
▁remarks	-6192
▁scratch	-6193
▁smarter	-6194
▁spiders	-6195
▁thanked	-6196
▁Suddenly	-6197
▁climbing	-6198
▁compared	-6199
▁counting	-6200
▁expenses	-6201
▁negative	-6202
▁rejected	-6203
▁repeated	-6204
▁worrying	-6205
▁attempted	-6206
▁aggressive	-6207
▁frequently	-6208
▁generation	-6209
▁principles	-6210
▁prohibited	-6211
▁fascinating	-6212
▁handwriting	-6213
▁politicians	-6214
▁translations	-6215
uf	-6216
sip	-6217
yst	-6218
▁Te	-6219
abul	-6220
agne	-6221
gage	-6222
sive	-6223
▁Dem	-6224
▁Far	-6225
▁Lin	-6226
▁Sus	-6227
▁Tra	-6228
▁mud	-6229
▁mum	-6230
acles	-6231
aptop	-6232
chers	-6233
ooked	-6234
rehen	-6235
ugged	-6236
unted	-6237
▁Sept	-6238
▁Sure	-6239
▁bent	-6240
▁fulf	-6241
▁mere	-6242
▁mort	-6243
▁purs	-6244
▁subs	-6245
▁wool	-6246
▁zero	-6247
istics	-6248
umbled	-6249
▁Betty	-6250
▁Green	-6251
▁Micha	-6252
▁Young	-6253
▁adapt	-6254
▁basis	-6255
▁cabin	-6256
▁confl	-6257
▁depri	-6258
▁earns	-6259
▁forms	-6260
▁loose	-6261
▁mercy	-6262
▁relie	-6263
▁seeds	-6264
▁shade	-6265
▁slice	-6266
▁slipp	-6267
▁stake	-6268
▁tiger	-6269
▁track	-6270
▁trump	-6271
▁whale	-6272
▁Hawaii	-6273
▁Police	-6274
▁engage	-6275
▁fluent	-6276
▁louder	-6277
▁merely	-6278
▁nerves	-6279
▁recipe	-6280
▁reluct	-6281
▁target	-6282
▁Finnish	-6283
▁Mondays	-6284
▁abandon	-6285
▁archite	-6286
▁conduct	-6287
▁consist	-6288
▁damaged	-6289
▁demands	-6290
▁furious	-6291
▁pressed	-6292
▁reflect	-6293
▁relaxed	-6294
▁rescued	-6295
▁shallow	-6296
▁travels	-6297
ification	-6298
▁Language	-6299
▁contrary	-6300
▁faithful	-6301
▁forecast	-6302
▁freezing	-6303
▁ordinary	-6304
▁previous	-6305
▁provided	-6306
▁spelling	-6307
▁superior	-6308
▁underest	-6309
▁September	-6310
▁centuries	-6311
▁fantastic	-6312
▁gradually	-6313
▁presented	-6314
▁complaints	-6315
▁connection	-6316
▁optimistic	-6317
▁phenomenon	-6318
▁relatively	-6319
▁sunglasses	-6320
▁unexpected	-6321
▁expectations	-6322
..	-6323
ij	-6324
ta	-6325
hus	-6326
leg	-6327
lex	-6328
ocr	-6329
▁Ap	-6330
adem	-6331
agle	-6332
aste	-6333
fire	-6334
iece	-6335
keep	-6336
load	-6337
mony	-6338
olve	-6339
ques	-6340
rict	-6341
▁Jac	-6342
▁Red	-6343
▁Rel	-6344
▁Too	-6345
▁ped	-6346
▁que	-6347
ardon	-6348
etite	-6349
istan	-6350
othes	-6351
▁Find	-6352
▁Park	-6353
▁Part	-6354
▁ages	-6355
▁beef	-6356
▁boil	-6357
▁chap	-6358
▁mice	-6359
▁pier	-6360
▁sank	-6361
▁shoe	-6362
▁verb	-6363
issors	-6364
itable	-6365
rained	-6366
ulture	-6367
urally	-6368
usions	-6369
utions	-6370
▁basic	-6371
▁bless	-6372
▁bunch	-6373
▁cakes	-6374
▁chain	-6375
▁fairy	-6376
▁fears	-6377
▁nails	-6378
▁pharm	-6379
▁robot	-6380
▁toast	-6381
▁Korean	-6382
▁bitten	-6383
▁budget	-6384
▁circle	-6385
▁dragon	-6386
▁grapes	-6387
▁hunter	-6388
▁incomp	-6389
▁laptop	-6390
▁loving	-6391
▁parent	-6392
▁pillow	-6393
▁poetry	-6394
▁rented	-6395
▁Michael	-6396
▁Turkish	-6397
▁approve	-6398
▁carrots	-6399
▁fainted	-6400
▁honesty	-6401
▁however	-6402
▁hunting	-6403
▁leaders	-6404
▁logical	-6405
▁lottery	-6406
▁miracle	-6407
▁monster	-6408
▁pointed	-6409
▁prescri	-6410
▁prosper	-6411
▁schools	-6412
▁shelter	-6413
▁Anything	-6414
▁Republic	-6415
▁Thursday	-6416
▁activity	-6417
▁advanced	-6418
▁attached	-6419
▁ceremony	-6420
▁curtains	-6421
▁customer	-6422
▁entering	-6423
▁entrance	-6424
▁internet	-6425
▁offended	-6426
▁punctual	-6427
▁register	-6428
▁scissors	-6429
▁searched	-6430
▁brilliant	-6431
▁collapsed	-6432
▁currently	-6433
▁detective	-6434
▁entertain	-6435
▁foreigner	-6436
▁intellect	-6437
▁basketball	-6438
▁characters	-6439
▁collecting	-6440
▁translator	-6441
ois	-6442
uan	-6443
▁Mi	-6444
aces	-6445
etic	-6446
izzy	-6447
kind	-6448
orce	-6449
rows	-6450
walk	-6451
▁Big	-6452
▁Gal	-6453
▁Jul	-6454
▁Old	-6455
▁ack	-6456
▁gos	-6457
▁ske	-6458
▁ups	-6459
▁vot	-6460
craft	-6461
essim	-6462
etime	-6463
icles	-6464
ighed	-6465
itate	-6466
itute	-6467
rants	-6468
ulate	-6469
▁2013	-6470
▁butt	-6471
▁caut	-6472
▁crew	-6473
▁envy	-6474
▁fits	-6475
▁gall	-6476
▁hers	-6477
▁jazz	-6478
▁pink	-6479
▁pipe	-6480
coming	-6481
ousers	-6482
porary	-6483
weight	-6484
▁Emily	-6485
▁Polit	-6486
▁guest	-6487
▁mustn	-6488
▁notes	-6489
▁rocks	-6490
▁scarf	-6491
▁solar	-6492
▁swims	-6493
▁thumb	-6494
▁trash	-6495
▁valid	-6496
▁Easter	-6497
▁Forget	-6498
▁Though	-6499
▁acknow	-6500
▁bakery	-6501
▁differ	-6502
▁formed	-6503
▁fourth	-6504
▁grades	-6505
▁ninety	-6506
▁racist	-6507
▁sorrow	-6508
▁statue	-6509
▁tender	-6510
▁wished	-6511
▁Germans	-6512
▁annoyed	-6513
▁apology	-6514
▁limited	-6515
▁network	-6516
▁observe	-6517
▁painter	-6518
▁pianist	-6519
▁possess	-6520
▁precise	-6521
▁replace	-6522
▁ringing	-6523
▁wealthy	-6524
▁Thousand	-6525
▁Whenever	-6526
▁composed	-6527
▁defeated	-6528
▁demanded	-6529
▁festival	-6530
▁specific	-6531
▁suitable	-6532
▁trousers	-6533
▁companies	-6534
▁respected	-6535
▁thousands	-6536
▁whispered	-6537
▁convenient	-6538
▁determined	-6539
▁disappoint	-6540
▁incredibly	-6541
▁recommended	-6542
NA	-6543
ti	-6544
ya	-6545
▁0	-6546
elf	-6547
how	-6548
imp	-6549
lad	-6550
rig	-6551
▁Pe	-6552
agon	-6553
ague	-6554
aire	-6555
assy	-6556
live	-6557
ooks	-6558
oses	-6559
roph	-6560
uise	-6561
▁300	-6562
▁Boy	-6563
▁Lau	-6564
▁Nor	-6565
▁Tai	-6566
▁Tam	-6567
▁Tar	-6568
▁aid	-6569
▁gor	-6570
▁hen	-6571
▁jar	-6572
▁veh	-6573
gment	-6574
icago	-6575
inals	-6576
stein	-6577
ufact	-6578
▁Leon	-6579
▁Very	-6580
▁anni	-6581
▁code	-6582
▁excl	-6583
▁isol	-6584
▁leaf	-6585
▁mall	-6586
▁mild	-6587
▁site	-6588
▁slam	-6589
▁slee	-6590
ctions	-6591
prints	-6592
▁adult	-6593
▁bones	-6594
▁creep	-6595
▁handy	-6596
▁knees	-6597
▁moral	-6598
▁prime	-6599
▁roads	-6600
▁sauce	-6601
▁score	-6602
▁shake	-6603
▁staff	-6604
▁tense	-6605
▁vitam	-6606
▁waves	-6607
abulary	-6608
onsider	-6609
▁Humans	-6610
▁Taiwan	-6611
▁adults	-6612
▁breaks	-6613
▁cheeks	-6614
▁crimes	-6615
▁hunger	-6616
▁leaned	-6617
▁minded	-6618
▁pessim	-6619
▁riding	-6620
▁sexual	-6621
▁territ	-6622
▁tomato	-6623
▁tricks	-6624
▁Chicago	-6625
▁Kabyles	-6626
▁admired	-6627
▁carries	-6628
▁claimed	-6629
▁confuse	-6630
▁founded	-6631
▁greeted	-6632
▁interfe	-6633
▁jumping	-6634
▁listens	-6635
▁pulling	-6636
▁regrets	-6637
▁settled	-6638
▁ambition	-6639
▁basement	-6640
▁conflict	-6641
▁dinosaur	-6642
▁eighteen	-6643
▁insisted	-6644
▁lifetime	-6645
▁manufact	-6646
▁murdered	-6647
▁numerous	-6648
▁Thousands	-6649
▁attracted	-6650
▁confessed	-6651
▁expressed	-6652
▁relatives	-6653
▁remembers	-6654
▁statement	-6655
▁acquainted	-6656
▁throughout	-6657
▁travelling	-6658
▁vocabulary	-6659
▁appropriate	-6660
▁countryside	-6661
▁distinguish	-6662
▁participate	-6663
▁organization	-6664
▁consciousness	-6665
ja	-6666
jud	-6667
lly	-6668
obe	-6669
ogy	-6670
omy	-6671
ris	-6672
ugs	-6673
ula	-6674
▁Ca	-6675
▁vo	-6676
abor	-6677
ique	-6678
rise	-6679
uate	-6680
uine	-6681
unci	-6682
▁Bar	-6683
▁Ben	-6684
▁Den	-6685
▁Gir	-6686
▁Out	-6687
▁bol	-6688
▁cas	-6689
▁poo	-6690
▁sav	-6691
▁wel	-6692
berry	-6693
stood	-6694
uggle	-6695
water	-6696
▁Juda	-6697
▁Like	-6698
▁Lord	-6699
▁Sing	-6700
▁Year	-6701
▁bald	-6702
▁damn	-6703
▁exit	-6704
▁fled	-6705
▁fuss	-6706
▁gamb	-6707
▁irre	-6708
▁junk	-6709
▁mask	-6710
▁obst	-6711
▁peak	-6712
▁pens	-6713
▁tatt	-6714
▁thri	-6715
▁vall	-6716
atures	-6717
▁Enjoy	-6718
▁Jones	-6719
▁Learn	-6720
▁Putin	-6721
▁adopt	-6722
▁downt	-6723
▁eagle	-6724
▁exams	-6725
▁faces	-6726
▁foods	-6727
▁giant	-6728
▁irrit	-6729
▁lacks	-6730
▁nerve	-6731
▁penal	-6732
▁postc	-6733
▁renew	-6734
▁rings	-6735
▁shell	-6736
▁wheat	-6737
▁wreck	-6738
imately	-6739
ionship	-6740
▁appeal	-6741
▁attrib	-6742
▁dispos	-6743
▁enthus	-6744
▁fooled	-6745
▁gifted	-6746
▁golden	-6747
▁habits	-6748
▁indeed	-6749
▁insist	-6750
▁invent	-6751
▁parrot	-6752
▁regist	-6753
▁shirts	-6754
▁sunset	-6755
▁surely	-6756
▁worthy	-6757
kerchief	-6758
▁burglar	-6759
▁cleaner	-6760
▁closing	-6761
▁costume	-6762
▁expense	-6763
▁fastest	-6764
▁genuine	-6765
▁greatly	-6766
▁leading	-6767
▁matches	-6768
▁objects	-6769
▁receipt	-6770
▁sounded	-6771
▁Palestin	-6772
▁affected	-6773
▁analysis	-6774
▁appetite	-6775
▁bringing	-6776
▁critical	-6777
▁designed	-6778
▁enormous	-6779
▁occupied	-6780
▁produces	-6781
▁relieved	-6782
▁replaced	-6783
▁resigned	-6784
▁visitors	-6785
▁youngest	-6786
▁automatic	-6787
▁connected	-6788
▁described	-6789
▁organized	-6790
▁reception	-6791
▁surrender	-6792
▁Apparently	-6793
▁approached	-6794
▁remarkable	-6795
▁vegetarian	-6796
▁Fortunately	-6797
▁handkerchief	-6798
rs	-6799
hai	-6800
iac	-6801
igs	-6802
uko	-6803
ums	-6804
▁Ak	-6805
▁Av	-6806
airo	-6807
cest	-6808
ders	-6809
iens	-6810
iour	-6811
oded	-6812
ping	-6813
rete	-6814
stan	-6815
uled	-6816
umps	-6817
▁Hal	-6818
▁Leb	-6819
▁Reg	-6820
▁awk	-6821
▁bug	-6822
▁emp	-6823
▁fem	-6824
▁lob	-6825
▁mal	-6826
eness	-6827
ishop	-6828
▁Asia	-6829
▁City	-6830
▁Fear	-6831
▁Food	-6832
▁Fore	-6833
▁Free	-6834
▁Wind	-6835
▁bene	-6836
▁gang	-6837
▁insp	-6838
▁kick	-6839
▁nodd	-6840
▁seas	-6841
▁sets	-6842
▁shed	-6843
▁stab	-6844
▁tore	-6845
▁typh	-6846
▁vast	-6847
▁wave	-6848
orders	-6849
▁Cairo	-6850
▁campa	-6851
▁debts	-6852
▁diagn	-6853
▁dizzy	-6854
▁exhib	-6855
▁files	-6856
▁harsh	-6857
▁lingu	-6858
▁loyal	-6859
▁medal	-6860
▁media	-6861
▁outdo	-6862
▁poker	-6863
▁refer	-6864
▁scale	-6865
▁slave	-6866
▁snack	-6867
▁stamp	-6868
▁steak	-6869
▁swing	-6870
▁theat	-6871
▁tries	-6872
amental	-6873
▁Change	-6874
▁Friend	-6875
▁Marika	-6876
▁Romans	-6877
▁babies	-6878
▁begged	-6879
▁counts	-6880
▁gossip	-6881
▁hearts	-6882
▁humili	-6883
▁killer	-6884
▁lifted	-6885
▁mutual	-6886
▁phrase	-6887
▁proved	-6888
▁reduce	-6889
▁resemb	-6890
▁stores	-6891
▁supply	-6892
▁tattoo	-6893
▁thrown	-6894
▁Frankly	-6895
▁Parents	-6896
▁arrives	-6897
▁awkward	-6898
▁baggage	-6899
▁bargain	-6900
▁capture	-6901
▁chemist	-6902
▁confess	-6903
▁confirm	-6904
▁destiny	-6905
▁devoted	-6906
▁element	-6907
▁fiction	-6908
▁haircut	-6909
▁leather	-6910
▁nations	-6911
▁regards	-6912
▁visible	-6913
▁wrapped	-6914
▁downtown	-6915
▁examined	-6916
▁examples	-6917
▁extraord	-6918
▁keyboard	-6919
▁proposed	-6920
▁reaction	-6921
▁starving	-6922
▁throwing	-6923
▁ambitious	-6924
▁completed	-6925
▁disturbed	-6926
▁guarantee	-6927
▁incorrect	-6928
▁interfere	-6929
▁objective	-6930
▁practical	-6931
▁satisfact	-6932
▁suitcases	-6933
▁suspected	-6934
▁conclusion	-6935
▁pretending	-6936
▁punishment	-6937
▁temptation	-6938
ua	-6939
awa	-6940
bag	-6941
hor	-6942
mel	-6943
rie	-6944
was	-6945
▁ax	-6946
anes	-6947
anic	-6948
bled	-6949
ille	-6950
lace	-6951
tles	-6952
ucky	-6953
xual	-6954
▁Buy	-6955
▁DNA	-6956
▁Dam	-6957
▁Dri	-6958
▁USA	-6959
▁ang	-6960
▁esc	-6961
▁hyd	-6962
▁jog	-6963
▁sam	-6964
▁sew	-6965
▁upd	-6966
aming	-6967
ander	-6968
eezed	-6969
estic	-6970
fight	-6971
ients	-6972
licop	-6973
ommod	-6974
shine	-6975
▁Care	-6976
▁Forg	-6977
▁Jess	-6978
▁Lucy	-6979
▁Mill	-6980
▁Poor	-6981
▁Step	-6982
▁Vlad	-6983
▁Want	-6984
▁grey	-6985
▁inex	-6986
▁load	-6987
▁owes	-6988
▁pros	-6989
▁seek	-6990
▁twin	-6991
▁visa	-6992
▁wing	-6993
▁wire	-6994
erials	-6995
liness	-6996
▁March	-6997
▁Stand	-6998
▁Swiss	-6999
▁Under	-7000
▁alibi	-7001
▁areas	-7002
▁baker	-7003
▁bills	-7004
▁blink	-7005
▁bride	-7006
▁burnt	-7007
▁cliff	-7008
▁deals	-7009
▁delay	-7010
▁drawn	-7011
▁faint	-7012
▁fewer	-7013
▁forth	-7014
▁immig	-7015
▁incon	-7016
▁ruled	-7017
▁sympt	-7018
▁waved	-7019
mission	-7020
▁ancest	-7021
▁assign	-7022
▁atomic	-7023
▁bishop	-7024
▁cloudy	-7025
▁manual	-7026
▁mental	-7027
▁modest	-7028
▁screen	-7029
▁snowed	-7030
▁states	-7031
▁strugg	-7032
▁valley	-7033
▁Belgium	-7034
▁Between	-7035
▁Judaism	-7036
▁Swedish	-7037
▁affairs	-7038
▁arrange	-7039
▁blushed	-7040
▁charges	-7041
▁closely	-7042
▁despise	-7043
▁eternal	-7044
▁intense	-7045
▁quietly	-7046
▁replied	-7047
▁scolded	-7048
▁sincere	-7049
▁spoiled	-7050
▁tourist	-7051
▁volcano	-7052
▁Catholic	-7053
▁Scotland	-7054
▁Speaking	-7055
▁Students	-7056
▁accommod	-7057
▁administ	-7058
▁benefits	-7059
▁coughing	-7060
▁enjoying	-7061
▁ignorant	-7062
▁included	-7063
▁kilogram	-7064
▁knocking	-7065
▁patients	-7066
▁weakness	-7067
▁weekends	-7068
▁answering	-7069
▁behaviour	-7070
▁dedicated	-7071
▁evolution	-7072
▁materials	-7073
▁pollution	-7074
▁searching	-7075
▁squirrels	-7076
▁terrified	-7077
▁accomplish	-7078
▁personally	-7079
▁communicate	-7080
▁destination	-7081
▁experiences	-7082
▁embarrassing	-7083
▁strawberries	-7084
ID	-7085
li	-7086
avo	-7087
boy	-7088
bul	-7089
bur	-7090
chi	-7091
cod	-7092
col	-7093
jam	-7094
osh	-7095
vey	-7096
▁Lo	-7097
▁Ra	-7098
affe	-7099
asty	-7100
ault	-7101
berg	-7102
coat	-7103
elie	-7104
esar	-7105
ghan	-7106
hile	-7107
imir	-7108
otic	-7109
ygen	-7110
▁202	-7111
▁Alp	-7112
▁Com	-7113
▁Ele	-7114
▁Sam	-7115
▁Sec	-7116
▁Sil	-7117
▁dug	-7118
▁gal	-7119
▁mig	-7120
aging	-7121
andra	-7122
house	-7123
ieves	-7124
lands	-7125
olves	-7126
▁Answ	-7127
▁Brun	-7128
▁Cook	-7129
▁Gold	-7130
▁Gust	-7131
▁Half	-7132
▁Kill	-7133
▁Pass	-7134
▁Wake	-7135
▁abol	-7136
▁cage	-7137
▁chim	-7138
▁deli	-7139
▁dial	-7140
▁east	-7141
▁hook	-7142
▁init	-7143
▁jerk	-7144
▁lung	-7145
▁pour	-7146
▁root	-7147
▁sits	-7148
▁ther	-7149
▁thus	-7150
▁tons	-7151
▁tune	-7152
▁vine	-7153
imming	-7154
rating	-7155
verted	-7156
▁Arabs	-7157
▁Chess	-7158
▁Gener	-7159
▁Words	-7160
▁ambul	-7161
▁crops	-7162
▁dates	-7163
▁fries	-7164
▁goats	-7165
▁grace	-7166
▁grain	-7167
▁gunsh	-7168
▁jewel	-7169
▁logic	-7170
▁meter	-7171
▁overl	-7172
▁scary	-7173
▁shark	-7174
▁swall	-7175
▁tends	-7176
▁types	-7177
▁union	-7178
▁wiped	-7179
▁withd	-7180
▁wives	-7181
▁yield	-7182
ificent	-7183
▁Afghan	-7184
▁agrees	-7185
▁assass	-7186
▁chased	-7187
▁decent	-7188
▁degree	-7189
▁eighty	-7190
▁hiking	-7191
▁laughs	-7192
▁makeup	-7193
▁passes	-7194
▁resort	-7195
▁serves	-7196
▁surviv	-7197
▁switch	-7198
▁tunnel	-7199
▁warmer	-7200
uriosity	-7201
▁Gustavo	-7202
▁Iceland	-7203
▁Martino	-7204
▁Shouldn	-7205
▁benefit	-7206
▁choices	-7207
▁compass	-7208
▁concept	-7209
▁dealing	-7210
▁dislike	-7211
▁distant	-7212
▁glanced	-7213
▁guessed	-7214
▁helicop	-7215
▁include	-7216
▁opposed	-7217
▁painful	-7218
▁passage	-7219
▁praised	-7220
▁quarrel	-7221
▁rabbits	-7222
▁revenge	-7223
▁richest	-7224
▁section	-7225
▁skipped	-7226
▁univers	-7227
unciation	-7228
▁Vladimir	-7229
▁approved	-7230
▁campaign	-7231
▁cheerful	-7232
▁cultural	-7233
▁declined	-7234
▁delicate	-7235
▁directly	-7236
▁homeless	-7237
▁machines	-7238
▁railroad	-7239
▁subjects	-7240
▁sunshine	-7241
▁supplies	-7242
sibilities	-7243
▁Palestine	-7244
▁addressed	-7245
▁champagne	-7246
▁collected	-7247
▁improving	-7248
▁mentioned	-7249
▁permitted	-7250
▁postponed	-7251
▁separated	-7252
▁individual	-7253
▁intentions	-7254
▁overweight	-7255
▁revolution	-7256
▁differences	-7257
▁civilization	-7258
▁consideration	-7259
▁misunderstood	-7260
ako	-7261
fle	-7262
ini	-7263
isl	-7264
ked	-7265
kes	-7266
pal	-7267
▁Cz	-7268
eare	-7269
ette	-7270
fice	-7271
iche	-7272
oard	-7273
oles	-7274
roll	-7275
▁Atl	-7276
▁Att	-7277
▁Jon	-7278
▁Mel	-7279
▁Res	-7280
▁Squ	-7281
▁apt	-7282
▁bod	-7283
▁bul	-7284
▁eth	-7285
▁fol	-7286
▁lux	-7287
▁tel	-7288
▁tos	-7289
▁ult	-7290
▁yog	-7291
acity	-7292
affes	-7293
ishes	-7294
▁Adam	-7295
▁Cent	-7296
▁Dece	-7297
▁Fire	-7298
▁Fish	-7299
▁Hist	-7300
▁Pope	-7301
▁Taro	-7302
▁Viet	-7303
▁circ	-7304
▁coal	-7305
▁desc	-7306
▁hast	-7307
▁jury	-7308
▁mole	-7309
▁plus	-7310
▁rook	-7311
▁shat	-7312
▁stir	-7313
▁tank	-7314
▁torn	-7315
▁unre	-7316
▁vice	-7317
elling	-7318
ficial	-7319
levant	-7320
urning	-7321
▁Bruno	-7322
▁Buddh	-7323
▁Clean	-7324
▁Czech	-7325
▁Light	-7326
▁Other	-7327
▁Sleep	-7328
▁Tower	-7329
▁banks	-7330
▁beans	-7331
▁cloth	-7332
▁crush	-7333
▁dough	-7334
▁essay	-7335
▁fatal	-7336
▁grade	-7337
▁memor	-7338
▁sneak	-7339
▁stays	-7340
▁sting	-7341
▁stink	-7342
bitants	-7343
▁Answer	-7344
▁Commun	-7345
▁Mayuko	-7346
▁Mexico	-7347
▁Modern	-7348
▁addict	-7349
▁beaten	-7350
▁commer	-7351
▁earned	-7352
▁exceed	-7353
▁exchan	-7354
▁fellow	-7355
▁folded	-7356
▁growth	-7357
▁horror	-7358
▁humble	-7359
▁liquid	-7360
▁misses	-7361
▁mostly	-7362
▁powers	-7363
▁prayed	-7364
▁rescue	-7365
▁review	-7366
▁rumors	-7367
▁safely	-7368
▁selfie	-7369
▁trusts	-7370
▁vision	-7371
▁voices	-7372
▁waiter	-7373
▁weighs	-7374
▁Olympic	-7375
▁Vietnam	-7376
▁boiling	-7377
▁curtain	-7378
▁digging	-7379
▁disturb	-7380
▁experts	-7381
▁figures	-7382
▁install	-7383
▁longest	-7384
▁mankind	-7385
▁planets	-7386
▁raising	-7387
▁subscri	-7388
▁thieves	-7389
▁trapped	-7390
▁trumpet	-7391
▁whoever	-7392
▁yelling	-7393
▁December	-7394
▁Minister	-7395
▁champion	-7396
▁declared	-7397
▁discount	-7398
▁hopeless	-7399
▁insulted	-7400
▁nowadays	-7401
▁peaceful	-7402
▁platform	-7403
▁promoted	-7404
▁sidewalk	-7405
▁touching	-7406
▁troubles	-7407
▁Canadians	-7408
▁ambulance	-7409
▁candidate	-7410
▁exercises	-7411
▁immediate	-7412
▁invention	-7413
▁sacrifice	-7414
▁distracted	-7415
▁engagement	-7416
▁flashlight	-7417
▁industrial	-7418
▁journalist	-7419
▁thoroughly	-7420
▁unemployed	-7421
▁advertising	-7422
▁appreciated	-7423
▁approaching	-7424
▁differently	-7425
▁established	-7426
▁magnificent	-7427
▁philosopher	-7428
▁significant	-7429
yl	-7430
arn	-7431
bec	-7432
bes	-7433
iat	-7434
lph	-7435
sis	-7436
urt	-7437
▁Ur	-7438
▁ec	-7439
▁iP	-7440
ador	-7441
aker	-7442
cred	-7443
cted	-7444
eras	-7445
eria	-7446
fish	-7447
gues	-7448
icip	-7449
kesp	-7450
ours	-7451
oust	-7452
outs	-7453
ties	-7454
yard	-7455
▁Bea	-7456
▁Cor	-7457
▁Dis	-7458
▁Exp	-7459
▁Fel	-7460
▁Int	-7461
▁Lou	-7462
▁Sir	-7463
▁Sov	-7464
▁Wow	-7465
▁ash	-7466
▁bon	-7467
▁orc	-7468
▁san	-7469
▁sou	-7470
chair	-7471
endar	-7472
point	-7473
umper	-7474
▁Grab	-7475
▁Holy	-7476
▁Must	-7477
▁Save	-7478
▁Yoko	-7479
▁adap	-7480
▁chew	-7481
▁cups	-7482
▁fuel	-7483
▁guns	-7484
▁inqu	-7485
▁mead	-7486
▁pigs	-7487
▁rode	-7488
▁tide	-7489
▁toes	-7490
icking	-7491
igence	-7492
itated	-7493
▁Champ	-7494
▁Click	-7495
▁Keiko	-7496
▁Leban	-7497
▁Music	-7498
▁Trump	-7499
▁autom	-7500
▁blown	-7501
▁cells	-7502
▁cheat	-7503
▁cries	-7504
▁dolph	-7505
▁frank	-7506
▁frost	-7507
▁heels	-7508
▁loser	-7509
▁negle	-7510
▁opens	-7511
▁opera	-7512
▁pills	-7513
▁roast	-7514
▁route	-7515
▁spark	-7516
▁steam	-7517
▁tires	-7518
▁trial	-7519
▁utter	-7520
▁Poland	-7521
▁Scient	-7522
▁Sooner	-7523
▁aliens	-7524
▁confir	-7525
▁cookie	-7526
▁devast	-7527
▁dining	-7528
▁diplom	-7529
▁heartb	-7530
▁helmet	-7531
▁kitten	-7532
▁knives	-7533
▁legend	-7534
▁loaded	-7535
▁lovers	-7536
▁melted	-7537
▁mosque	-7538
▁nodded	-7539
▁overse	-7540
▁poorly	-7541
▁potato	-7542
▁recall	-7543
▁slaves	-7544
▁string	-7545
▁teleph	-7546
▁telesc	-7547
▁traged	-7548
▁unbear	-7549
▁washes	-7550
▁wounds	-7551
kespeare	-7552
▁African	-7553
▁Forgive	-7554
▁Jessica	-7555
▁Luckily	-7556
▁Reading	-7557
▁Science	-7558
▁Twitter	-7559
▁behaved	-7560
▁borders	-7561
▁camping	-7562
▁cancell	-7563
▁causing	-7564
▁charged	-7565
▁compare	-7566
▁dischar	-7567
▁existed	-7568
▁hardest	-7569
▁harmful	-7570
▁haunted	-7571
▁heading	-7572
▁heating	-7573
▁highway	-7574
▁kingdom	-7575
▁methods	-7576
▁musical	-7577
▁pattern	-7578
▁penalty	-7579
▁pencils	-7580
▁rainbow	-7581
▁reserve	-7582
▁scenery	-7583
▁shouted	-7584
▁sixteen	-7585
▁sources	-7586
▁spilled	-7587
▁spirits	-7588
▁unlucky	-7589
▁vehicle	-7590
▁warming	-7591
formation	-7592
▁accounts	-7593
▁announce	-7594
▁darkness	-7595
▁deserted	-7596
▁dictator	-7597
▁forehead	-7598
▁illusion	-7599
▁necklace	-7600
▁normally	-7601
▁officers	-7602
▁postpone	-7603
▁refugees	-7604
▁reminded	-7605
▁southern	-7606
▁standard	-7607
▁surround	-7608
▁watermel	-7609
▁Generally	-7610
▁Translate	-7611
▁backwards	-7612
▁criminals	-7613
▁discovery	-7614
▁efficient	-7615
▁elections	-7616
▁magazines	-7617
▁miserable	-7618
▁naturally	-7619
▁promotion	-7620
▁vegetable	-7621
▁volunteer	-7622
▁Christians	-7623
▁blackboard	-7624
▁disgusting	-7625
▁encouraged	-7626
▁perfection	-7627
▁practicing	-7628
▁Shakespeare	-7629
▁cooperation	-7630
▁description	-7631
▁observation	-7632
▁pronunciation	-7633
▁underestimate	-7634
of	-7635
ada	-7636
arc	-7637
iar	-7638
isa	-7639
ita	-7640
oya	-7641
rid	-7642
the	-7643
▁Iv	-7644
▁Nu	-7645
cony	-7646
cure	-7647
down	-7648
mail	-7649
mbur	-7650
ogue	-7651
osis	-7652
pack	-7653
rier	-7654
ushi	-7655
uten	-7656
vard	-7657
what	-7658
▁Ant	-7659
▁Cap	-7660
▁Pay	-7661
▁Ric	-7662
▁hal	-7663
▁lip	-7664
▁ted	-7665
▁tex	-7666
▁tid	-7667
▁une	-7668
anded	-7669
angle	-7670
athon	-7671
hache	-7672
heart	-7673
inent	-7674
▁Four	-7675
▁Karl	-7676
▁Mine	-7677
▁Much	-7678
▁Nove	-7679
▁bass	-7680
▁blog	-7681
▁buff	-7682
▁cann	-7683
▁flav	-7684
▁keen	-7685
▁mile	-7686
▁pant	-7687
▁pays	-7688
▁piss	-7689
▁soil	-7690
▁vacc	-7691
avirus	-7692
igning	-7693
itched	-7694
ittens	-7695
keeper	-7696
loaded	-7697
orious	-7698
screen	-7699
▁Asian	-7700
▁Prime	-7701
▁Throw	-7702
▁Truth	-7703
▁alert	-7704
▁attic	-7705
▁award	-7706
▁cooks	-7707
▁coron	-7708
▁dolls	-7709
▁fried	-7710
▁galax	-7711
▁gorge	-7712
▁nasty	-7713
▁needn	-7714
▁prote	-7715
▁schiz	-7716
▁shore	-7717
▁users	-7718
▁wages	-7719
▁witch	-7720
orthern	-7721
respond	-7722
viously	-7723
▁Caesar	-7724
▁Coffee	-7725
▁Living	-7726
▁Nagoya	-7727
▁Sandra	-7728
▁Soviet	-7729
▁Street	-7730
▁Summer	-7731
▁Turkey	-7732
▁assure	-7733
▁betray	-7734
▁blamed	-7735
▁hambur	-7736
▁ladies	-7737
▁onions	-7738
▁oxygen	-7739
▁phoned	-7740
▁rolled	-7741
▁seated	-7742
▁severe	-7743
▁splend	-7744
▁turkey	-7745
▁visits	-7746
ervative	-7747
ographer	-7748
ulations	-7749
▁assumed	-7750
▁balcony	-7751
▁brushed	-7752
▁chimney	-7753
▁chopped	-7754
▁council	-7755
▁decline	-7756
▁despite	-7757
▁dishwas	-7758
▁distrib	-7759
▁excuses	-7760
▁hitting	-7761
▁mistook	-7762
▁primary	-7763
▁records	-7764
▁reduced	-7765
▁refuses	-7766
▁robbery	-7767
▁sandwic	-7768
▁shaking	-7769
▁sunrise	-7770
▁typhoon	-7771
▁uniform	-7772
▁whistle	-7773
▁November	-7774
▁emotions	-7775
▁isolated	-7776
▁marathon	-7777
▁movement	-7778
▁obsessed	-7779
▁overseas	-7780
▁partners	-7781
▁sacrific	-7782
▁shooting	-7783
▁sunlight	-7784
▁sympathy	-7785
▁training	-7786
▁adventure	-7787
▁affection	-7788
▁cellphone	-7789
▁dismissed	-7790
▁motivated	-7791
▁performed	-7792
▁qualified	-7793
▁strangely	-7794
▁temporary	-7795
▁helicopter	-7796
▁instrument	-7797
▁medication	-7798
▁mosquitoes	-7799
▁celebrating	-7800
▁composition	-7801
▁fundamental	-7802
▁individuals	-7803
▁inhabitants	-7804
▁traditional	-7805
hy	-7806
dge	-7807
hal	-7808
oes	-7809
▁Ma	-7810
▁Up	-7811
▁ly	-7812
▁ye	-7813
fess	-7814
foot	-7815
iate	-7816
illa	-7817
ills	-7818
isms	-7819
lind	-7820
oman	-7821
onia	-7822
oren	-7823
rane	-7824
ueen	-7825
▁Bew	-7826
▁Die	-7827
▁Hol	-7828
▁Pac	-7829
▁Spe	-7830
▁Str	-7831
▁Unt	-7832
▁Won	-7833
▁loo	-7834
▁mug	-7835
▁nit	-7836
▁roo	-7837
force	-7838
ifies	-7839
iforn	-7840
oline	-7841
olley	-7842
overs	-7843
rogen	-7844
▁Chan	-7845
▁Flav	-7846
▁Hang	-7847
▁Pier	-7848
▁Seen	-7849
▁Zion	-7850
▁athe	-7851
▁bars	-7852
▁brew	-7853
▁deed	-7854
▁deri	-7855
▁gest	-7856
▁inev	-7857
▁nest	-7858
▁nick	-7859
▁padd	-7860
▁quot	-7861
▁rage	-7862
▁sadd	-7863
▁silk	-7864
▁tape	-7865
▁tone	-7866
▁toot	-7867
agious	-7868
apping	-7869
cation	-7870
iation	-7871
ophren	-7872
tained	-7873
undant	-7874
▁Doesn	-7875
▁Haven	-7876
▁Ocean	-7877
▁Space	-7878
▁Susan	-7879
▁aimed	-7880
▁analy	-7881
▁bloss	-7882
▁charm	-7883
▁depth	-7884
▁displ	-7885
▁filth	-7886
▁fools	-7887
▁humid	-7888
▁impol	-7889
▁inexp	-7890
▁overt	-7891
▁owned	-7892
▁pains	-7893
▁pairs	-7894
▁parad	-7895
▁penny	-7896
▁saint	-7897
▁shops	-7898
▁sorts	-7899
▁spicy	-7900
▁steel	-7901
▁sucks	-7902
▁theft	-7903
▁unple	-7904
▁winds	-7905
▁windy	-7906
itement	-7907
▁Beware	-7908
▁Doctor	-7909
▁Hallow	-7910
▁Health	-7911
▁Honest	-7912
▁Winter	-7913
▁aboard	-7914
▁accord	-7915
▁amazed	-7916
▁batter	-7917
▁brains	-7918
▁breast	-7919
▁driven	-7920
▁extent	-7921
▁fixing	-7922
▁flames	-7923
▁freely	-7924
▁glance	-7925
▁greedy	-7926
▁ingred	-7927
▁jungle	-7928
▁kindly	-7929
▁meadow	-7930
▁parcel	-7931
▁pepper	-7932
▁planes	-7933
▁racket	-7934
▁reader	-7935
▁rested	-7936
▁sheets	-7937
▁steady	-7938
▁turtle	-7939
▁volley	-7940
atically	-7941
iversity	-7942
▁Alberto	-7943
▁Another	-7944
▁Anybody	-7945
▁Certain	-7946
▁Nations	-7947
▁attacks	-7948
▁besides	-7949
▁cameras	-7950
▁central	-7951
▁chapter	-7952
▁conspir	-7953
▁deliber	-7954
▁deliver	-7955
▁desired	-7956
▁embassy	-7957
▁explore	-7958
▁feather	-7959
▁heights	-7960
▁hurting	-7961
▁interse	-7962
▁kissing	-7963
▁letting	-7964
▁lighter	-7965
▁outcome	-7966
▁persons	-7967
▁praying	-7968
▁stunned	-7969
▁surgeon	-7970
▁unbelie	-7971
▁Californ	-7972
▁acquaint	-7973
▁acquired	-7974
▁backpack	-7975
▁bankrupt	-7976
▁beginner	-7977
▁collapse	-7978
▁concerns	-7979
▁creative	-7980
▁delivery	-7981
▁deprived	-7982
▁gorgeous	-7983
▁grandson	-7984
▁identity	-7985
▁infinite	-7986
▁outdoors	-7987
▁pathetic	-7988
▁quantity	-7989
▁regarded	-7990
▁slippery	-7991
▁sometime	-7992
▁somewhat	-7993
▁strategy	-7994
▁stressed	-7995
▁supports	-7996
▁symptoms	-7997
▁tolerate	-7998
▁Congratul	-7999
▁Halloween	-8000
▁Happiness	-8001
▁Obviously	-8002
▁astronaut	-8003
▁cancelled	-8004
▁creatures	-8005
▁diagnosed	-8006
▁inherited	-8007
▁mushrooms	-8008
▁principal	-8009
▁returning	-8010
▁slightest	-8011
▁supported	-8012
▁surprises	-8013
▁teenagers	-8014
▁background	-8015
▁challenges	-8016
▁colleagues	-8017
▁compliment	-8018
▁contagious	-8019
▁contradict	-8020
▁correspond	-8021
▁dishwasher	-8022
▁excitement	-8023
▁unpleasant	-8024
▁conditioner	-8025
▁schizophren	-8026
▁extraordinary	-8027
jo	-8028
ko	-8029
sm	-8030
arf	-8031
avy	-8032
cow	-8033
enn	-8034
ext	-8035
oan	-8036
ops	-8037
tub	-8038
uki	-8039
▁II	-8040
bone	-8041
coln	-8042
erus	-8043
iago	-8044
itty	-8045
lers	-8046
ller	-8047
mble	-8048
ulse	-8049
umes	-8050
wood	-8051
▁Due	-8052
▁Han	-8053
▁Hot	-8054
▁Jup	-8055
▁Lad	-8056
▁Pea	-8057
▁Pri	-8058
▁Tob	-8059
▁ank	-8060
▁dil	-8061
▁dut	-8062
▁fry	-8063
▁gap	-8064
▁jet	-8065
▁lap	-8066
▁sed	-8067
▁sev	-8068
▁ven	-8069
▁vir	-8070
adium	-8071
alent	-8072
atell	-8073
lings	-8074
mares	-8075
orted	-8076
orthy	-8077
rical	-8078
roach	-8079
ronic	-8080
rough	-8081
▁Anna	-8082
▁Bank	-8083
▁Boys	-8084
▁Fred	-8085
▁Matt	-8086
▁Supp	-8087
▁Vict	-8088
▁Wall	-8089
▁beds	-8090
▁choo	-8091
▁clar	-8092
▁flex	-8093
▁idle	-8094
▁panc	-8095
▁rust	-8096
▁soph	-8097
▁subt	-8098
▁tact	-8099
▁user	-8100
▁ward	-8101
▁wars	-8102
acious	-8103
atered	-8104
atical	-8105
imated	-8106
ranean	-8107
sticks	-8108
▁Apart	-8109
▁Armen	-8110
▁Chile	-8111
▁Count	-8112
▁Elias	-8113
▁Helen	-8114
▁House	-8115
▁Jonas	-8116
▁Study	-8117
▁Trust	-8118
▁alien	-8119
▁appla	-8120
▁aspir	-8121
▁await	-8122
▁chips	-8123
▁faced	-8124
▁feeds	-8125
▁indic	-8126
▁overw	-8127
▁panic	-8128
▁pasta	-8129
▁perse	-8130
▁prost	-8131
▁range	-8132
▁raped	-8133
▁reign	-8134
▁rises	-8135
▁royal	-8136
▁ruins	-8137
▁safer	-8138
▁ships	-8139
▁stove	-8140
▁stung	-8141
▁tourn	-8142
▁vague	-8143
ichever	-8144
inction	-8145
respect	-8146
▁Flavio	-8147
▁Heaven	-8148
▁Moscow	-8149
▁Really	-8150
▁academ	-8151
▁cattle	-8152
▁crocod	-8153
▁dumped	-8154
▁filthy	-8155
▁garlic	-8156
▁hugged	-8157
▁indisp	-8158
▁junior	-8159
▁learns	-8160
▁motion	-8161
▁naught	-8162
▁needle	-8163
▁offers	-8164
▁orphan	-8165
▁palace	-8166
▁perman	-8167
▁plates	-8168
▁proced	-8169
▁ripped	-8170
▁rivers	-8171
▁sacred	-8172
▁satell	-8173
▁skinny	-8174
▁slower	-8175
▁stable	-8176
▁superv	-8177
▁volume	-8178
▁wicked	-8179
▁winner	-8180
inations	-8181
▁Harvard	-8182
▁Judging	-8183
▁Jupiter	-8184
▁Lincoln	-8185
▁Mediter	-8186
▁Pacific	-8187
▁amusing	-8188
▁bathtub	-8189
▁compete	-8190
▁context	-8191
▁cousins	-8192
▁crushed	-8193
▁despair	-8194
▁dresses	-8195
▁filling	-8196
▁forgets	-8197
▁invaded	-8198
▁jewelry	-8199
▁moments	-8200
▁muscles	-8201
▁perfume	-8202
▁printer	-8203
▁privile	-8204
▁savings	-8205
▁seasons	-8206
▁servant	-8207
▁seventy	-8208
▁squares	-8209
▁stadium	-8210
▁swimmer	-8211
▁tragedy	-8212
▁typical	-8213
▁warrant	-8214
▁worship	-8215
▁Santiago	-8216
▁arranged	-8217
▁calendar	-8218
▁catching	-8219
▁chickens	-8220
▁concrete	-8221
▁creature	-8222
▁deadline	-8223
▁deserved	-8224
▁diseases	-8225
▁exploded	-8226
▁hypothes	-8227
▁instinct	-8228
▁opportun	-8229
▁recorded	-8230
▁recovery	-8231
▁strictly	-8232
▁tendency	-8233
▁transfer	-8234
▁vanished	-8235
▁comprehen	-8236
▁confirmed	-8237
▁criticize	-8238
▁elsewhere	-8239
▁fortunate	-8240
▁innocence	-8241
▁potential	-8242
▁responded	-8243
▁sentenced	-8244
▁shattered	-8245
▁solutions	-8246
▁suspended	-8247
▁telescope	-8248
▁territory	-8249
▁acceptable	-8250
▁celebrated	-8251
▁chopsticks	-8252
▁continuous	-8253
▁contribute	-8254
▁controlled	-8255
▁mysterious	-8256
▁nightmares	-8257
▁sandwiches	-8258
▁unbearable	-8259
▁volleyball	-8260
▁Afghanistan	-8261
▁conclusions	-8262
▁considering	-8263
▁discouraged	-8264
▁improvement	-8265
▁interpreter	-8266
▁accidentally	-8267
▁conservative	-8268
▁presentation	-8269
▁Mediterranean	-8270
ads	-8271
awn	-8272
ena	-8273
esh	-8274
ido	-8275
lav	-8276
los	-8277
mes	-8278
off	-8279
put	-8280
rob	-8281
▁py	-8282
aith	-8283
amen	-8284
arse	-8285
arus	-8286
bble	-8287
cely	-8288
hole	-8289
ials	-8290
icon	-8291
ieth	-8292
itis	-8293
oker	-8294
oler	-8295
phew	-8296
pple	-8297
ront	-8298
▁Bus	-8299
▁Cup	-8300
▁Div	-8301
▁Edu	-8302
▁Hop	-8303
▁Ign	-8304
▁Mad	-8305
▁Meg	-8306
▁Pat	-8307
▁Sal	-8308
▁Set	-8309
▁bac	-8310
▁der	-8311
▁dia	-8312
▁nic	-8313
▁ple	-8314
▁rip	-8315
▁tab	-8316
achel	-8317
acher	-8318
aghet	-8319
eenth	-8320
iance	-8321
inted	-8322
lects	-8323
otted	-8324
riter	-8325
sters	-8326
ubbed	-8327
usive	-8328
while	-8329
▁Alex	-8330
▁Hope	-8331
▁Hung	-8332
▁Iran	-8333
▁Moon	-8334
▁Move	-8335
▁Pick	-8336
▁Whom	-8337
▁bang	-8338
▁bast	-8339
▁cafe	-8340
▁clue	-8341
▁dove	-8342
▁flaw	-8343
▁harb	-8344
▁pean	-8345
▁perp	-8346
▁plug	-8347
▁prem	-8348
▁ripe	-8349
▁scat	-8350
▁skip	-8351
▁slip	-8352
▁sole	-8353
▁sunb	-8354
▁unne	-8355
▁vent	-8356
hedral	-8357
ifully	-8358
itious	-8359
terest	-8360
▁Cross	-8361
▁Franc	-8362
▁Stick	-8363
▁Until	-8364
▁Venus	-8365
▁abuse	-8366
▁admir	-8367
▁bitch	-8368
▁blast	-8369
▁cared	-8370
▁click	-8371
▁curse	-8372
▁dealt	-8373
▁drain	-8374
▁flock	-8375
▁fract	-8376
▁froze	-8377
▁guilt	-8378
▁holes	-8379
▁kings	-8380
▁noble	-8381
▁overs	-8382
▁prose	-8383
▁salty	-8384
▁shown	-8385
▁steep	-8386
▁stiff	-8387
▁sushi	-8388
▁swore	-8389
▁tremb	-8390
▁weeds	-8391
aghetti	-8392
athetic	-8393
cessary	-8394
endence	-8395
ointing	-8396
ongress	-8397
onymous	-8398
vereign	-8399
versary	-8400
▁Always	-8401
▁Govern	-8402
▁Martha	-8403
▁Tanaka	-8404
▁actors	-8405
▁approx	-8406
▁argued	-8407
▁bloody	-8408
▁bodies	-8409
▁boiled	-8410
▁carbon	-8411
▁cellar	-8412
▁client	-8413
▁dislik	-8414
▁duties	-8415
▁gladly	-8416
▁hatred	-8417
▁injury	-8418
▁inspir	-8419
▁latter	-8420
▁mammal	-8421
▁nephew	-8422
▁posted	-8423
▁preced	-8424
▁puzzle	-8425
▁relief	-8426
▁select	-8427
▁signal	-8428
▁smiles	-8429
▁tables	-8430
▁toothp	-8431
▁verify	-8432
▁vulgar	-8433
▁wolves	-8434
atorship	-8435
▁Austria	-8436
▁Charles	-8437
▁Elephan	-8438
▁Freedom	-8439
▁History	-8440
▁Hungary	-8441
▁Lebanon	-8442
▁Playing	-8443
▁Promise	-8444
▁amounts	-8445
▁giraffe	-8446
▁gravity	-8447
▁jogging	-8448
▁licence	-8449
▁partner	-8450
▁persist	-8451
▁pierced	-8452
▁proceed	-8453
▁seeking	-8454
▁setting	-8455
▁seventh	-8456
▁snowman	-8457
▁trained	-8458
▁wanting	-8459
▁watered	-8460
▁Russians	-8461
▁absorbed	-8462
▁advertis	-8463
▁articles	-8464
▁athletic	-8465
▁chairman	-8466
▁cultures	-8467
▁disorder	-8468
▁gambling	-8469
▁homesick	-8470
▁impolite	-8471
▁inconven	-8472
▁multiple	-8473
▁overwhel	-8474
▁pharmacy	-8475
▁profound	-8476
▁programs	-8477
▁provides	-8478
▁purchase	-8479
▁reported	-8480
▁reserved	-8481
▁revealed	-8482
▁salesman	-8483
▁semester	-8484
▁sensible	-8485
▁services	-8486
▁survival	-8487
▁teenager	-8488
▁thankful	-8489
▁tortured	-8490
▁Brazilian	-8491
▁alcoholic	-8492
▁arguments	-8493
▁blackmail	-8494
▁chemistry	-8495
▁complaint	-8496
▁continues	-8497
▁crocodile	-8498
▁dishonest	-8499
▁elephants	-8500
▁emotional	-8501
▁exchanged	-8502
▁fashioned	-8503
▁fireplace	-8504
▁identical	-8505
▁interpret	-8506
▁necessity	-8507
▁sovereign	-8508
▁struggled	-8509
▁stupidity	-8510
▁California	-8511
▁activities	-8512
▁forgetting	-8513
▁profession	-8514
▁regardless	-8515
▁volunteers	-8516
▁businessman	-8517
▁coronavirus	-8518
▁generations	-8519
▁pessimistic	-8520
▁restaurants	-8521
▁unnecessary	-8522
▁accomplished	-8523
▁intellectual	-8524
▁satisfactory	-8525
▁International	-8526
▁Congratulations	-8527
FO	-8528
ae	-8529
ao	-8530
zo	-8531
eem	-8532
ori	-8533
raq	-8534
str	-8535
▁CO	-8536
▁Kn	-8537
▁Ko	-8538
▁Mu	-8539
▁Ze	-8540
anne	-8541
apor	-8542
asso	-8543
beat	-8544
bles	-8545
cies	-8546
ctic	-8547
elly	-8548
gies	-8549
hang	-8550
hant	-8551
hard	-8552
iasm	-8553
isor	-8554
lock	-8555
mers	-8556
odor	-8557
ouch	-8558
quet	-8559
raph	-8560
sels	-8561
stal	-8562
step	-8563
ulpt	-8564
▁Ein	-8565
▁Emp	-8566
▁Law	-8567
▁Mac	-8568
▁Moz	-8569
▁Pic	-8570
▁UFO	-8571
▁Wik	-8572
▁ain	-8573
▁avo	-8574
▁bom	-8575
▁ech	-8576
▁eld	-8577
▁era	-8578
▁gum	-8579
▁org	-8580
▁vom	-8581
abled	-8582
acked	-8583
atisf	-8584
break	-8585
cling	-8586
eling	-8587
eties	-8588
jamas	-8589
leted	-8590
owers	-8591
pherd	-8592
piece	-8593
rency	-8594
stick	-8595
▁Cold	-8596
▁Fill	-8597
▁Iraq	-8598
▁Kobe	-8599
▁Milk	-8600
▁Nara	-8601
▁Norm	-8602
▁Okay	-8603
▁Pers	-8604
▁Rain	-8605
▁Salt	-8606
▁asse	-8607
▁bore	-8608
▁bush	-8609
▁caps	-8610
▁cens	-8611
▁dign	-8612
▁eleg	-8613
▁fert	-8614
▁figs	-8615
▁flir	-8616
▁gull	-8617
▁herd	-8618
▁hind	-8619
▁inch	-8620
▁indo	-8621
▁mast	-8622
▁peop	-8623
▁scam	-8624
ashing	-8625
icious	-8626
iments	-8627
ixture	-8628
mented	-8629
orable	-8630
▁Among	-8631
▁Bened	-8632
▁Const	-8633
▁Farid	-8634
▁Felix	-8635
▁Jacob	-8636
▁Mount	-8637
▁Shang	-8638
▁Solar	-8639
▁State	-8640
▁Tears	-8641
▁agent	-8642
▁ankle	-8643
▁awoke	-8644
▁beast	-8645
▁beats	-8646
▁boast	-8647
▁brick	-8648
▁decre	-8649
▁draft	-8650
▁dread	-8651
▁equip	-8652
▁fancy	-8653
▁frogs	-8654
▁intim	-8655
▁items	-8656
▁loses	-8657
▁mixed	-8658
▁overc	-8659
▁pound	-8660
▁risen	-8661
▁roots	-8662
▁skept	-8663
▁sniff	-8664
▁stain	-8665
▁therm	-8666
▁vital	-8667
▁wanna	-8668
▁wiser	-8669
▁wrist	-8670
assador	-8671
uations	-8672
▁Dinner	-8673
▁Indian	-8674
▁Nether	-8675
▁Pardon	-8676
▁Social	-8677
▁Sweden	-8678
▁agency	-8679
▁aspect	-8680
▁backed	-8681
▁baking	-8682
▁banned	-8683
▁colder	-8684
▁compar	-8685
▁dances	-8686
▁deeper	-8687
▁delete	-8688
▁donkey	-8689
▁dreamt	-8690
▁estate	-8691
▁heated	-8692
▁honeym	-8693
▁insect	-8694
▁learnt	-8695
▁luxury	-8696
▁praise	-8697
▁prejud	-8698
▁sample	-8699
▁senior	-8700
▁server	-8701
▁shaped	-8702
▁shines	-8703
▁skirts	-8704
▁smokes	-8705
▁towels	-8706
▁underw	-8707
▁unfort	-8708
▁yelled	-8709
ilingual	-8710
▁Islamic	-8711
▁Johnson	-8712
▁Picasso	-8713
▁Tonight	-8714
▁adapted	-8715
▁anytime	-8716
▁automob	-8717
▁awfully	-8718
▁breasts	-8719
▁channel	-8720
▁charity	-8721
▁endless	-8722
▁finance	-8723
▁flooded	-8724
▁halfway	-8725
▁intoler	-8726
▁lowered	-8727
▁mammals	-8728
▁oneself	-8729
▁peoples	-8730
▁phrases	-8731
▁propose	-8732
▁railway	-8733
▁sinking	-8734
▁slammed	-8735
▁stabbed	-8736
▁stuffed	-8737
▁superst	-8738
▁swallow	-8739
▁talents	-8740
▁tripped	-8741
▁Marriage	-8742
▁Nowadays	-8743
▁abstract	-8744
▁deceived	-8745
▁designer	-8746
▁educated	-8747
▁location	-8748
▁quitting	-8749
▁relaxing	-8750
▁respects	-8751
▁splendid	-8752
▁steadily	-8753
▁strongly	-8754
▁Education	-8755
▁acknowled	-8756
▁appointed	-8757
▁beginners	-8758
▁colleague	-8759
▁construct	-8760
▁corrected	-8761
▁curiosity	-8762
▁determine	-8763
▁encourage	-8764
▁firefight	-8765
▁infection	-8766
▁kilograms	-8767
▁literally	-8768
▁operating	-8769
▁predicted	-8770
▁regretted	-8771
▁seventeen	-8772
▁spaghetti	-8773
▁strategic	-8774
▁strongest	-8775
▁substance	-8776
▁survivors	-8777
▁technique	-8778
▁willingly	-8779
▁afterwards	-8780
▁conspiracy	-8781
▁criticized	-8782
▁diplomatic	-8783
▁investment	-8784
▁registered	-8785
▁telephoned	-8786
▁Netherlands	-8787
▁beautifully	-8788
▁consumption	-8789
▁journalists	-8790
▁unfortunate	-8791
▁volunteered	-8792
▁considerable	-8793
▁contributing	-8794
▁dictatorship	-8795
▁automatically	-8796
▁disappointing	-8797
lt	-8798
▁x	-8799
bar	-8800
car	-8801
erb	-8802
eys	-8803
iro	-8804
ray	-8805
umi	-8806
uum	-8807
zes	-8808
▁Bo	-8809
▁Hy	-8810
▁tu	-8811
adil	-8812
aine	-8813
alem	-8814
anny	-8815
arly	-8816
aser	-8817
bish	-8818
eeze	-8819
ella	-8820
ogen	-8821
onge	-8822
pill	-8823
rast	-8824
udge	-8825
unes	-8826
▁Bas	-8827
▁Bur	-8828
▁Edm	-8829
▁Ham	-8830
▁Joe	-8831
▁Nap	-8832
▁Nep	-8833
▁Rev	-8834
▁Vol	-8835
▁asc	-8836
▁clo	-8837
▁cuc	-8838
▁fet	-8839
▁foc	-8840
▁gig	-8841
▁icy	-8842
▁oak	-8843
▁owl	-8844
cript	-8845
feree	-8846
gging	-8847
illes	-8848
isher	-8849
itled	-8850
kered	-8851
peror	-8852
riano	-8853
storm	-8854
utter	-8855
works	-8856
▁Ange	-8857
▁Cows	-8858
▁Damn	-8859
▁Draw	-8860
▁Foot	-8861
▁Math	-8862
▁Oleg	-8863
▁Phys	-8864
▁Sign	-8865
▁Soci	-8866
▁Thai	-8867
▁YouT	-8868
▁acid	-8869
▁ants	-8870
▁aven	-8871
▁empt	-8872
▁erup	-8873
▁grin	-8874
▁horn	-8875
▁impr	-8876
▁infl	-8877
▁neat	-8878
▁neut	-8879
▁palm	-8880
▁pork	-8881
▁pump	-8882
▁sack	-8883
▁seve	-8884
▁slap	-8885
▁stew	-8886
▁stru	-8887
▁sust	-8888
▁tiss	-8889
▁unto	-8890
▁wage	-8891
▁wink	-8892
agging	-8893
atural	-8894
efully	-8895
ension	-8896
estyle	-8897
ipping	-8898
ivable	-8899
lights	-8900
ocracy	-8901
orters	-8902
▁Allow	-8903
▁Anton	-8904
▁Break	-8905
▁Breat	-8906
▁Fadil	-8907
▁Irish	-8908
▁Jerus	-8909
▁Merry	-8910
▁Peace	-8911
▁advoc	-8912
▁agric	-8913
▁babys	-8914
▁bites	-8915
▁brass	-8916
▁clown	-8917
▁cocon	-8918
▁cured	-8919
▁defin	-8920
▁depos	-8921
▁eater	-8922
▁exten	-8923
▁flute	-8924
▁fount	-8925
▁funds	-8926
▁gotta	-8927
▁imper	-8928
▁manip	-8929
▁merry	-8930
▁olive	-8931
▁orbit	-8932
▁paran	-8933
▁pupil	-8934
▁recon	-8935
▁seatb	-8936
▁slack	-8937
▁snows	-8938
▁swept	-8939
▁teams	-8940
▁tests	-8941
▁trace	-8942
▁twent	-8943
▁verge	-8944
ensable	-8945
ensions	-8946
▁Argent	-8947
▁Seeing	-8948
▁adding	-8949
▁amused	-8950
▁barber	-8951
▁checks	-8952
▁contem	-8953
▁copies	-8954
▁corpor	-8955
▁cotton	-8956
▁cylind	-8957
▁digest	-8958
▁excess	-8959
▁gender	-8960
▁gently	-8961
▁guards	-8962
▁idiots	-8963
▁intrig	-8964
▁legisl	-8965
▁overfl	-8966
▁owners	-8967
▁pigeon	-8968
▁pirate	-8969
▁prover	-8970
▁purple	-8971
▁reform	-8972
▁refres	-8973
▁regime	-8974
▁reveal	-8975
▁rocket	-8976
▁scares	-8977
▁sculpt	-8978
▁shaved	-8979
▁soaked	-8980
▁status	-8981
▁thesis	-8982
▁treaty	-8983
▁united	-8984
▁values	-8985
▁widely	-8986
▁Adriano	-8987
▁Careful	-8988
▁Denmark	-8989
▁Getting	-8990
▁Profess	-8991
▁Windows	-8992
▁anxiety	-8993
▁artists	-8994
▁avoided	-8995
▁biology	-8996
▁deleted	-8997
▁examine	-8998
▁flights	-8999
▁forgave	-9000
▁handled	-9001
▁instant	-9002
▁justify	-9003
▁monkeys	-9004
▁museums	-9005
▁obliged	-9006
▁pajamas	-9007
▁payment	-9008
▁printed	-9009
▁proport	-9010
▁referee	-9011
▁simpler	-9012
▁slavery	-9013
▁theatre	-9014
▁Einstein	-9015
▁Swimming	-9016
▁boarding	-9017
▁cautious	-9018
▁decorate	-9019
▁employed	-9020
▁employee	-9021
▁fourteen	-9022
▁homeland	-9023
▁identify	-9024
▁incompet	-9025
▁inspired	-9026
▁judgment	-9027
▁maintain	-9028
▁planting	-9029
▁severely	-9030
▁smallest	-9031
▁struggle	-9032
▁suspects	-9033
▁Elephants	-9034
▁Jerusalem	-9035
▁complains	-9036
▁confusing	-9037
▁dinosaurs	-9038
▁gentlemen	-9039
▁hamburger	-9040
▁honeymoon	-9041
▁objection	-9042
▁overnight	-9043
▁religions	-9044
▁reluctant	-9045
▁standards	-9046
▁structure	-9047
▁swallowed	-9048
▁umbrellas	-9049
▁whichever	-9050
▁Parliament	-9051
▁Scientists	-9052
▁advantages	-9053
▁disrespect	-9054
▁disturbing	-9055
▁enthusiasm	-9056
▁exceptions	-9057
▁humiliated	-9058
▁hypothesis	-9059
▁inevitable	-9060
▁parliament	-9061
▁resistance	-9062
▁situations	-9063
▁watermelon	-9064
▁Mathematics	-9065
▁grammatical	-9066
▁interrupted	-9067
▁practically	-9068
▁resignation	-9069
▁announcement	-9070
▁constitution	-9071
▁unbelievable	-9072
▁unemployment	-9073
▁determination	-9074
▁environmental	-9075
▁indispensable	-9076
BI	-9077
sp	-9078
ams	-9079
ley	-9080
nut	-9081
oty	-9082
see	-9083
uba	-9084
uto	-9085
▁21	-9086
▁Ev	-9087
▁ID	-9088
▁od	-9089
ajos	-9090
bird	-9091
echn	-9092
food	-9093
hens	-9094
imon	-9095
ipes	-9096
jban	-9097
laim	-9098
nuts	-9099
okka	-9100
omer	-9101
rend	-9102
ukas	-9103
undo	-9104
▁Ast	-9105
▁Bad	-9106
▁Cat	-9107
▁Dep	-9108
▁Est	-9109
▁FBI	-9110
▁Gun	-9111
▁Imp	-9112
▁Run	-9113
▁Sad	-9114
▁San	-9115
▁Sur	-9116
▁Vis	-9117
▁Yam	-9118
▁boo	-9119
▁caf	-9120
▁lav	-9121
▁por	-9122
▁rew	-9123
▁sib	-9124
▁voy	-9125
apped	-9126
ashes	-9127
eting	-9128
iffel	-9129
ijing	-9130
itals	-9131
lines	-9132
uised	-9133
ushes	-9134
▁Drop	-9135
▁Five	-9136
▁Imag	-9137
▁Lisa	-9138
▁Need	-9139
▁Peel	-9140
▁Pray	-9141
▁Talk	-9142
▁Thus	-9143
▁Vien	-9144
▁Walk	-9145
▁Zeal	-9146
▁adds	-9147
▁alto	-9148
▁bury	-9149
▁chal	-9150
▁clin	-9151
▁conj	-9152
▁deck	-9153
▁dirt	-9154
▁dyed	-9155
▁fist	-9156
▁frag	-9157
▁gear	-9158
▁heap	-9159
▁hunt	-9160
▁lest	-9161
▁peas	-9162
▁pole	-9163
▁poly	-9164
▁rack	-9165
▁rats	-9166
▁recy	-9167
▁rein	-9168
▁scra	-9169
▁stim	-9170
▁trem	-9171
▁unit	-9172
▁vert	-9173
arling	-9174
encing	-9175
hestra	-9176
lessly	-9177
ophone	-9178
phones	-9179
ricane	-9180
▁Apple	-9181
▁Blood	-9182
▁Empty	-9183
▁Harry	-9184
▁Hokka	-9185
▁Lajos	-9186
▁Lukas	-9187
▁Obama	-9188
▁Scott	-9189
▁Techn	-9190
▁accus	-9191
▁audio	-9192
▁backs	-9193
▁burns	-9194
▁cater	-9195
▁comic	-9196
▁dwell	-9197
▁empha	-9198
▁explo	-9199
▁glory	-9200
▁goose	-9201
▁grief	-9202
▁haste	-9203
▁kills	-9204
▁kilos	-9205
▁nickn	-9206
▁overd	-9207
▁perce	-9208
▁pinea	-9209
▁rates	-9210
▁raven	-9211
▁rifle	-9212
▁risky	-9213
▁shift	-9214
▁tasty	-9215
▁trail	-9216
▁typew	-9217
▁unfor	-9218
▁vivid	-9219
▁warri	-9220
hematic	-9221
inkable	-9222
iveness	-9223
pective	-9224
▁Comput	-9225
▁Donald	-9226
▁Eiffel	-9227
▁Indust	-9228
▁Intell	-9229
▁Lojban	-9230
▁Master	-9231
▁Middle	-9232
▁Travel	-9233
▁Ukrain	-9234
▁Venice	-9235
▁astrol	-9236
▁attent	-9237
▁bumped	-9238
▁catast	-9239
▁divide	-9240
▁hanged	-9241
▁heater	-9242
▁hotels	-9243
▁impact	-9244
▁jumper	-9245
▁launch	-9246
▁marvel	-9247
▁messed	-9248
▁richer	-9249
▁rubber	-9250
▁scored	-9251
▁secure	-9252
▁shovel	-9253
▁summit	-9254
▁thread	-9255
▁vacant	-9256
▁wisely	-9257
children	-9258
▁Beijing	-9259
▁Edmundo	-9260
▁Grandma	-9261
▁Grandpa	-9262
▁Washing	-9263
▁YouTube	-9264
▁Zealand	-9265
▁bothers	-9266
▁butcher	-9267
▁castles	-9268
▁closest	-9269
▁decades	-9270
▁drivers	-9271
▁emotion	-9272
▁farmers	-9273
▁forcing	-9274
▁gunshot	-9275
▁handbag	-9276
▁heavier	-9277
▁imitate	-9278
▁imports	-9279
▁intends	-9280
▁lawyers	-9281
▁mansion	-9282
▁mixture	-9283
▁monthly	-9284
▁profile	-9285
▁puzzled	-9286
▁resting	-9287
▁rubbish	-9288
▁sailors	-9289
▁scholar	-9290
▁seafood	-9291
▁session	-9292
▁shortly	-9293
▁smashed	-9294
▁stretch	-9295
▁suffers	-9296
▁systems	-9297
▁tempted	-9298
▁weighed	-9299
▁whisper	-9300
▁Atlantic	-9301
▁Benedito	-9302
▁Hokkaido	-9303
▁Recently	-9304
▁bicycles	-9305
▁branches	-9306
▁checking	-9307
▁childish	-9308
▁concerts	-9309
▁confront	-9310
▁creating	-9311
▁equipped	-9312
▁injuries	-9313
▁internal	-9314
▁interven	-9315
▁marrying	-9316
▁millions	-9317
▁offering	-9318
▁paradise	-9319
▁rational	-9320
▁reaching	-9321
▁resource	-9322
▁restored	-9323
▁selected	-9324
▁squeezed	-9325
▁switched	-9326
▁uniforms	-9327
▁waitress	-9328
▁watering	-9329
▁Hopefully	-9330
▁believing	-9331
▁briefcase	-9332
▁decorated	-9333
▁dependent	-9334
▁equipment	-9335
▁instantly	-9336
▁poisonous	-9337
▁protected	-9338
▁reasoning	-9339
▁receiving	-9340
▁selection	-9341
▁someplace	-9342
▁stretched	-9343
▁sunscreen	-9344
▁technical	-9345
▁Artificial	-9346
▁Government	-9347
▁Revolution	-9348
▁University	-9349
▁ambassador	-9350
▁corruption	-9351
▁depression	-9352
▁directions	-9353
▁exaggerate	-9354
▁management	-9355
▁peacefully	-9356
▁reflection	-9357
▁specialist	-9358
▁speechless	-9359
▁sufficient	-9360
▁toothpaste	-9361
▁anniversary	-9362
▁butterflies	-9363
▁consequence	-9364
▁punctuation	-9365
▁threatening	-9366
▁Palestinians	-9367
▁acknowledged	-9368
▁championship	-9369
▁conditioning	-9370
▁independence	-9371
▁negotiations	-9372
▁photographer	-9373
▁presidential	-9374
▁opportunities	-9375
iw	-9376
sk	-9377
ava	-9378
eav	-9379
ibr	-9380
ida	-9381
rep	-9382
▁23	-9383
▁Ag	-9384
▁CE	-9385
▁Fy	-9386
asks	-9387
enda	-9388
gled	-9389
imet	-9390
odka	-9391
odri	-9392
oped	-9393
oven	-9394
rous	-9395
ubby	-9396
unks	-9397
▁Aut	-9398
▁Bul	-9399
▁Dar	-9400
▁Def	-9401
▁Det	-9402
▁Fif	-9403
▁Hen	-9404
▁Hit	-9405
▁Its	-9406
▁Kaz	-9407
▁Leg	-9408
▁Rab	-9409
▁Ret	-9410
▁Sen	-9411
▁Six	-9412
▁Sup	-9413
▁Swe	-9414
▁Tim	-9415
▁Tit	-9416
▁ais	-9417
▁amm	-9418
▁bye	-9419
▁cav	-9420
▁dye	-9421
▁ens	-9422
▁fee	-9423
▁gam	-9424
▁max	-9425
▁pee	-9426
▁tan	-9427
▁tin	-9428
▁wax	-9429
acing	-9430
allel	-9431
archy	-9432
ateur	-9433
comed	-9434
geons	-9435
itors	-9436
ogged	-9437
oning	-9438
orous	-9439
raged	-9440
urned	-9441
▁Alps	-9442
▁Bush	-9443
▁Cars	-9444
▁Chop	-9445
▁Ever	-9446
▁Expl	-9447
▁Kiss	-9448
▁Mont	-9449
▁Pole	-9450
▁Soph	-9451
▁True	-9452
▁Wood	-9453
▁bake	-9454
▁bisc	-9455
▁brid	-9456
▁bump	-9457
▁cord	-9458
▁coup	-9459
▁crap	-9460
▁dram	-9461
▁eyed	-9462
▁fabr	-9463
▁fans	-9464
▁fier	-9465
▁flee	-9466
▁foss	-9467
▁grat	-9468
▁harp	-9469
▁hike	-9470
▁kilo	-9471
▁lets	-9472
▁mock	-9473
▁myth	-9474
▁nood	-9475
▁noun	-9476
▁nurs	-9477
▁obed	-9478
▁outf	-9479
▁pace	-9480
▁pets	-9481
▁pupp	-9482
▁rash	-9483
▁rays	-9484
▁rebu	-9485
▁reck	-9486
▁saus	-9487
▁sche	-9488
▁sequ	-9489
▁slim	-9490
▁sung	-9491
▁trop	-9492
▁unin	-9493
artial	-9494
ferent	-9495
geable	-9496
illing	-9497
inates	-9498
ipedia	-9499
irrels	-9500
isible	-9501
itches	-9502
odrigo	-9503
ometer	-9504
unched	-9505
vation	-9506
worthy	-9507
▁Above	-9508
▁Books	-9509
▁Carry	-9510
▁Claud	-9511
▁Diego	-9512
▁Elect	-9513
▁Inter	-9514
▁Louis	-9515
▁Nobel	-9516
▁Stock	-9517
▁abide	-9518
▁ambig	-9519
▁arrow	-9520
▁ashes	-9521
▁belly	-9522
▁cable	-9523
▁camel	-9524
▁cease	-9525
▁choir	-9526
▁comma	-9527
▁dared	-9528
▁dense	-9529
▁disci	-9530
▁dwarf	-9531
▁elbow	-9532
▁escal	-9533
▁exter	-9534
▁fires	-9535
▁flags	-9536
▁frame	-9537
▁grape	-9538
▁haird	-9539
▁hears	-9540
▁horns	-9541
▁innov	-9542
▁lions	-9543
▁maths	-9544
▁metro	-9545
▁motel	-9546
▁newly	-9547
▁print	-9548
▁pyram	-9549
▁renov	-9550
▁ruler	-9551
▁sends	-9552
▁stair	-9553
▁stare	-9554
▁sweep	-9555
▁tails	-9556
▁traum	-9557
▁unite	-9558
▁urban	-9559
▁wakes	-9560
▁wrest	-9561
aration	-9562
etition	-9563
ibility	-9564
nerable	-9565
▁Amanda	-9566
▁Carlos	-9567
▁Cookie	-9568
▁Eating	-9569
▁Finish	-9570
▁Fyodor	-9571
▁Horses	-9572
▁Tobias	-9573
▁Unless	-9574
▁Valent	-9575
▁adjust	-9576
▁attach	-9577
▁blocks	-9578
▁boasts	-9579
▁condem	-9580
▁cultiv	-9581
▁deadly	-9582
▁define	-9583
▁endeav	-9584
▁endure	-9585
▁expand	-9586
▁facing	-9587
▁factor	-9588
▁feared	-9589
▁folder	-9590
▁forbid	-9591
▁fucked	-9592
▁humour	-9593
▁illust	-9594
▁ironed	-9595
▁mature	-9596
▁melody	-9597
▁obeyed	-9598
▁obtain	-9599
▁overre	-9600
▁partly	-9601
▁perpet	-9602
▁petrol	-9603
▁portra	-9604
▁refund	-9605
▁resear	-9606
▁resume	-9607
▁robots	-9608
▁runner	-9609
▁sailor	-9610
▁sector	-9611
▁sewing	-9612
▁sleeve	-9613
▁stroke	-9614
▁theirs	-9615
▁transm	-9616
▁vacuum	-9617
ouraging	-9618
▁Alcohol	-9619
▁Antonio	-9620
▁Belarus	-9621
▁Breathe	-9622
▁Goodbye	-9623
▁Matthew	-9624
▁Rodrigo	-9625
▁Spiders	-9626
▁Strange	-9627
▁Through	-9628
▁Zionism	-9629
▁anticip	-9630
▁bearing	-9631
▁begging	-9632
▁behaves	-9633
▁carpent	-9634
▁catches	-9635
▁circumc	-9636
▁coconut	-9637
▁conquer	-9638
▁counted	-9639
▁creates	-9640
▁darling	-9641
▁dignity	-9642
▁discrim	-9643
▁elegant	-9644
▁extract	-9645
▁focused	-9646
▁gardens	-9647
▁hearted	-9648
▁indoors	-9649
▁islands	-9650
▁landing	-9651
▁lightly	-9652
▁plumber	-9653
▁pouring	-9654
▁protein	-9655
▁reports	-9656
▁sailing	-9657
▁screwed	-9658
▁shadows	-9659
▁somehow	-9660
▁traitor	-9661
▁transpa	-9662
▁tricked	-9663
▁virtual	-9664
▁Compared	-9665
▁Consider	-9666
▁Football	-9667
▁accusing	-9668
▁although	-9669
▁barefoot	-9670
▁behaving	-9671
▁capacity	-9672
▁colonial	-9673
▁extended	-9674
▁flexible	-9675
▁fountain	-9676
▁gullible	-9677
▁happiest	-9678
▁hardship	-9679
▁hostages	-9680
▁indicate	-9681
▁literary	-9682
▁mechanic	-9683
▁observed	-9684
▁paranoid	-9685
▁postcard	-9686
▁prevents	-9687
▁projects	-9688
▁republic	-9689
▁resolved	-9690
▁roommate	-9691
▁shepherd	-9692
▁shortest	-9693
▁siblings	-9694
▁supplied	-9695
▁unlocked	-9696
▁villages	-9697
▁vitamins	-9698
▁welcomed	-9699
▁Computers	-9700
▁Squirrels	-9701
▁Valentine	-9702
▁Wikipedia	-9703
▁ancestors	-9704
▁architect	-9705
▁associate	-9706
▁batteries	-9707
▁communism	-9708
▁enjoyable	-9709
▁functions	-9710
▁household	-9711
▁leftovers	-9712
▁lifestyle	-9713
▁movements	-9714
▁negotiate	-9715
▁opponents	-9716
▁orchestra	-9717
▁permanent	-9718
▁pleasures	-9719
▁pointless	-9720
▁practices	-9721
▁precisely	-9722
▁protested	-9723
▁requested	-9724
▁resembles	-9725
▁skeptical	-9726
▁sophistic	-9727
▁suspicion	-9728
▁talkative	-9729
▁terrorism	-9730
▁altogether	-9731
▁candidates	-9732
▁discharged	-9733
▁discussing	-9734
▁fascinated	-9735
▁operations	-9736
▁opposition	-9737
▁passionate	-9738
▁protection	-9739
▁recovering	-9740
▁strawberry	-9741
▁terrorists	-9742
▁tournament	-9743
▁combination	-9744
▁contributed	-9745
▁destruction	-9746
▁frightening	-9747
▁millionaire	-9748
▁regulations	-9749
▁acquaintance	-9750
▁architecture	-9751
▁occasionally	-9752
▁investigating	-9753
▁administration	-9754
▁disappointment	-9755
da	-9756
ga	-9757
uz	-9758
▁u	-9759
...	-9760
VID	-9761
ahu	-9762
aph	-9763
hil	-9764
hop	-9765
irs	-9766
isk	-9767
lie	-9768
niv	-9769
omi	-9770
omn	-9771
uls	-9772
vin	-9773
▁Cr	-9774
▁Ly	-9775
▁Ow	-9776
▁Py	-9777
▁Sn	-9778
▁et	-9779
anch	-9780
aren	-9781
cule	-9782
idel	-9783
lept	-9784
life	-9785
lsen	-9786
mond	-9787
pers	-9788
pock	-9789
quar	-9790
reme	-9791
tage	-9792
uffs	-9793
▁CEO	-9794
▁Des	-9795
▁Fer	-9796
▁Ire	-9797
▁Way	-9798
▁alt	-9799
▁bum	-9800
▁enl	-9801
▁fir	-9802
▁gle	-9803
▁hay	-9804
▁lam	-9805
▁laz	-9806
▁rag	-9807
▁ray	-9808
▁rib	-9809
▁rud	-9810
▁tul	-9811
asive	-9812
cible	-9813
ctive	-9814
icies	-9815
imals	-9816
inity	-9817
oleon	-9818
otect	-9819
ratic	-9820
roken	-9821
tingu	-9822
uding	-9823
▁Army	-9824
▁Beth	-9825
▁Dami	-9826
▁Fran	-9827
▁Hard	-9828
▁Judy	-9829
▁Kids	-9830
▁Lock	-9831
▁Magn	-9832
▁Mand	-9833
▁Merc	-9834
▁Mind	-9835
▁Near	-9836
▁Snow	-9837
▁barn	-9838
▁beet	-9839
▁brut	-9840
▁bust	-9841
▁chin	-9842
▁cuts	-9843
▁dick	-9844
▁dive	-9845
▁dump	-9846
▁epis	-9847
▁evac	-9848
▁eyeb	-9849
▁foul	-9850
▁grim	-9851
▁hats	-9852
▁hits	-9853
▁kite	-9854
▁lamb	-9855
▁mand	-9856
▁mate	-9857
▁melt	-9858
▁pist	-9859
▁porn	-9860
▁sins	-9861
▁ties	-9862
▁trig	-9863
▁unac	-9864
▁unhe	-9865
▁waff	-9866
▁yoga	-9867
forest	-9868
riages	-9869
taking	-9870
ulsive	-9871
umbers	-9872
▁Avoid	-9873
▁Beeth	-9874
▁COVID	-9875
▁Civil	-9876
▁Drive	-9877
▁Girls	-9878
▁Istan	-9879
▁Night	-9880
▁Party	-9881
▁Power	-9882
▁Press	-9883
▁Sally	-9884
▁Syria	-9885
▁aisle	-9886
▁alley	-9887
▁aloud	-9888
▁alter	-9889
▁beers	-9890
▁bowed	-9891
▁breed	-9892
▁bribe	-9893
▁broom	-9894
▁buses	-9895
▁chalk	-9896
▁clerk	-9897
▁disob	-9898
▁drift	-9899
▁flame	-9900
▁flesh	-9901
▁gross	-9902
▁hills	-9903
▁imply	-9904
▁jelly	-9905
▁melts	-9906
▁moder	-9907
▁monot	-9908
▁ninet	-9909
▁patri	-9910
▁pears	-9911
▁polar	-9912
▁rival	-9913
▁rural	-9914
▁shoel	-9915
▁skate	-9916
▁spoil	-9917
▁stere	-9918
▁subur	-9919
▁teddy	-9920
▁towns	-9921
▁views	-9922
▁vodka	-9923
▁widow	-9924
iterate	-9925
ivalent	-9926
ouncing	-9927
rection	-9928
umbling	-9929
▁Buddha	-9930
▁Empire	-9931
▁Leonid	-9932
▁	-9933
e	-9934
t	-9935
o	-9936
a	-9937
n	-9938
i	-9939
s	-9940
r	-9941
h	-9942
l	-9943
d	-9944
.	-9945
u	-9946
m	-9947
y	-9948
c	-9949
w	-9950
g	-9951
f	-9952
p	-9953
b	-9954
I	-9955
k	-9956
'	-9957
v	-9958
T	-9959
?	-9960
,	-9961
W	-9962
H	-9963
S	-9964
M	-9965
Y	-9966
A	-9967
D	-9968
x	-9969
j	-9970
C	-9971
!	-9972
"	-9973
L	-9974
E	-9975
F	-9976
q	-9977
B	-9978
P	-9979
N	-9980
z	-9981
G	-9982
J	-9983
-	-9984
O	-9985
R	-9986
0	-9987
K	-9988
Z	-9989
1	-9990
U	-9991
V	-9992
2	-9993
;	-9994
:	-9995
3	-9996
