<unk>	0
<s>	0
</s>	0
▁.	-0
▁d	-1
es	-2
▁p	-3
ai	-4
en	-5
▁l	-6
ou	-7
on	-8
▁s	-9
▁c	-10
re	-11
▁a	-12
▁t	-13
er	-14
▁m	-15
qu	-16
▁de	-17
an	-18
▁n	-19
▁v	-20
▁pa	-21
le	-22
▁J	-23
▁qu	-24
ent	-25
est	-26
oi	-27
un	-28
▁f	-29
om	-30
eu	-31
ais	-32
ous	-33
is	-34
▁pas	-35
▁-	-36
▁un	-37
▁Je	-38
te	-39
il	-40
▁la	-41
▁T	-42
▁que	-43
our	-44
ri	-45
▁,	-46
▁j	-47
▁le	-48
▁à	-49
▁?	-50
▁b	-51
ait	-52
▁L	-53
in	-54
▁est	-55
et	-56
▁I	-57
▁Il	-58
▁ne	-59
▁r	-60
or	-61
▁en	-62
it	-63
us	-64
ar	-65
lle	-66
▁C	-67
ét	-68
au	-69
▁Tom	-70
se	-71
▁ch	-72
▁tr	-73
ont	-74
ment	-75
▁ce	-76
▁su	-77
ti	-78
▁pr	-79
ve	-80
ons	-81
me	-82
ant	-83
ch	-84
▁par	-85
▁les	-86
▁une	-87
tre	-88
▁g	-89
▁au	-90
▁vous	-91
▁E	-92
▁tu	-93
▁N	-94
▁pl	-95
ne	-96
ans	-97
end	-98
▁pour	-99
eux	-100
▁ét	-101
ci	-102
▁je	-103
al	-104
de	-105
▁M	-106
▁des	-107
ce	-108
av	-109
em	-110
que	-111
eur	-112
ag	-113
am	-114
as	-115
▁et	-116
at	-117
ui	-118
▁com	-119
aire	-120
▁h	-121
▁dé	-122
▁re	-123
▁dans	-124
▁P	-125
ois	-126
ère	-127
os	-128
ie	-129
ain	-130
ien	-131
ll	-132
▁me	-133
▁du	-134
ée	-135
▁tou	-136
▁av	-137
oir	-138
ir	-139
ue	-140
▁Le	-141
pr	-142
▁S	-143
▁il	-144
▁plus	-145
▁Elle	-146
▁se	-147
▁!	-148
ang	-149
res	-150
▁A	-151
▁Nous	-152
▁suis	-153
onn	-154
and	-155
ap	-156
ouv	-157
▁Q	-158
ol	-159
ab	-160
▁nous	-161
▁é	-162
és	-163
▁La	-164
▁e	-165
ers	-166
▁Tu	-167
ès	-168
▁mon	-169
▁ave	-170
▁pro	-171
im	-172
▁faire	-173
ati	-174
ur	-175
▁sont	-176
▁Les	-177
ens	-178
ort	-179
▁di	-180
▁sur	-181
▁fait	-182
▁V	-183
▁moi	-184
▁in	-185
ion	-186
▁qui	-187
ille	-188
té	-189
ure	-190
ette	-191
▁avec	-192
oit	-193
ff	-194
tes	-195
▁ré	-196
▁te	-197
ac	-198
▁D	-199
▁peu	-200
être	-201
▁Ce	-202
▁dev	-203
▁mais	-204
eau	-205
▁son	-206
iv	-207
emp	-208
ça	-209
onne	-210
ier	-211
oup	-212
mes	-213
▁y	-214
ess	-215
▁ça	-216
▁ai	-217
▁était	-218
op	-219
ici	-220
▁O	-221
▁ma	-222
rie	-223
ig	-224
▁gr	-225
ours	-226
▁as	-227
rai	-228
bl	-229
che	-230
ot	-231
▁fr	-232
oin	-233
▁tout	-234
otre	-235
ut	-236
lé	-237
ux	-238
▁con	-239
▁quel	-240
uis	-241
▁lui	-242
age	-243
la	-244
endre	-245
▁sa	-246
ard	-247
▁ar	-248
si	-249
▁très	-250
ér	-251
▁o	-252
▁dit	-253
▁an	-254
pe	-255
▁si	-256
▁être	-257
di	-258
▁ri	-259
▁veux	-260
▁temp	-261
ler	-262
ation	-263
▁Ils	-264
ouve	-265
▁Ma	-266
ter	-267
▁été	-268
ose	-269
▁trav	-270
une	-271
oy	-272
▁ap	-273
co	-274
ez	-275
▁cr	-276
▁all	-277
▁temps	-278
▁Que	-279
▁dem	-280
able	-281
▁beau	-282
▁«	-283
▁»	-284
▁am	-285
▁cette	-286
▁ser	-287
▁jam	-288
ble	-289
ense	-290
▁ex	-291
▁bien	-292
omb	-293
éri	-294
▁Vous	-295
uit	-296
▁ont	-297
st	-298
les	-299
▁vi	-300
▁jamais	-301
▁travai	-302
ière	-303
ra	-304
coup	-305
▁ent	-306
▁U	-307
rais	-308
cu	-309
▁B	-310
▁dis	-311
out	-312
▁peux	-313
▁Pour	-314
orte	-315
imp	-316
▁vrai	-317
ance	-318
aut	-319
▁chose	-320
▁pense	-321
quoi	-322
▁vou	-323
▁Ne	-324
▁peut	-325
▁elle	-326
▁beaucoup	-327
id	-328
▁toi	-329
li	-330
ine	-331
mer	-332
▁es	-333
▁sais	-334
▁cont	-335
ête	-336
ants	-337
▁On	-338
▁comme	-339
▁Qu	-340
tr	-341
rer	-342
ommes	-343
ad	-344
ors	-345
elle	-346
▁tous	-347
cti	-348
ersonne	-349
▁ici	-350
ité	-351
ale	-352
jours	-353
▁toujours	-354
▁at	-355
▁R	-356
▁comp	-357
▁dire	-358
▁ou	-359
ême	-360
▁deux	-361
aient	-362
ence	-363
▁mal	-364
omme	-365
▁mang	-366
▁ses	-367
ert	-368
ique	-369
▁pré	-370
ge	-371
lles	-372
▁Marie	-373
▁bes	-374
sé	-375
▁besoin	-376
▁va	-377
▁per	-378
ord	-379
ques	-380
▁monde	-381
ct	-382
▁votre	-383
▁éc	-384
eure	-385
▁main	-386
▁enf	-387
▁vie	-388
▁ca	-389
▁rien	-390
▁Mar	-391
▁seu	-392
ivre	-393
▁jus	-394
um	-395
▁avons	-396
▁vraiment	-397
▁maison	-398
▁jour	-399
▁parti	-400
▁sem	-401
▁ton	-402
enc	-403
vez	-404
eurs	-405
erre	-406
▁comm	-407
▁sav	-408
enir	-409
aime	-410
rit	-411
riv	-412
▁pens	-413
▁avait	-414
▁rest	-415
▁Est	-416
était	-417
▁même	-418
aî	-419
▁nouve	-420
ond	-421
▁quelque	-422
▁fer	-423
▁Pourquoi	-424
ul	-425
oire	-426
ussi	-427
ande	-428
▁là	-429
aux	-430
▁déj	-431
▁F	-432
▁Mon	-433
par	-434
gent	-435
▁cela	-436
▁conn	-437
▁mes	-438
orm	-439
ions	-440
▁trop	-441
ées	-442
▁Mary	-443
ante	-444
core	-445
cher	-446
▁voit	-447
▁parler	-448
ser	-449
aine	-450
▁bon	-451
bre	-452
lais	-453
▁Un	-454
▁vais	-455
▁pet	-456
ils	-457
▁encore	-458
ign	-459
▁jou	-460
▁diff	-461
rait	-462
ong	-463
ite	-464
ay	-465
▁trouv	-466
jour	-467
ents	-468
▁pouv	-469
▁sommes	-470
▁grand	-471
ise	-472
▁der	-473
ré	-474
ôt	-475
oc	-476
ème	-477
▁fais	-478
▁li	-479
esp	-480
▁ph	-481
ten	-482
én	-483
▁br	-484
▁Ç	-485
iens	-486
ends	-487
▁Ça	-488
chet	-489
près	-490
▁aussi	-491
▁aut	-492
▁cons	-493
anç	-494
sez	-495
▁mi	-496
▁Com	-497
▁aux	-498
▁reg	-499
▁train	-500
▁att	-501
▁pos	-502
▁compr	-503
hui	-504
▁Si	-505
▁fois	-506
▁ta	-507
mp	-508
ançais	-509
eut	-510
der	-511
anc	-512
▁voiture	-513
éc	-514
▁voir	-515
▁mar	-516
▁rép	-517
jourd	-518
▁fin	-519
▁aller	-520
▁avoir	-521
tement	-522
▁ac	-523
▁sou	-524
▁pay	-525
élé	-526
▁français	-527
▁cour	-528
ill	-529
▁pi	-530
▁demand	-531
▁appr	-532
▁cl	-533
aît	-534
argent	-535
▁Z	-536
▁Cette	-537
ex	-538
▁imp	-539
▁travail	-540
▁personne	-541
air	-542
▁Quel	-543
▁co	-544
▁vu	-545
▁dois	-546
tenant	-547
▁on	-548
▁quand	-549
▁fem	-550
lement	-551
use	-552
▁donn	-553
▁sans	-554
▁Comment	-555
▁mat	-556
▁dern	-557
▁fa	-558
▁Tout	-559
iri	-560
▁faut	-561
▁man	-562
▁père	-563
▁arriv	-564
oute	-565
▁heure	-566
née	-567
▁Ziri	-568
ic	-569
▁souv	-570
endu	-571
▁déjà	-572
▁porte	-573
▁où	-574
▁perd	-575
▁ret	-576
▁livre	-577
▁ple	-578
enu	-579
▁enfants	-580
êt	-581
▁En	-582
▁leur	-583
▁long	-584
▁achet	-585
asse	-586
▁gens	-587
▁déc	-588
▁lais	-589
agn	-590
▁probl	-591
▁télé	-592
▁trois	-593
▁mé	-594
étais	-595
pos	-596
▁petit	-597
ami	-598
▁part	-599
▁pu	-600
iste	-601
▁notre	-602
▁mont	-603
auv	-604
▁dét	-605
êtes	-606
ist	-607
▁bl	-608
▁soit	-609
▁À	-610
itu	-611
▁eu	-612
are	-613
ché	-614
og	-615
▁pris	-616
▁lang	-617
ente	-618
▁maintenant	-619
▁quoi	-620
ob	-621
▁Où	-622
▁Qui	-623
▁aujourd	-624
ange	-625
▁avant	-626
▁vis	-627
cid	-628
▁voul	-629
▁rap	-630
▁Y	-631
▁env	-632
oses	-633
▁avez	-634
puis	-635
ph	-636
œur	-637
cole	-638
att	-639
▁ans	-640
▁Sami	-641
▁ess	-642
iez	-643
if	-644
▁gar	-645
rem	-646
▁étu	-647
▁ab	-648
ass	-649
▁parle	-650
ide	-651
port	-652
▁juste	-653
▁car	-654
▁pol	-655
ole	-656
▁ces	-657
▁mère	-658
eures	-659
▁chez	-660
▁mieux	-661
▁connais	-662
illes	-663
▁veut	-664
▁pri	-665
iss	-666
aimer	-667
▁dés	-668
▁conf	-669
▁femme	-670
▁ad	-671
▁mot	-672
▁mari	-673
▁regard	-674
▁prendre	-675
▁bonne	-676
▁heures	-677
▁après	-678
▁choses	-679
▁coup	-680
▁ils	-681
oule	-682
ats	-683
▁As	-684
anger	-685
pé	-686
gu	-687
▁seul	-688
▁quest	-689
▁sup	-690
▁demain	-691
▁im	-692
▁cher	-693
int	-694
▁port	-695
vent	-696
▁cham	-697
▁plaît	-698
mé	-699
▁toute	-700
urs	-701
▁prof	-702
endant	-703
jet	-704
▁che	-705
▁rev	-706
▁chien	-707
aimerais	-708
▁cha	-709
avais	-710
▁soir	-711
ient	-712
▁dr	-713
▁manger	-714
lè	-715
ombre	-716
▁nuit	-717
▁De	-718
▁homme	-719
inu	-720
▁fut	-721
▁Personne	-722
▁rés	-723
▁problème	-724
▁ter	-725
▁mort	-726
▁Par	-727
▁assez	-728
▁st	-729
▁Au	-730
école	-731
llement	-732
▁G	-733
dre	-734
rent	-735
▁véri	-736
▁Ch	-737
▁auc	-738
▁pays	-739
çon	-740
▁cond	-741
ras	-742
▁prem	-743
▁fille	-744
▁bou	-745
uss	-746
▁tomb	-747
▁Cela	-748
▁sait	-749
ore	-750
▁Une	-751
▁cor	-752
▁Quand	-753
▁jours	-754
esse	-755
▁dû	-756
uv	-757
▁passé	-758
apon	-759
ères	-760
ments	-761
▁êtes	-762
▁moin	-763
autre	-764
▁nom	-765
▁rais	-766
ner	-767
orti	-768
▁essay	-769
▁id	-770
▁hier	-771
▁mauv	-772
all	-773
▁vol	-774
ction	-775
▁al	-776
▁depuis	-777
icile	-778
▁puis	-779
ins	-780
▁travaill	-781
▁dép	-782
▁mauvais	-783
▁pers	-784
▁1	-785
acc	-786
ié	-787
▁H	-788
ég	-789
▁sent	-790
util	-791
encont	-792
▁souvent	-793
▁ense	-794
▁É	-795
▁entre	-796
▁ville	-797
▁peur	-798
ace	-799
▁voy	-800
▁sû	-801
▁devrais	-802
ade	-803
▁sens	-804
tion	-805
rive	-806
▁rencont	-807
▁prés	-808
ombien	-809
omp	-810
onnes	-811
▁difficile	-812
▁oc	-813
aires	-814
▁Combien	-815
▁comment	-816
▁mom	-817
▁tes	-818
▁sera	-819
ann	-820
▁meille	-821
appr	-822
ures	-823
▁doit	-824
qui	-825
▁chev	-826
ost	-827
▁mus	-828
▁non	-829
ël	-830
qué	-831
▁autre	-832
▁quelqu	-833
ouvez	-834
▁quelques	-835
ing	-836
temp	-837
▁ouv	-838
▁commenc	-839
▁préf	-840
▁moment	-841
ver	-842
hé	-843
▁nombre	-844
▁hab	-845
▁langue	-846
▁Sa	-847
▁exp	-848
▁aime	-849
▁No	-850
▁ami	-851
uire	-852
▁appe	-853
▁simp	-854
▁crois	-855
▁nouveau	-856
ches	-857
riez	-858
▁acc	-859
ager	-860
▁cap	-861
ention	-862
▁Son	-863
▁sé	-864
ains	-865
ues	-866
▁sorti	-867
▁ass	-868
alement	-869
▁rem	-870
▁poin	-871
▁savoir	-872
temps	-873
one	-874
euse	-875
▁pendant	-876
enn	-877
▁Noël	-878
▁dernière	-879
▁étaient	-880
▁Quelle	-881
▁met	-882
agne	-883
▁for	-884
▁matin	-885
▁pe	-886
▁amis	-887
quer	-888
▁parents	-889
este	-890
▁cet	-891
▁rester	-892
▁cin	-893
▁end	-894
mble	-895
vé	-896
arde	-897
▁fil	-898
▁lors	-899
gé	-900
appe	-901
▁fam	-902
▁rec	-903
▁sec	-904
▁acheté	-905
ations	-906
oid	-907
▁arr	-908
▁Avez	-909
▁semaine	-910
▁moins	-911
▁sol	-912
▁trouver	-913
▁gu	-914
▁ann	-915
emb	-916
lo	-917
▁tour	-918
ice	-919
▁fai	-920
entre	-921
▁partir	-922
▁prom	-923
▁chambre	-924
ateur	-925
▁jusqu	-926
▁téléph	-927
cep	-928
▁ob	-929
▁rou	-930
▁question	-931
▁dou	-932
▁semble	-933
▁pourquoi	-934
▁sûr	-935
avoir	-936
ition	-937
▁sous	-938
rez	-939
▁emp	-940
▁faci	-941
lui	-942
▁vois	-943
ud	-944
▁sœur	-945
▁raison	-946
▁Es	-947
▁K	-948
▁aff	-949
▁cas	-950
▁perdu	-951
▁lit	-952
▁pensais	-953
oston	-954
▁Boston	-955
▁piè	-956
▁let	-957
▁liv	-958
▁inc	-959
téres	-960
▁étudi	-961
▁demandé	-962
iser	-963
▁point	-964
onc	-965
▁mo	-966
▁grande	-967
min	-968
▁contre	-969
▁toutes	-970
▁tôt	-971
▁cou	-972
ate	-973
erci	-974
▁chat	-975
▁caf	-976
▁gros	-977
▁venir	-978
▁conc	-979
▁tard	-980
▁trouvé	-981
▁nouvelle	-982
oix	-983
été	-984
▁phot	-985
▁util	-986
▁occu	-987
▁frère	-988
▁vérité	-989
èrent	-990
▁ép	-991
▁demande	-992
▁passe	-993
cul	-994
▁ceci	-995
▁table	-996
arr	-997
▁vos	-998
▁sour	-999
aider	-1000
▁différ	-1001
▁jeune	-1002
▁leurs	-1003
iers	-1004
▁longtemps	-1005
▁jouer	-1006
▁vit	-1007
▁livres	-1008
▁famille	-1009
aie	-1010
▁entendu	-1011
isé	-1012
istoire	-1013
▁gén	-1014
▁personnes	-1015
▁déb	-1016
aud	-1017
▁devons	-1018
▁cri	-1019
▁fort	-1020
▁idée	-1021
▁dix	-1022
▁lire	-1023
ivers	-1024
aurais	-1025
▁esp	-1026
dé	-1027
ète	-1028
▁rend	-1029
▁eff	-1030
▁parf	-1031
▁prod	-1032
▁proch	-1033
sible	-1034
heure	-1035
▁dorm	-1036
▁oubl	-1037
ages	-1038
▁import	-1039
▁voulais	-1040
ret	-1041
▁heureux	-1042
▁ang	-1043
▁mis	-1044
▁café	-1045
olé	-1046
▁nour	-1047
▁prop	-1048
▁bi	-1049
▁fils	-1050
▁film	-1051
▁vé	-1052
avant	-1053
▁dess	-1054
▁mange	-1055
▁do	-1056
▁col	-1057
▁travaille	-1058
▁gagn	-1059
▁nos	-1060
▁chem	-1061
▁inf	-1062
ieu	-1063
▁bas	-1064
▁étr	-1065
▁dont	-1066
▁déje	-1067
▁:	-1068
▁mois	-1069
euille	-1070
▁arrivé	-1071
cident	-1072
▁allé	-1073
▁cours	-1074
▁écrit	-1075
▁passer	-1076
hab	-1077
▁voulait	-1078
▁plan	-1079
▁retard	-1080
gn	-1081
▁dur	-1082
ision	-1083
▁Fr	-1084
ls	-1085
▁Puis	-1086
▁minu	-1087
▁seulement	-1088
▁"	-1089
▁belle	-1090
▁répond	-1091
▁ni	-1092
▁thé	-1093
▁parce	-1094
▁Pr	-1095
▁ord	-1096
espère	-1097
▁trouve	-1098
▁cert	-1099
êter	-1100
ature	-1101
▁tête	-1102
▁déjeun	-1103
▁aider	-1104
▁retour	-1105
▁chaque	-1106
▁cuis	-1107
anni	-1108
▁dém	-1109
▁donné	-1110
▁téléphone	-1111
omm	-1112
▁Japon	-1113
▁fi	-1114
▁;	-1115
ire	-1116
▁profess	-1117
era	-1118
▁bure	-1119
▁viv	-1120
▁pres	-1121
ances	-1122
▁trad	-1123
▁petite	-1124
ets	-1125
lez	-1126
▁po	-1127
▁rê	-1128
enez	-1129
▁yeux	-1130
▁savais	-1131
arrive	-1132
▁chant	-1133
▁bureau	-1134
▁Elles	-1135
▁autres	-1136
cle	-1137
▁inter	-1138
▁conv	-1139
▁fle	-1140
be	-1141
igne	-1142
▁déf	-1143
▁â	-1144
erai	-1145
onné	-1146
▁partie	-1147
homme	-1148
âte	-1149
reux	-1150
aines	-1151
▁serv	-1152
▁vers	-1153
▁k	-1154
▁ment	-1155
▁mer	-1156
▁pass	-1157
▁lettre	-1158
▁anglais	-1159
ép	-1160
▁sal	-1161
▁garçon	-1162
▁pourrait	-1163
▁op	-1164
rière	-1165
▁presque	-1166
▁quelle	-1167
▁ref	-1168
▁disc	-1169
▁Yanni	-1170
▁erre	-1171
rité	-1172
oci	-1173
▁pièce	-1174
fs	-1175
up	-1176
éré	-1177
▁fête	-1178
▁vient	-1179
▁journée	-1180
rir	-1181
rire	-1182
▁comb	-1183
▁quit	-1184
▁cô	-1185
rions	-1186
▁sy	-1187
iques	-1188
▁vivre	-1189
▁pouvoir	-1190
▁facile	-1191
▁suc	-1192
▁sujet	-1193
▁fati	-1194
▁froid	-1195
▁cam	-1196
▁voud	-1197
▁décid	-1198
▁ag	-1199
▁vite	-1200
▁intéres	-1201
éci	-1202
▁mangé	-1203
▁Ar	-1204
uses	-1205
▁rent	-1206
▁ensemble	-1207
▁vas	-1208
ige	-1209
dec	-1210
ied	-1211
iter	-1212
▁médec	-1213
▁pouvons	-1214
ienne	-1215
▁seule	-1216
▁propos	-1217
▁2	-1218
▁Ces	-1219
avons	-1220
ouver	-1221
ult	-1222
▁hum	-1223
ves	-1224
▁déjeuner	-1225
▁devrait	-1226
▁travailler	-1227
riture	-1228
▁travers	-1229
▁feu	-1230
▁simplement	-1231
▁rendre	-1232
▁acheter	-1233
ume	-1234
▁bus	-1235
accord	-1236
▁aucun	-1237
▁commencé	-1238
▁pouvez	-1239
▁fatigu	-1240
per	-1241
▁Ét	-1242
anglais	-1243
▁fen	-1244
itude	-1245
roit	-1246
▁venu	-1247
illé	-1248
▁conse	-1249
▁peuvent	-1250
el	-1251
ok	-1252
▁lun	-1253
èg	-1254
▁mag	-1255
cteur	-1256
iance	-1257
▁serait	-1258
llem	-1259
ettes	-1260
▁viens	-1261
▁aucune	-1262
▁rapide	-1263
ro	-1264
oiss	-1265
▁ég	-1266
▁Re	-1267
oise	-1268
cs	-1269
▁sau	-1270
alité	-1271
▁Dans	-1272
▁prend	-1273
ett	-1274
▁cœur	-1275
▁Notre	-1276
▁appar	-1277
▁surpr	-1278
iel	-1279
▁ver	-1280
▁pied	-1281
aise	-1282
▁compte	-1283
▁étud	-1284
anche	-1285
▁vieux	-1286
▁malade	-1287
ém	-1288
tique	-1289
▁Lais	-1290
▁prix	-1291
▁présent	-1292
press	-1293
▁dernier	-1294
aide	-1295
▁perm	-1296
▁inv	-1297
▁connaiss	-1298
enne	-1299
▁cheveux	-1300
▁musique	-1301
lent	-1302
▁Tous	-1303
▁prin	-1304
▁police	-1305
▁cinq	-1306
▁guerre	-1307
ût	-1308
▁fon	-1309
oie	-1310
rase	-1311
▁enfant	-1312
oleil	-1313
anté	-1314
avez	-1315
▁nourriture	-1316
▁alors	-1317
▁reste	-1318
▁app	-1319
onner	-1320
▁devoir	-1321
▁meilleur	-1322
act	-1323
▁sembl	-1324
▁sortir	-1325
▁premier	-1326
▁comprendre	-1327
oyer	-1328
▁Dieu	-1329
▁côté	-1330
sant	-1331
▁prêt	-1332
▁contr	-1333
▁oublié	-1334
▁déteste	-1335
ger	-1336
▁plais	-1337
▁phrase	-1338
uy	-1339
exp	-1340
avait	-1341
▁près	-1342
▁laisser	-1343
00	-1344
▁confiance	-1345
atre	-1346
▁tellement	-1347
▁mil	-1348
ablement	-1349
éd	-1350
ieurs	-1351
▁Merci	-1352
ital	-1353
▁sign	-1354
çu	-1355
pose	-1356
▁Mes	-1357
▁donner	-1358
▁première	-1359
ies	-1360
▁ci	-1361
▁cade	-1362
aller	-1363
▁professeur	-1364
▁mots	-1365
▁gen	-1366
▁France	-1367
▁apprendre	-1368
aque	-1369
▁bless	-1370
ces	-1371
alie	-1372
èmes	-1373
▁év	-1374
▁vue	-1375
▁essayé	-1376
▁loin	-1377
▁mour	-1378
▁croire	-1379
▁décidé	-1380
▁mettre	-1381
▁rel	-1382
▁sac	-1383
▁chance	-1384
▁off	-1385
▁joue	-1386
▁termin	-1387
oupe	-1388
▁rég	-1389
▁Des	-1390
▁colère	-1391
▁hommes	-1392
onom	-1393
▁réf	-1394
▁journ	-1395
▁éle	-1396
▁anim	-1397
▁situ	-1398
▁quatre	-1399
enf	-1400
trap	-1401
ables	-1402
▁voyage	-1403
▁place	-1404
uits	-1405
▁Arr	-1406
▁Et	-1407
▁fini	-1408
▁Peux	-1409
iner	-1410
oubl	-1411
tres	-1412
▁médecin	-1413
env	-1414
onse	-1415
aille	-1416
▁prév	-1417
▁soi	-1418
▁cal	-1419
▁fou	-1420
▁photo	-1421
▁chemin	-1422
▁minutes	-1423
ités	-1424
▁Cet	-1425
▁exc	-1426
▁droit	-1427
euillez	-1428
▁soleil	-1429
oh	-1430
▁réun	-1431
od	-1432
▁or	-1433
▁publ	-1434
▁rappe	-1435
▁voudrais	-1436
▁abs	-1437
▁empl	-1438
▁autant	-1439
▁propre	-1440
▁aide	-1441
▁envie	-1442
▁terre	-1443
▁regarder	-1444
▁Dan	-1445
▁emb	-1446
lic	-1447
▁comprends	-1448
tell	-1449
▁appris	-1450
urer	-1451
▁doi	-1452
▁parlé	-1453
▁réponse	-1454
▁possible	-1455
▁ven	-1456
▁prob	-1457
▁cause	-1458
▁fenêtre	-1459
▁manière	-1460
az	-1461
lgé	-1462
ori	-1463
▁nu	-1464
rant	-1465
▁règ	-1466
▁éch	-1467
lgérie	-1468
▁dér	-1469
▁cent	-1470
▁plut	-1471
▁chaud	-1472
▁midi	-1473
▁demander	-1474
aite	-1475
▁génér	-1476
▁laissé	-1477
nes	-1478
▁dî	-1479
pect	-1480
ustr	-1481
▁vin	-1482
▁chauss	-1483
▁trans	-1484
▁occupé	-1485
ts	-1486
téri	-1487
▁Arrête	-1488
uie	-1489
ène	-1490
éb	-1491
ible	-1492
amour	-1493
▁plu	-1494
ientôt	-1495
usé	-1496
▁lu	-1497
▁changer	-1498
llez	-1499
▁dir	-1500
▁repr	-1501
▁assis	-1502
▁classe	-1503
hô	-1504
ôle	-1505
▁Fais	-1506
ouleur	-1507
▁dessus	-1508
écess	-1509
▁ordin	-1510
lus	-1511
▁plutôt	-1512
▁Veuillez	-1513
con	-1514
▁tant	-1515
▁endroit	-1516
arer	-1517
▁Joh	-1518
▁souh	-1519
▁vélo	-1520
▁nager	-1521
né	-1522
iller	-1523
▁Dis	-1524
amment	-1525
▁œ	-1526
▁riv	-1527
▁sois	-1528
▁boire	-1529
▁santé	-1530
▁japon	-1531
▁poiss	-1532
êté	-1533
hors	-1534
▁pap	-1535
▁John	-1536
atique	-1537
▁souff	-1538
▁foncti	-1539
▁lorsque	-1540
étr	-1541
▁fu	-1542
part	-1543
▁soci	-1544
▁nécess	-1545
▁inst	-1546
▁jard	-1547
▁rob	-1548
▁vont	-1549
▁celui	-1550
▁dormir	-1551
antes	-1552
▁rouge	-1553
▁devenu	-1554
▁font	-1555
▁allons	-1556
▁devenir	-1557
▁fatigué	-1558
▁rue	-1559
▁dehors	-1560
oyé	-1561
▁min	-1562
▁gent	-1563
▁bientôt	-1564
lot	-1565
bres	-1566
olog	-1567
▁pouvait	-1568
rés	-1569
âteau	-1570
▁réunion	-1571
▁ba	-1572
amen	-1573
▁resp	-1574
tellig	-1575
ze	-1576
▁combien	-1577
▁Ap	-1578
▁femmes	-1579
cip	-1580
uite	-1581
endra	-1582
ident	-1583
▁faim	-1584
▁devant	-1585
▁continu	-1586
▁polit	-1587
▁ra	-1588
▁chans	-1589
▁peine	-1590
év	-1591
çons	-1592
▁histoire	-1593
istes	-1594
▁problèmes	-1595
rons	-1596
▁serai	-1597
▁complè	-1598
▁nature	-1599
eb	-1600
▁lait	-1601
▁erreur	-1602
▁Ton	-1603
▁genre	-1604
▁jardin	-1605
▁plusieurs	-1606
olu	-1607
▁noir	-1608
▁réve	-1609
▁Comme	-1610
▁mains	-1611
▁neige	-1612
tient	-1613
▁moy	-1614
▁manque	-1615
▁char	-1616
uvre	-1617
▁jeu	-1618
▁langues	-1619
▁rac	-1620
▁bois	-1621
▁gard	-1622
▁consid	-1623
▁ain	-1624
▁désolé	-1625
▁chang	-1626
atis	-1627
▁Ses	-1628
▁ins	-1629
année	-1630
▁remp	-1631
▁voulez	-1632
▁questions	-1633
▁ir	-1634
ises	-1635
quipe	-1636
▁faisait	-1637
▁bo	-1638
▁eux	-1639
▁lum	-1640
▁ju	-1641
bles	-1642
ouvert	-1643
▁Donne	-1644
agé	-1645
▁sci	-1646
▁route	-1647
▁années	-1648
▁filles	-1649
onde	-1650
aître	-1651
▁commence	-1652
▁Th	-1653
▁Peut	-1654
▁ceux	-1655
▁année	-1656
▁ferais	-1657
▁ban	-1658
▁fleurs	-1659
éro	-1660
▁nouvelles	-1661
isme	-1662
▁veu	-1663
▁devez	-1664
▁dîner	-1665
▁reconn	-1666
▁attention	-1667
dic	-1668
▁At	-1669
▁coû	-1670
▁donc	-1671
ales	-1672
adore	-1673
▁commun	-1674
▁journal	-1675
▁prochaine	-1676
▁situation	-1677
▁w	-1678
▁séri	-1679
▁ainsi	-1680
ustralie	-1681
aby	-1682
ars	-1683
ses	-1684
▁em	-1685
▁montre	-1686
▁gare	-1687
▁mauvaise	-1688
▁Non	-1689
▁ciel	-1690
▁exac	-1691
▁fond	-1692
tel	-1693
▁fo	-1694
▁sort	-1695
attend	-1696
▁riche	-1697
▁perdre	-1698
▁savait	-1699
oyez	-1700
▁rep	-1701
▁nombreux	-1702
oph	-1703
rée	-1704
méri	-1705
▁façon	-1706
▁pensé	-1707
app	-1708
▁penser	-1709
avantage	-1710
▁derrière	-1711
▁complètement	-1712
apeau	-1713
▁verre	-1714
importe	-1715
▁rencontré	-1716
▁ty	-1717
▁vac	-1718
▁Quelqu	-1719
▁devrions	-1720
▁Al	-1721
▁six	-1722
ières	-1723
Algérie	-1724
▁cuisine	-1725
▁rivière	-1726
▁attendre	-1727
▁elles	-1728
▁resse	-1729
▁rapidement	-1730
▁cé	-1731
▁né	-1732
▁jeun	-1733
raient	-1734
▁magas	-1735
▁suff	-1736
appelle	-1737
aute	-1738
▁Lay	-1739
▁attend	-1740
▁faites	-1741
▁bout	-1742
▁pous	-1743
elles	-1744
▁vaut	-1745
▁Layla	-1746
gr	-1747
prise	-1748
▁haut	-1749
▁marché	-1750
▁arriver	-1751
let	-1752
▁Reg	-1753
ettre	-1754
▁dist	-1755
▁cadeau	-1756
▁pourrais	-1757
▁Voi	-1758
▁Lors	-1759
▁coll	-1760
▁suiv	-1761
▁habit	-1762
▁télév	-1763
▁four	-1764
▁reçu	-1765
▁Pouvez	-1766
mi	-1767
▁boî	-1768
▁can	-1769
▁États	-1770
▁arrive	-1771
▁conduire	-1772
▁Mais	-1773
▁sauv	-1774
▁Paris	-1775
ps	-1776
ines	-1777
▁béb	-1778
▁rom	-1779
▁Après	-1780
▁enseign	-1781
uc	-1782
▁doll	-1783
ach	-1784
oth	-1785
uti	-1786
▁Cert	-1787
▁lieu	-1788
▁vête	-1789
▁tort	-1790
curité	-1791
▁pluie	-1792
térieur	-1793
▁constr	-1794
▁connaît	-1795
▁ving	-1796
llemand	-1797
erv	-1798
médi	-1799
vement	-1800
▁restau	-1801
▁marcher	-1802
▁important	-1803
▁probablement	-1804
▁écrire	-1805
▁vacances	-1806
outer	-1807
▁Thom	-1808
▁pain	-1809
▁projet	-1810
▁Oui	-1811
▁parc	-1812
nement	-1813
▁dange	-1814
▁davantage	-1815
nent	-1816
▁cré	-1817
▁Thomas	-1818
▁appelé	-1819
▁regarde	-1820
rib	-1821
▁no	-1822
▁pop	-1823
▁âge	-1824
▁Votre	-1825
▁accep	-1826
▁chaussures	-1827
▁Tr	-1828
▁aim	-1829
pital	-1830
▁Unis	-1831
uction	-1832
▁remar	-1833
▁change	-1834
▁div	-1835
▁Bien	-1836
▁mourir	-1837
art	-1838
ima	-1839
▁payer	-1840
▁secret	-1841
iversaire	-1842
▁intellig	-1843
uellement	-1844
▁nombreuses	-1845
▁donne	-1846
▁préfère	-1847
rig	-1848
èque	-1849
▁bat	-1850
▁ind	-1851
▁aimé	-1852
autres	-1853
▁argent	-1854
▁visite	-1855
▁prochain	-1856
▁blanc	-1857
▁senti	-1858
ari	-1859
ind	-1860
êcher	-1861
▁pouvais	-1862
▁vêtements	-1863
lu	-1864
▁dim	-1865
▁jet	-1866
▁lar	-1867
▁mét	-1868
▁résult	-1869
▁exactement	-1870
▁chois	-1871
▁japonais	-1872
aff	-1873
ano	-1874
▁Veux	-1875
▁aurait	-1876
▁Regarde	-1877
▁jol	-1878
▁tent	-1879
▁boîte	-1880
▁puisse	-1881
▁réussi	-1882
▁An	-1883
▁prie	-1884
ctionn	-1885
▁étais	-1886
▁Laisse	-1887
ah	-1888
▁super	-1889
▁plaisir	-1890
▁étudier	-1891
▁ordinateur	-1892
▁bâ	-1893
▁vent	-1894
▁penses	-1895
iver	-1896
▁lis	-1897
merci	-1898
▁amou	-1899
▁arrêté	-1900
▁gagner	-1901
▁étrang	-1902
▁res	-1903
▁autour	-1904
ane	-1905
équ	-1906
ième	-1907
▁sep	-1908
▁plait	-1909
▁plein	-1910
▁vingt	-1911
tez	-1912
user	-1913
▁num	-1914
essay	-1915
▁ouvert	-1916
▁public	-1917
▁produit	-1918
▁chercher	-1919
▁gl	-1920
enue	-1921
ites	-1922
▁oise	-1923
▁bruit	-1924
▁dollars	-1925
▁répondre	-1926
ball	-1927
▁bar	-1928
▁bras	-1929
▁stup	-1930
▁chanson	-1931
oût	-1932
▁sc	-1933
léch	-1934
▁cop	-1935
resse	-1936
▁Auc	-1937
▁lib	-1938
▁mor	-1939
▁ress	-1940
▁voix	-1941
▁bière	-1942
mée	-1943
▁neu	-1944
▁suite	-1945
▁immédi	-1946
▁inform	-1947
▁nécessaire	-1948
▁Att	-1949
▁lég	-1950
▁parl	-1951
▁fumer	-1952
▁simple	-1953
histoire	-1954
▁mou	-1955
▁mens	-1956
▁cheval	-1957
▁lumière	-1958
▁télévision	-1959
iné	-1960
rec	-1961
▁bu	-1962
▁ris	-1963
indre	-1964
▁Rien	-1965
▁bébé	-1966
▁libre	-1967
▁attrap	-1968
▁gâteau	-1969
inc	-1970
uel	-1971
▁cer	-1972
▁Beau	-1973
illage	-1974
habitude	-1975
▁veulent	-1976
erne	-1977
érant	-1978
▁disp	-1979
▁rire	-1980
▁tombé	-1981
▁lorsqu	-1982
▁essayer	-1983
▁plupart	-1984
▁respons	-1985
cès	-1986
▁rat	-1987
ennis	-1988
▁sang	-1989
ato	-1990
des	-1991
▁tir	-1992
ilité	-1993
ctions	-1994
▁médic	-1995
▁tennis	-1996
pression	-1997
▁animaux	-1998
▁chanter	-1999
▁compris	-2000
▁magasin	-2001
▁sécurité	-2002
▁meilleure	-2003
inf	-2004
▁fl	-2005
aiss	-2006
▁amie	-2007
porter	-2008
▁Beaucoup	-2009
▁décision	-2010
▁rêve	-2011
▁poisson	-2012
▁étudiants	-2013
gle	-2014
ime	-2015
occu	-2016
▁dos	-2017
▁coin	-2018
conque	-2019
▁choix	-2020
▁popul	-2021
▁prends	-2022
▁étions	-2023
▁content	-2024
▁All	-2025
▁bate	-2026
▁début	-2027
▁laisse	-2028
ris	-2029
▁pleuv	-2030
▁somme	-2031
atement	-2032
▁z	-2033
▁ait	-2034
▁Rima	-2035
▁gouver	-2036
▁trente	-2037
ak	-2038
▁fit	-2039
▁changé	-2040
▁restaurant	-2041
je	-2042
▁ble	-2043
▁enn	-2044
▁sil	-2045
▁sus	-2046
ences	-2047
rases	-2048
▁réal	-2049
▁recher	-2050
atisf	-2051
▁pommes	-2052
▁phrases	-2053
mis	-2054
▁In	-2055
entif	-2056
▁poste	-2057
▁chiens	-2058
▁parfois	-2059
▁voulons	-2060
géri	-2061
liquer	-2062
▁devoirs	-2063
rou	-2064
tron	-2065
arriv	-2066
▁chau	-2067
▁foot	-2068
▁robe	-2069
▁salle	-2070
appréci	-2071
▁rapport	-2072
▁gau	-2073
urent	-2074
▁entendre	-2075
▁immédiatement	-2076
▁lè	-2077
onte	-2078
▁croy	-2079
▁capit	-2080
▁numéro	-2081
▁différent	-2082
▁i	-2083
▁réc	-2084
▁utiliser	-2085
lace	-2086
▁act	-2087
▁atte	-2088
▁souci	-2089
▁satisf	-2090
▁cherche	-2091
▁rencontrer	-2092
iles	-2093
atoeb	-2094
▁malad	-2095
▁sorte	-2096
▁Aujourd	-2097
▁mariage	-2098
cé	-2099
▁finir	-2100
▁lundi	-2101
érience	-2102
▁convain	-2103
▁comprend	-2104
▁clé	-2105
▁pan	-2106
gment	-2107
utile	-2108
atoeba	-2109
▁devriez	-2110
vel	-2111
ront	-2112
▁Plus	-2113
▁carte	-2114
▁marche	-2115
▁Tatoeba	-2116
▁accident	-2117
bli	-2118
oche	-2119
▁cir	-2120
▁court	-2121
▁gagné	-2122
▁mê	-2123
rible	-2124
▁desc	-2125
▁huit	-2126
▁vend	-2127
univers	-2128
ope	-2129
▁men	-2130
oudre	-2131
▁éche	-2132
▁bateau	-2133
▁signif	-2134
▁chapeau	-2135
▁rentrer	-2136
▁sel	-2137
onnête	-2138
accident	-2139
▁commencer	-2140
oque	-2141
▁mur	-2142
aleur	-2143
▁viol	-2144
▁const	-2145
iennent	-2146
▁Chaque	-2147
▁règles	-2148
▁visage	-2149
▁dictionn	-2150
▁Australie	-2151
▁but	-2152
ignor	-2153
blioth	-2154
▁cassé	-2155
▁rendu	-2156
▁jeunes	-2157
▁tomber	-2158
▁réfléch	-2159
▁surpris	-2160
▁biblioth	-2161
aph	-2162
hum	-2163
quel	-2164
rier	-2165
▁Pas	-2166
▁Tok	-2167
achet	-2168
▁succès	-2169
▁conseil	-2170
dio	-2171
oles	-2172
usse	-2173
▁roi	-2174
▁chats	-2175
▁trait	-2176
▁intéressant	-2177
cas	-2178
tte	-2179
uter	-2180
quelle	-2181
arrêter	-2182
▁consci	-2183
▁dangereux	-2184
▁int	-2185
▁parap	-2186
usement	-2187
▁Ta	-2188
isse	-2189
▁supp	-2190
mérique	-2191
▁prison	-2192
▁politique	-2193
yo	-2194
oux	-2195
▁hô	-2196
▁val	-2197
mment	-2198
▁préc	-2199
▁corps	-2200
▁envir	-2201
▁dispar	-2202
▁capable	-2203
intention	-2204
▁paraplui	-2205
arre	-2206
étud	-2207
▁dél	-2208
ignore	-2209
▁impos	-2210
tér	-2211
▁face	-2212
▁progr	-2213
hôpital	-2214
▁courant	-2215
▁vieille	-2216
xi	-2217
ail	-2218
éli	-2219
enait	-2220
▁telle	-2221
▁école	-2222
▁boulot	-2223
▁regret	-2224
ieur	-2225
▁meur	-2226
▁dictionnaire	-2227
aim	-2228
▁élè	-2229
▁fier	-2230
▁pauvre	-2231
▁appréci	-2232
▁couleur	-2233
▁pleurer	-2234
ath	-2235
fin	-2236
uré	-2237
▁sub	-2238
▁milli	-2239
▁plage	-2240
▁groupe	-2241
▁stupide	-2242
ric	-2243
uve	-2244
ède	-2245
ague	-2246
enses	-2247
▁mess	-2248
▁pier	-2249
▁Tokyo	-2250
▁réuss	-2251
▁bal	-2252
avion	-2253
pagne	-2254
▁viande	-2255
▁profond	-2256
prun	-2257
inqui	-2258
▁décl	-2259
▁surv	-2260
▁Chine	-2261
▁grands	-2262
là	-2263
dit	-2264
▁loi	-2265
velop	-2266
▁retr	-2267
acheter	-2268
▁préfér	-2269
▁regardé	-2270
ensé	-2271
rique	-2272
▁extr	-2273
▁parv	-2274
▁sept	-2275
▁dents	-2276
▁ferai	-2277
ek	-2278
ges	-2279
inst	-2280
▁aidé	-2281
▁fera	-2282
▁souviens	-2283
oué	-2284
▁pai	-2285
▁rare	-2286
▁avais	-2287
▁économ	-2288
▁affaires	-2289
▁laquelle	-2290
▁bibliothèque	-2291
▁resté	-2292
▁Lorsque	-2293
▁certain	-2294
▁comporte	-2295
▁Dem	-2296
▁bâti	-2297
isation	-2298
▁vendre	-2299
▁lunettes	-2300
isc	-2301
▁Ess	-2302
▁hor	-2303
▁nett	-2304
ateurs	-2305
▁aband	-2306
▁aimer	-2307
▁press	-2308
▁blessé	-2309
▁porter	-2310
▁revoir	-2311
étranger	-2312
▁société	-2313
▁parapluie	-2314
ug	-2315
gie	-2316
▁Éc	-2317
▁doute	-2318
▁occup	-2319
ièrement	-2320
▁quitter	-2321
▁tué	-2322
aites	-2323
outes	-2324
tenir	-2325
▁type	-2326
▁équipe	-2327
▁souhaite	-2328
éch	-2329
oids	-2330
orme	-2331
▁biz	-2332
▁dég	-2333
▁soin	-2334
▁march	-2335
▁dispos	-2336
paravant	-2337
▁amoureux	-2338
cule	-2339
fois	-2340
▁sty	-2341
▁Main	-2342
ennent	-2343
▁coûte	-2344
▁aiment	-2345
▁remerci	-2346
apprendre	-2347
él	-2348
onge	-2349
▁piano	-2350
▁gauche	-2351
▁doivent	-2352
▁terminé	-2353
▁étrange	-2354
▁résoudre	-2355
ile	-2356
oud	-2357
▁brû	-2358
▁médica	-2359
▁Pourriez	-2360
▁gouvernement	-2361
▁Ex	-2362
▁siè	-2363
▁écl	-2364
▁choc	-2365
▁volé	-2366
ission	-2367
▁roman	-2368
▁augment	-2369
▁dimanche	-2370
▁montagne	-2371
▁Maintenant	-2372
ib	-2373
ub	-2374
gne	-2375
ple	-2376
▁nav	-2377
▁envoyé	-2378
▁serais	-2379
ainement	-2380
▁garçons	-2381
eek	-2382
âche	-2383
ancer	-2384
ution	-2385
▁base	-2386
▁form	-2387
▁quar	-2388
▁celle	-2389
▁plain	-2390
▁princip	-2391
ufs	-2392
vre	-2393
aill	-2394
irent	-2395
▁symp	-2396
▁week	-2397
veille	-2398
▁Terre	-2399
▁cherch	-2400
▁longue	-2401
ame	-2402
ogr	-2403
▁lac	-2404
▁réd	-2405
▁ouver	-2406
▁sucre	-2407
▁emploi	-2408
▁spé	-2409
▁Même	-2410
▁bais	-2411
▁bord	-2412
▁méri	-2413
▁algéri	-2414
▁demanda	-2415
▁auparavant	-2416
▁fav	-2417
▁mach	-2418
▁neuf	-2419
▁payé	-2420
▁prép	-2421
▁Voici	-2422
▁promen	-2423
gan	-2424
tif	-2425
oulez	-2426
▁Ceci	-2427
▁bons	-2428
▁chin	-2429
▁vole	-2430
▁repos	-2431
▁suffis	-2432
mbl	-2433
pec	-2434
diot	-2435
▁opin	-2436
▁pire	-2437
éranto	-2438
▁Voulez	-2439
▁coucher	-2440
▁village	-2441
▁pomme	-2442
▁repas	-2443
▁avaient	-2444
intérieur	-2445
▁différence	-2446
raî	-2447
égl	-2448
quée	-2449
▁esc	-2450
▁célè	-2451
▁kaby	-2452
▁commen	-2453
entement	-2454
▁suppose	-2455
▁également	-2456
▁impossible	-2457
lam	-2458
▁sp	-2459
agit	-2460
éric	-2461
▁tim	-2462
liqué	-2463
▁syst	-2464
▁ferme	-2465
amb	-2466
aman	-2467
ocat	-2468
▁gri	-2469
▁priv	-2470
rasser	-2471
▁spéci	-2472
▁papier	-2473
▁anniversaire	-2474
érer	-2475
▁maî	-2476
êtres	-2477
▁goût	-2478
▁menti	-2479
▁mille	-2480
▁peint	-2481
▁gentil	-2482
▁racont	-2483
▁triste	-2484
eusement	-2485
▁facilement	-2486
▁batt	-2487
▁hors	-2488
▁pard	-2489
▁arbre	-2490
▁pieds	-2491
atiques	-2492
onsieur	-2493
▁détest	-2494
▁erreurs	-2495
▁connaître	-2496
▁Av	-2497
iend	-2498
irer	-2499
orer	-2500
▁Mal	-2501
▁tran	-2502
▁prépar	-2503
▁arrêter	-2504
▁concert	-2505
▁portait	-2506
cev	-2507
▁voi	-2508
▁Sais	-2509
issent	-2510
▁champ	-2511
▁poids	-2512
▁Allons	-2513
▁danger	-2514
▁mesure	-2515
▁partout	-2516
▁poser	-2517
▁ressemble	-2518
▁fonctionne	-2519
▁lé	-2520
oign	-2521
ément	-2522
▁Aucun	-2523
▁mêmes	-2524
▁Prends	-2525
▁polici	-2526
▁bizarre	-2527
▁rappelle	-2528
▁Gr	-2529
riel	-2530
▁ach	-2531
▁mit	-2532
▁doig	-2533
casion	-2534
tiques	-2535
▁boute	-2536
▁coute	-2537
▁dirait	-2538
▁honnête	-2539
▁sérieux	-2540
xe	-2541
acun	-2542
érop	-2543
▁cul	-2544
tions	-2545
▁amus	-2546
▁calme	-2547
▁mante	-2548
▁20	-2549
oite	-2550
veau	-2551
estin	-2552
▁ferm	-2553
▁croit	-2554
▁photos	-2555
▁quitté	-2556
aitement	-2557
▁heureuse	-2558
yp	-2559
vec	-2560
heur	-2561
éter	-2562
▁allez	-2563
▁disent	-2564
▁habite	-2565
▁sommeil	-2566
▁vir	-2567
ordin	-2568
▁Hier	-2569
examen	-2570
▁moyen	-2571
▁tasse	-2572
▁tenir	-2573
▁tromp	-2574
▁patron	-2575
ode	-2576
▁Can	-2577
▁Dés	-2578
alent	-2579
enons	-2580
▁tuer	-2581
▁fasse	-2582
▁inqui	-2583
▁épous	-2584
▁Depuis	-2585
▁améric	-2586
▁montrer	-2587
▁président	-2588
▁intelligent	-2589
los	-2590
ura	-2591
ieux	-2592
▁lim	-2593
▁ligne	-2594
intéres	-2595
▁accomp	-2596
▁affaire	-2597
▁maladie	-2598
▁discours	-2599
▁semblait	-2600
▁ren	-2601
ouvrir	-2602
éroport	-2603
▁Faites	-2604
▁courir	-2605
▁grosse	-2606
▁voyager	-2607
▁Pourrais	-2608
▁én	-2609
âmes	-2610
▁sold	-2611
▁ciném	-2612
▁exemp	-2613
▁forme	-2614
▁garder	-2615
▁message	-2616
▁pleuvoir	-2617
eff	-2618
▁dites	-2619
▁frais	-2620
▁liste	-2621
▁oncle	-2622
▁emprun	-2623
▁système	-2624
appé	-2625
cell	-2626
▁cit	-2627
▁tel	-2628
areil	-2629
▁vécu	-2630
oublie	-2631
▁faute	-2632
▁nation	-2633
▁utilis	-2634
▁faisons	-2635
▁football	-2636
cha	-2637
▁fum	-2638
▁pat	-2639
uelle	-2640
▁grat	-2641
▁prov	-2642
esprit	-2643
▁match	-2644
▁volont	-2645
▁manteau	-2646
▁lentement	-2647
ik	-2648
▁taxi	-2649
▁Canad	-2650
▁ennuy	-2651
▁importante	-2652
éner	-2653
ettez	-2654
▁fall	-2655
▁bille	-2656
▁glace	-2657
▁sport	-2658
▁vieil	-2659
▁vérif	-2660
▁furent	-2661
▁voitures	-2662
ru	-2663
asc	-2664
▁imm	-2665
lique	-2666
▁bain	-2667
▁reti	-2668
▁recomm	-2669
▁Certains	-2670
▁téléphon	-2671
bes	-2672
enci	-2673
▁tot	-2674
après	-2675
reuse	-2676
▁jolie	-2677
▁Toutes	-2678
▁centre	-2679
▁taille	-2680
▁vivent	-2681
ira	-2682
men	-2683
▁Va	-2684
▁dom	-2685
▁imag	-2686
ograph	-2687
▁allés	-2688
▁étudiant	-2689
ué	-2690
▁tri	-2691
ètres	-2692
iendra	-2693
▁forêt	-2694
▁seras	-2695
▁bonnes	-2696
▁cinéma	-2697
apprécie	-2698
▁capitale	-2699
▁finalement	-2700
ule	-2701
quet	-2702
▁tap	-2703
▁aura	-2704
▁pont	-2705
▁terr	-2706
ormais	-2707
▁dormi	-2708
▁idiot	-2709
▁savez	-2710
attends	-2711
▁proche	-2712
▁scientif	-2713
œil	-2714
▁él	-2715
▁ém	-2716
▁Bon	-2717
urope	-2718
▁Jean	-2719
▁anci	-2720
▁enne	-2721
▁guit	-2722
▁prud	-2723
ologie	-2724
▁fruits	-2725
▁chemise	-2726
▁moindre	-2727
▁service	-2728
uri	-2729
▁sug	-2730
table	-2731
▁poss	-2732
▁prit	-2733
▁relig	-2734
appeler	-2735
▁banque	-2736
▁minute	-2737
lication	-2738
exc	-2739
tern	-2740
abord	-2741
▁Allez	-2742
▁voulu	-2743
▁Laissez	-2744
▁douleur	-2745
igé	-2746
▁Lond	-2747
▁tend	-2748
▁vide	-2749
▁appel	-2750
▁radio	-2751
▁chaise	-2752
▁danser	-2753
▁ferait	-2754
▁fermer	-2755
▁habitu	-2756
▁suivre	-2757
▁rarement	-2758
▁résultats	-2759
▁mir	-2760
▁Mont	-2761
pressi	-2762
▁morce	-2763
▁rempl	-2764
▁allait	-2765
▁entend	-2766
▁Londres	-2767
▁semaines	-2768
▁étoi	-2769
enfant	-2770
▁effort	-2771
▁entrer	-2772
▁célèbre	-2773
▁oiseaux	-2774
▁réparer	-2775
▁bag	-2776
▁kil	-2777
▁rée	-2778
▁vert	-2779
▁Penses	-2780
▁petits	-2781
aéroport	-2782
entendre	-2783
▁bâtiment	-2784
pres	-2785
▁chi	-2786
▁dès	-2787
▁Avec	-2788
▁cult	-2789
▁légu	-2790
▁moiti	-2791
▁viend	-2792
▁revenu	-2793
▁risque	-2794
▁couteau	-2795
▁réalité	-2796
▁répondu	-2797
▁travaillé	-2798
sa	-2799
rice	-2800
êche	-2801
arbre	-2802
▁Sans	-2803
▁servi	-2804
▁correc	-2805
▁durant	-2806
▁vaisse	-2807
▁lettres	-2808
▁parfait	-2809
▁souhait	-2810
▁intéress	-2811
▁proposition	-2812
icul	-2813
▁ber	-2814
▁rév	-2815
erais	-2816
illée	-2817
▁afin	-2818
▁vidé	-2819
▁drôle	-2820
▁lever	-2821
▁soupe	-2822
▁moitié	-2823
▁savons	-2824
▁sentir	-2825
attendre	-2826
▁chinois	-2827
▁couvert	-2828
▁docteur	-2829
▁environ	-2830
▁ouverte	-2831
▁propres	-2832
▁signifie	-2833
yc	-2834
amm	-2835
cre	-2836
▁obl	-2837
▁soud	-2838
▁clair	-2839
▁garde	-2840
▁ouvrir	-2841
▁appeler	-2842
▁conduis	-2843
▁dispose	-2844
▁guitare	-2845
▁machine	-2846
▁particul	-2847
étu	-2848
▁New	-2849
sique	-2850
▁atta	-2851
▁paix	-2852
▁connu	-2853
▁pleine	-2854
▁attendu	-2855
▁parlent	-2856
▁pratique	-2857
▁solution	-2858
pl	-2859
ive	-2860
ust	-2861
irai	-2862
▁boit	-2863
▁norm	-2864
action	-2865
▁pierre	-2866
▁élèves	-2867
▁compagn	-2868
▁salaire	-2869
▁recherche	-2870
na	-2871
chn	-2872
ili	-2873
urg	-2874
▁fus	-2875
▁loc	-2876
▁log	-2877
agnol	-2878
▁magn	-2879
itions	-2880
▁avion	-2881
▁aurais	-2882
airement	-2883
llemagne	-2884
ov	-2885
où	-2886
ray	-2887
ctif	-2888
erté	-2889
apper	-2890
oyons	-2891
▁sûre	-2892
▁Viens	-2893
▁autor	-2894
▁endorm	-2895
▁souris	-2896
ote	-2897
rif	-2898
aces	-2899
▁gra	-2900
oires	-2901
porté	-2902
écrire	-2903
▁marié	-2904
▁rendez	-2905
▁dévelop	-2906
▁surprise	-2907
▁désormais	-2908
▁satisfait	-2909
▁Aim	-2910
▁chocol	-2911
▁traduire	-2912
och	-2913
▁ay	-2914
cool	-2915
ouer	-2916
▁jal	-2917
▁pleut	-2918
▁promis	-2919
▁préféré	-2920
▁seconde	-2921
▁discuter	-2922
cer	-2923
uer	-2924
atif	-2925
▁pou	-2926
▁éte	-2927
▁sauf	-2928
▁utile	-2929
▁absolu	-2930
▁peuple	-2931
▁conduit	-2932
▁dérange	-2933
▁sourire	-2934
entreprise	-2935
tés	-2936
▁10	-2937
inue	-2938
oter	-2939
▁cru	-2940
▁Russ	-2941
▁cess	-2942
▁chef	-2943
▁joué	-2944
▁sugg	-2945
▁rêves	-2946
▁tranqu	-2947
th	-2948
hém	-2949
tim	-2950
èle	-2951
▁aj	-2952
▁Jac	-2953
▁tex	-2954
▁bour	-2955
▁lour	-2956
▁trem	-2957
▁colle	-2958
▁idées	-2959
▁arbres	-2960
▁invité	-2961
▁marier	-2962
▁rentré	-2963
▁bonheur	-2964
▁allemand	-2965
▁impressi	-2966
gré	-2967
enti	-2968
éche	-2969
▁Peu	-2970
▁mign	-2971
▁nage	-2972
▁pati	-2973
▁Alors	-2974
▁Savez	-2975
▁fermé	-2976
▁chante	-2977
▁délici	-2978
Amérique	-2979
▁compter	-2980
▁extrême	-2981
▁patient	-2982
▁appartement	-2983
aig	-2984
ect	-2985
ron	-2986
tin	-2987
aign	-2988
▁cli	-2989
asses	-2990
hôtel	-2991
▁nerv	-2992
▁adore	-2993
▁aimes	-2994
▁forte	-2995
▁techn	-2996
ération	-2997
▁command	-2998
▁grandes	-2999
▁général	-3000
▁opinion	-3001
▁viendra	-3002
▁bouteille	-3003
noc	-3004
bout	-3005
tent	-3006
▁rav	-3007
ticle	-3008
▁Quoi	-3009
▁atti	-3010
▁lune	-3011
onomie	-3012
▁enfin	-3013
▁organ	-3014
▁signe	-3015
▁Désolé	-3016
apprends	-3017
impression	-3018
▁merveille	-3019
éf	-3020
man	-3021
ards	-3022
imag	-3023
endez	-3024
inter	-3025
▁allée	-3026
▁laver	-3027
▁poule	-3028
▁russe	-3029
▁dépend	-3030
▁kabyle	-3031
▁pensez	-3032
onnement	-3033
▁tempête	-3034
espéranto	-3035
▁appareil	-3036
▁difficul	-3037
▁printemps	-3038
▁retourner	-3039
▁responsable	-3040
▁suffisamment	-3041
adm	-3042
▁Oh	-3043
amme	-3044
mine	-3045
orie	-3046
▁maj	-3047
▁nez	-3048
▁pare	-3049
▁œufs	-3050
▁gagne	-3051
▁compos	-3052
▁mathém	-3053
▁permis	-3054
▁échecs	-3055
▁étudié	-3056
▁tableau	-3057
oré	-3058
▁élé	-3059
accep	-3060
istre	-3061
térêt	-3062
▁Suis	-3063
▁dort	-3064
▁honte	-3065
▁proté	-3066
▁voler	-3067
▁respect	-3068
▁chocolat	-3069
▁nouveaux	-3070
▁continuer	-3071
▁découvert	-3072
ara	-3073
ork	-3074
▁bén	-3075
▁mém	-3076
▁pre	-3077
orité	-3078
▁prét	-3079
▁soup	-3080
▁amour	-3081
▁morte	-3082
▁avocat	-3083
▁savent	-3084
▁réussir	-3085
▁visiter	-3086
▁connaissance	-3087
âge	-3088
enus	-3089
itié	-3090
▁adm	-3091
▁enc	-3092
▁Conn	-3093
▁crime	-3094
▁hôtel	-3095
▁Prenez	-3096
▁destin	-3097
▁larmes	-3098
université	-3099
lin	-3100
roy	-3101
anti	-3102
▁ore	-3103
▁ram	-3104
ative	-3105
uvres	-3106
▁détr	-3107
▁mord	-3108
iennes	-3109
inform	-3110
▁parole	-3111
▁adresse	-3112
▁policier	-3113
▁devraient	-3114
▁vaisselle	-3115
▁rh	-3116
sions	-3117
▁Sois	-3118
▁clés	-3119
▁force	-3120
▁excell	-3121
▁frères	-3122
▁voisin	-3123
▁légumes	-3124
▁entreprise	-3125
▁généralement	-3126
tenu	-3127
▁eur	-3128
▁lev	-3129
équipe	-3130
▁animal	-3131
▁droite	-3132
▁parles	-3133
▁suppos	-3134
▁cadeaux	-3135
▁liberté	-3136
▁pensait	-3137
ta	-3138
zz	-3139
empl	-3140
▁Tes	-3141
▁état	-3142
▁écriv	-3143
▁debout	-3144
▁soient	-3145
▁devient	-3146
▁absolument	-3147
ick	-3148
rin	-3149
▁Sk	-3150
idée	-3151
arrêt	-3152
▁York	-3153
▁coût	-3154
▁fant	-3155
▁arrêt	-3156
▁faits	-3157
▁panne	-3158
▁stylo	-3159
▁tombe	-3160
▁étiez	-3161
entends	-3162
▁tombée	-3163
▁préparer	-3164
lie	-3165
mon	-3166
▁th	-3167
▁Nos	-3168
▁cray	-3169
▁balle	-3170
▁puiss	-3171
abilité	-3172
▁avions	-3173
▁silence	-3174
▁voisins	-3175
ich	-3176
pes	-3177
acle	-3178
inte	-3179
▁fau	-3180
icien	-3181
▁trom	-3182
▁vain	-3183
oindre	-3184
▁films	-3185
▁mondi	-3186
▁beauté	-3187
▁souvenir	-3188
▁extrêmement	-3189
âce	-3190
éle	-3191
île	-3192
ates	-3193
▁has	-3194
▁pot	-3195
appar	-3196
▁pron	-3197
avenir	-3198
essaie	-3199
▁sache	-3200
ication	-3201
▁magnif	-3202
▁respec	-3203
▁mensonge	-3204
▁terrible	-3205
▁conscience	-3206
ern	-3207
rét	-3208
▁my	-3209
osse	-3210
▁App	-3211
hiver	-3212
▁fact	-3213
▁prévu	-3214
essayer	-3215
▁prêter	-3216
▁seront	-3217
▁disparu	-3218
▁exemple	-3219
▁théorie	-3220
▁réfléchir	-3221
▁déci	-3222
▁loup	-3223
▁démén	-3224
▁Canada	-3225
▁Russie	-3226
▁crains	-3227
▁revenir	-3228
▁science	-3229
▁intéressé	-3230
▁traduction	-3231
heureusement	-3232
▁Se	-3233
ffre	-3234
romp	-3235
iment	-3236
▁Kaby	-3237
▁club	-3238
▁dure	-3239
▁belles	-3240
▁faible	-3241
▁milieu	-3242
▁nouvel	-3243
▁soirée	-3244
▁valeur	-3245
▁Connais	-3246
▁arrivée	-3247
expérience	-3248
cus	-3249
▁is	-3250
aint	-3251
▁art	-3252
▁eng	-3253
▁ens	-3254
aisse	-3255
cture	-3256
église	-3257
▁morts	-3258
▁quant	-3259
▁compét	-3260
▁devait	-3261
▁hasard	-3262
▁impati	-3263
▁portes	-3264
▁Quelque	-3265
▁culture	-3266
▁Certaines	-3267
▁comportement	-3268
aci	-3269
esc	-3270
▁Cr	-3271
▁Me	-3272
▁pâ	-3273
▁nég	-3274
▁œil	-3275
euses	-3276
raite	-3277
terre	-3278
▁cous	-3279
▁dent	-3280
▁proc	-3281
▁péri	-3282
▁test	-3283
▁Dites	-3284
▁faill	-3285
▁ignor	-3286
▁joueur	-3287
▁derniers	-3288
▁compagnie	-3289
▁Ou	-3290
▁ru	-3291
avis	-3292
▁mod	-3293
assée	-3294
▁Lind	-3295
▁Mari	-3296
▁ball	-3297
▁demi	-3298
▁faux	-3299
▁lève	-3300
▁mets	-3301
entrer	-3302
▁pours	-3303
▁bouche	-3304
▁cartes	-3305
▁Monsieur	-3306
▁différentes	-3307
▁parfaitement	-3308
acé	-3309
ran	-3310
acer	-3311
itre	-3312
▁Sur	-3313
▁riz	-3314
rimer	-3315
▁Voud	-3316
▁crav	-3317
▁from	-3318
▁obje	-3319
▁Linda	-3320
▁améli	-3321
▁fréqu	-3322
▁innoc	-3323
▁musul	-3324
▁vraie	-3325
▁niveau	-3326
▁représ	-3327
▁unique	-3328
▁supporter	-3329
ome	-3330
▁indi	-3331
▁levé	-3332
▁serp	-3333
▁trou	-3334
▁Pense	-3335
itation	-3336
▁humains	-3337
▁pensent	-3338
▁possède	-3339
▁soldats	-3340
attendais	-3341
▁conseils	-3342
▁résultat	-3343
eue	-3344
rim	-3345
anci	-3346
âtre	-3347
▁fab	-3348
▁pun	-3349
▁Appe	-3350
▁toit	-3351
alcool	-3352
réable	-3353
étique	-3354
▁entré	-3355
▁merci	-3356
affaire	-3357
▁portable	-3358
▁présenter	-3359
▁tranquille	-3360
abe	-3361
▁sk	-3362
▁ve	-3363
orge	-3364
▁amb	-3365
▁phy	-3366
▁avis	-3367
▁bleu	-3368
▁renv	-3369
▁aille	-3370
▁allum	-3371
▁jambe	-3372
▁nulle	-3373
▁venue	-3374
▁battre	-3375
▁montré	-3376
gleterre	-3377
inquiète	-3378
irm	-3379
oto	-3380
▁dév	-3381
▁rej	-3382
esses	-3383
▁clim	-3384
▁Skura	-3385
▁autom	-3386
▁fleur	-3387
ception	-3388
énergie	-3389
▁camion	-3390
▁couper	-3391
▁incroy	-3392
▁manqué	-3393
▁propri	-3394
▁refusé	-3395
▁attrapé	-3396
▁excuses	-3397
▁fromage	-3398
▁planète	-3399
expliquer	-3400
▁remarqué	-3401
▁expérience	-3402
erie	-3403
èvre	-3404
▁cig	-3405
▁oui	-3406
▁Cont	-3407
▁pizz	-3408
cevoir	-3409
▁Garde	-3410
▁règle	-3411
instant	-3412
▁déclar	-3413
▁transf	-3414
▁contrôle	-3415
▁reconnais	-3416
▁certainement	-3417
onf	-3418
èse	-3419
▁Dev	-3420
▁Mets	-3421
▁tiré	-3422
▁Celui	-3423
▁musée	-3424
▁tient	-3425
étudier	-3426
▁circul	-3427
▁navire	-3428
▁oiseau	-3429
allemand	-3430
économie	-3431
▁croyais	-3432
▁vouloir	-3433
▁campagne	-3434
▁commença	-3435
▁poissons	-3436
▁traverser	-3437
▁médicament	-3438
inv	-3439
onna	-3440
▁ali	-3441
▁lap	-3442
uteur	-3443
▁écou	-3444
▁pause	-3445
▁sœurs	-3446
▁visité	-3447
▁convers	-3448
▁vitesse	-3449
oû	-3450
assé	-3451
issi	-3452
isée	-3453
uler	-3454
issez	-3455
import	-3456
▁accro	-3457
▁blague	-3458
▁entier	-3459
▁envers	-3460
▁invent	-3461
▁lequel	-3462
▁moyens	-3463
▁cravate	-3464
▁instant	-3465
▁réveillé	-3466
▁mathématiques	-3467
èce	-3468
ames	-3469
chée	-3470
ides	-3471
orté	-3472
anité	-3473
ortez	-3474
quent	-3475
▁diri	-3476
▁drog	-3477
▁exam	-3478
▁lave	-3479
▁posé	-3480
▁Voilà	-3481
▁foule	-3482
▁rhume	-3483
▁éclat	-3484
arriver	-3485
▁humain	-3486
▁pièces	-3487
▁données	-3488
▁prudent	-3489
▁préférée	-3490
af	-3491
mar	-3492
éra	-3493
▁ja	-3494
▁us	-3495
▁pant	-3496
espace	-3497
▁donna	-3498
▁répar	-3499
▁spect	-3500
▁effray	-3501
▁mentir	-3502
▁parlez	-3503
▁apporté	-3504
▁mangent	-3505
▁utilisé	-3506
▁interdit	-3507
hi	-3508
▁Ky	-3509
once	-3510
▁Ken	-3511
▁Vas	-3512
▁fig	-3513
▁pén	-3514
▁rum	-3515
▁sin	-3516
▁ador	-3517
▁possi	-3518
▁élevé	-3519
▁échoué	-3520
empêcher	-3521
▁accepté	-3522
▁apprend	-3523
▁chaleur	-3524
▁importe	-3525
▁cuisiner	-3526
▁ressembl	-3527
▁populaire	-3528
apé	-3529
cles	-3530
▁Dav	-3531
aurai	-3532
rassé	-3533
érons	-3534
▁hist	-3535
espoir	-3536
habite	-3537
issait	-3538
ulaire	-3539
▁brill	-3540
▁coule	-3541
▁hiver	-3542
ernelle	-3543
▁chauff	-3544
▁douche	-3545
▁examen	-3546
▁atteint	-3547
▁construit	-3548
▁différents	-3549
asp	-3550
ton	-3551
quis	-3552
tons	-3553
aimes	-3554
ionne	-3555
▁dipl	-3556
▁same	-3557
▁Toute	-3558
▁débar	-3559
▁grave	-3560
▁haute	-3561
▁queue	-3562
▁selon	-3563
▁suici	-3564
▁frappé	-3565
▁rentre	-3566
▁choisir	-3567
▁courses	-3568
▁mémoire	-3569
▁écouter	-3570
▁feuilles	-3571
▁nettoyer	-3572
▁conversation	-3573
ocr	-3574
▁ha	-3575
èter	-3576
chant	-3577
oient	-3578
▁aveu	-3579
▁soif	-3580
entend	-3581
ternet	-3582
▁douce	-3583
▁front	-3584
▁accord	-3585
▁mérite	-3586
▁obtenu	-3587
▁courage	-3588
▁endormi	-3589
▁petites	-3590
▁retraite	-3591
▁meilleurs	-3592
▁enseignant	-3593
▁population	-3594
▁informations	-3595
An	-3596
▁Vos	-3597
résil	-3598
▁Leur	-3599
▁hâte	-3600
▁impr	-3601
▁truc	-3602
aimait	-3603
aurait	-3604
▁David	-3605
▁Reste	-3606
▁divor	-3607
▁Brésil	-3608
▁cigare	-3609
▁disait	-3610
▁esprit	-3611
▁sortie	-3612
▁Parfois	-3613
▁regarda	-3614
▁attraper	-3615
▁quiconque	-3616
▁actuellement	-3617
uf	-3618
iti	-3619
lav	-3620
ock	-3621
opé	-3622
ress	-3623
tier	-3624
▁cre	-3625
▁eut	-3626
▁tre	-3627
talie	-3628
▁sert	-3629
▁éner	-3630
issant	-3631
▁désir	-3632
▁fourn	-3633
▁offre	-3634
▁réser	-3635
▁Essaie	-3636
▁chaude	-3637
▁portef	-3638
▁région	-3639
occasion	-3640
▁contrib	-3641
▁efforts	-3642
▁silenci	-3643
▁spécial	-3644
▁rappeler	-3645
▁mauvaises	-3646
▁véritable	-3647
▁habituellement	-3648
000	-3649
dis	-3650
dans	-3651
ètes	-3652
▁poi	-3653
cusez	-3654
oncer	-3655
ouvre	-3656
▁acti	-3657
▁joie	-3658
quante	-3659
▁censé	-3660
▁moder	-3661
icielle	-3662
▁Demain	-3663
▁aimait	-3664
▁chacun	-3665
aissance	-3666
▁Excusez	-3667
▁amusant	-3668
▁arrivés	-3669
▁arrière	-3670
▁maisons	-3671
▁nerveux	-3672
▁poursui	-3673
intéresse	-3674
▁remercier	-3675
vres	-3676
▁Moi	-3677
enant	-3678
▁Père	-3679
▁page	-3680
▁plat	-3681
▁prête	-3682
▁vendu	-3683
▁vidéo	-3684
▁crayon	-3685
▁vivant	-3686
▁énorme	-3687
▁manquer	-3688
▁pauvres	-3689
▁préparé	-3690
▁souffre	-3691
▁deuxième	-3692
▁regrette	-3693
▁portefeuille	-3694
ève	-3695
ére	-3696
amis	-3697
orde	-3698
tien	-3699
▁beur	-3700
▁dame	-3701
▁docu	-3702
▁mati	-3703
▁trah	-3704
arrête	-3705
▁escal	-3706
▁poche	-3707
ucation	-3708
▁dedans	-3709
▁intern	-3710
▁talent	-3711
▁étudie	-3712
▁invités	-3713
▁occupée	-3714
▁parlait	-3715
▁coupable	-3716
▁changement	-3717
▁magnifique	-3718
uk	-3719
ots	-3720
ulé	-3721
itue	-3722
obre	-3723
tice	-3724
▁Lis	-3725
ingue	-3726
▁méth	-3727
ercice	-3728
▁Avant	-3729
▁caché	-3730
▁jeter	-3731
▁Quelles	-3732
▁fortune	-3733
▁morceau	-3734
▁convaincu	-3735
▁appartient	-3736
ia	-3737
aly	-3738
igh	-3739
ège	-3740
▁Eh	-3741
hier	-3742
resp	-3743
uste	-3744
▁Sal	-3745
▁hér	-3746
▁pon	-3747
▁ray	-3748
▁déch	-3749
▁mien	-3750
▁raté	-3751
▁romp	-3752
▁somm	-3753
▁tick	-3754
▁coupé	-3755
▁prise	-3756
cemment	-3757
▁canapé	-3758
▁copine	-3759
▁existe	-3760
▁offert	-3761
▁partici	-3762
▁horrible	-3763
▁sentiments	-3764
anniversaire	-3765
▁circulation	-3766
of	-3767
jou	-3768
qua	-3769
ute	-3770
▁ps	-3771
reur	-3772
umer	-3773
▁Appr	-3774
▁berb	-3775
▁dési	-3776
▁jeux	-3777
▁mode	-3778
▁soul	-3779
écoute	-3780
▁congé	-3781
▁perte	-3782
▁refus	-3783
▁Pensez	-3784
▁cacher	-3785
▁timide	-3786
▁décider	-3787
▁personn	-3788
▁retrouv	-3789
▁étrangers	-3790
mit	-3791
son	-3792
ancé	-3793
lait	-3794
land	-3795
▁Fin	-3796
▁pil	-3797
▁tru	-3798
andis	-3799
asser	-3800
ennes	-3801
illon	-3802
▁ridi	-3803
▁voie	-3804
ension	-3805
▁Maman	-3806
▁parmi	-3807
▁soyez	-3808
astique	-3809
▁mariée	-3810
humanité	-3811
▁démissi	-3812
▁étoiles	-3813
▁Malheureusement	-3814
ox	-3815
éh	-3816
gée	-3817
her	-3818
nom	-3819
▁fé	-3820
oncé	-3821
▁cat	-3822
▁gui	-3823
▁Deux	-3824
▁gars	-3825
▁monn	-3826
anches	-3827
▁pizza	-3828
▁victi	-3829
asseoir	-3830
oublier	-3831
▁cuisin	-3832
▁miroir	-3833
▁pleure	-3834
▁fenêtres	-3835
▁convaincre	-3836
ber	-3837
erm	-3838
oti	-3839
ails	-3840
erme	-3841
illi	-3842
ureu	-3843
ordre	-3844
raign	-3845
▁dépl	-3846
▁memb	-3847
▁mous	-3848
▁écri	-3849
accomp	-3850
ucteur	-3851
érence	-3852
▁beaux	-3853
▁boiss	-3854
▁texte	-3855
▁billet	-3856
▁choisi	-3857
▁pantal	-3858
▁samedi	-3859
▁voleur	-3860
▁château	-3861
▁oublier	-3862
▁certains	-3863
▁produits	-3864
▁terminer	-3865
▁entièrement	-3866
aid	-3867
ize	-3868
ouse	-3869
qués	-3870
▁aid	-3871
azigh	-3872
ottes	-3873
▁fous	-3874
▁gren	-3875
▁peau	-3876
▁Kyoto	-3877
▁Quels	-3878
▁cents	-3879
▁doigt	-3880
▁déter	-3881
▁magaz	-3882
▁Donnez	-3883
▁failli	-3884
▁tenait	-3885
▁tourne	-3886
▁plantes	-3887
Australie	-3888
▁agréable	-3889
▁distance	-3890
▁mondiale	-3891
▁vérifier	-3892
▁délicieux	-3893
▁représent	-3894
tra	-3895
sent	-3896
ycée	-3897
▁fac	-3898
acité	-3899
ister	-3900
▁Jack	-3901
▁sale	-3902
allais	-3903
ommage	-3904
étudie	-3905
▁chère	-3906
▁suivi	-3907
▁tirer	-3908
▁écout	-3909
▁épuis	-3910
▁départ	-3911
▁faveur	-3912
▁second	-3913
issement	-3914
▁Arrêtez	-3915
▁devenue	-3916
▁laissez	-3917
▁membres	-3918
▁monnaie	-3919
▁plaisant	-3920
▁viennent	-3921
▁abandonné	-3922
▁française	-3923
▁passeport	-3924
▁intéressante	-3925
ec	-3926
lib	-3927
olf	-3928
▁Ai	-3929
atie	-3930
chés	-3931
lève	-3932
rine	-3933
tant	-3934
ture	-3935
onnée	-3936
orter	-3937
▁mout	-3938
▁vict	-3939
itaire	-3940
ouvons	-3941
▁Essay	-3942
▁rends	-3943
▁élect	-3944
▁bouton	-3945
▁combat	-3946
▁démocr	-3947
▁vienne	-3948
▁prendra	-3949
▁souffle	-3950
▁accepter	-3951
▁recommand	-3952
▁maternelle	-3953
mb	-3954
hor	-3955
ardi	-3956
isés	-3957
vers	-3958
▁meu	-3959
▁ras	-3960
illir	-3961
▁géni	-3962
enseur	-3963
époque	-3964
▁fiche	-3965
▁lycée	-3966
▁sépar	-3967
ination	-3968
èrement	-3969
▁absent	-3970
▁cancer	-3971
▁paraît	-3972
▁riches	-3973
▁régime	-3974
▁langage	-3975
▁obtenir	-3976
▁tendance	-3977
▁Attention	-3978
▁explication	-3979
▁sérieusement	-3980
ffe	-3981
aies	-3982
gnée	-3983
orig	-3984
▁sim	-3985
▁tar	-3986
ibles	-3987
ouill	-3988
▁arme	-3989
▁prot	-3990
▁site	-3991
▁tante	-3992
écouter	-3993
▁espoir	-3994
▁grandi	-3995
▁instru	-3996
▁jambes	-3997
▁sauver	-3998
▁suffit	-3999
▁tempér	-4000
▁toilet	-4001
▁touche	-4002
▁ensuite	-4003
▁protéger	-4004
▁expliquer	-4005
▁japonaise	-4006
▁promenade	-4007
▁rencontre	-4008
▁couramment	-4009
lée	-4010
▁sh	-4011
méric	-4012
appell	-4013
ctobre	-4014
isions	-4015
onneur	-4016
▁cache	-4017
▁maman	-4018
▁vache	-4019
olution	-4020
▁beurre	-4021
▁doigts	-4022
▁séjour	-4023
▁études	-4024
▁article	-4025
▁crimine	-4026
▁contient	-4027
▁direction	-4028
▁médicaments	-4029
▁profondément	-4030
reg	-4031
rup	-4032
▁fâ	-4033
▁ur	-4034
ttes	-4035
ésus	-4036
▁Gab	-4037
▁Jim	-4038
▁gaz	-4039
▁ira	-4040
ocher	-4041
▁Dois	-4042
▁quin	-4043
▁sage	-4044
Europe	-4045
▁crise	-4046
▁obser	-4047
▁tiens	-4048
▁tâche	-4049
▁jaloux	-4050
▁mariés	-4051
▁serons	-4052
▁sommet	-4053
▁Bonjour	-4054
▁Demande	-4055
▁berbère	-4056
▁contact	-4057
▁contrat	-4058
▁faisais	-4059
▁intérêt	-4060
▁théâtre	-4061
▁tourner	-4062
extérieur	-4063
▁peinture	-4064
▁emprunter	-4065
▁permettre	-4066
▁récemment	-4067
▁totalement	-4068
▁correctement	-4069
tiv	-4070
▁Ah	-4071
▁éd	-4072
cuté	-4073
istr	-4074
sier	-4075
▁Seu	-4076
▁reç	-4077
▁sex	-4078
▁tam	-4079
aband	-4080
andid	-4081
endie	-4082
▁chou	-4083
▁créd	-4084
▁fume	-4085
▁juge	-4086
▁élev	-4087
entrée	-4088
ussion	-4089
▁Ferme	-4090
▁Jésus	-4091
▁fruit	-4092
▁lourd	-4093
▁sympa	-4094
▁employ	-4095
▁essaie	-4096
▁essaya	-4097
▁paroles	-4098
▁progrès	-4099
▁considér	-4100
▁quarante	-4101
▁cinquante	-4102
▁dernières	-4103
▁programme	-4104
▁réveiller	-4105
▁sentiment	-4106
▁débarrasser	-4107
▁scientifique	-4108
oide	-4109
ueux	-4110
▁Bob	-4111
▁cla	-4112
▁mas	-4113
▁méc	-4114
▁rét	-4115
agues	-4116
anges	-4117
chons	-4118
▁amen	-4119
▁banc	-4120
▁cost	-4121
▁faud	-4122
▁requ	-4123
▁sand	-4124
ennemi	-4125
▁citoy	-4126
▁futur	-4127
▁grâce	-4128
▁large	-4129
▁seuls	-4130
endroit	-4131
étaient	-4132
▁Aucune	-4133
▁moteur	-4134
▁pêcher	-4135
▁siècle	-4136
▁tandis	-4137
▁Pendant	-4138
▁blanche	-4139
▁corresp	-4140
▁sentait	-4141
▁tremble	-4142
▁continué	-4143
▁oreilles	-4144
▁promesse	-4145
▁relation	-4146
▁religion	-4147
▁américain	-4148
▁contraire	-4149
▁discussion	-4150
▁silencieux	-4151
ow	-4152
iés	-4153
lex	-4154
éan	-4155
elon	-4156
guer	-4157
▁cad	-4158
entes	-4159
outez	-4160
▁Bill	-4161
▁grec	-4162
▁noms	-4163
▁pisc	-4164
frique	-4165
▁Selon	-4166
▁corde	-4167
▁longs	-4168
▁Améric	-4169
▁candid	-4170
▁matins	-4171
▁valise	-4172
▁Faisons	-4173
▁appelle	-4174
▁conséqu	-4175
▁habitué	-4176
▁inquiet	-4177
▁prisonn	-4178
▁reposer	-4179
▁suspect	-4180
▁Amérique	-4181
▁patience	-4182
▁physique	-4183
▁Quiconque	-4184
ka	-4185
neu	-4186
▁gâ	-4187
auté	-4188
olée	-4189
ôtre	-4190
armée	-4191
cepti	-4192
lever	-4193
osoph	-4194
▁aies	-4195
▁assi	-4196
▁camp	-4197
▁diss	-4198
▁déçu	-4199
▁poup	-4200
▁prog	-4201
▁rôle	-4202
iciles	-4203
▁prêts	-4204
occuper	-4205
▁devint	-4206
▁dirige	-4207
▁froide	-4208
▁passée	-4209
▁preuve	-4210
▁meurtre	-4211
▁baseball	-4212
▁chansons	-4213
▁ennuyeux	-4214
▁malheure	-4215
▁produire	-4216
▁troisième	-4217
▁correspond	-4218
▁difficiles	-4219
▁reconnaissant	-4220
bo	-4221
aka	-4222
oté	-4223
sec	-4224
▁Te	-4225
iant	-4226
illa	-4227
imez	-4228
mbre	-4229
▁Pap	-4230
embre	-4231
▁bisc	-4232
▁bête	-4233
▁fich	-4234
▁note	-4235
▁pneu	-4236
▁rose	-4237
▁yens	-4238
échecs	-4239
▁fantô	-4240
▁poème	-4241
▁sauvé	-4242
ilosoph	-4243
▁possib	-4244
▁colline	-4245
▁matière	-4246
ordinateur	-4247
▁clairement	-4248
▁difficultés	-4249
ama	-4250
▁Sh	-4251
▁gé	-4252
lons	-4253
▁civ	-4254
▁psy	-4255
▁str	-4256
améli	-4257
▁adop	-4258
▁curi	-4259
▁date	-4260
▁dors	-4261
▁grav	-4262
▁jeté	-4263
▁pose	-4264
▁sors	-4265
▁tenu	-4266
lément	-4267
traper	-4268
▁Venez	-4269
▁incap	-4270
▁kilom	-4271
aujourd	-4272
oixante	-4273
pendant	-4274
▁distin	-4275
▁entraî	-4276
▁normal	-4277
▁nuages	-4278
▁quinze	-4279
▁refuse	-4280
▁rempli	-4281
▁rouges	-4282
▁Algérie	-4283
▁piscine	-4284
▁qualité	-4285
▁arrivera	-4286
▁jeunesse	-4287
▁plaindre	-4288
▁supermar	-4289
chi	-4290
oli	-4291
▁Hé	-4292
ices	-4293
phab	-4294
ènes	-4295
▁Env	-4296
▁Ret	-4297
▁air	-4298
ctive	-4299
occup	-4300
oupes	-4301
▁pomp	-4302
▁ceint	-4303
▁forcé	-4304
▁meurt	-4305
▁terme	-4306
érerais	-4307
▁auprès	-4308
▁dispon	-4309
▁saison	-4310
▁Gabriel	-4311
▁aveugle	-4312
▁drapeau	-4313
▁ressent	-4314
▁Internet	-4315
▁promener	-4316
▁vendredi	-4317
▁particulier	-4318
lit	-4319
uir	-4320
éte	-4321
ader	-4322
rimé	-4323
▁Car	-4324
▁tém	-4325
gique	-4326
iciel	-4327
sière	-4328
▁Jane	-4329
▁bruy	-4330
▁lois	-4331
▁paie	-4332
▁pars	-4333
▁traî	-4334
cteurs	-4335
▁marre	-4336
▁notes	-4337
▁oppos	-4338
▁réjou	-4339
▁siège	-4340
▁trucs	-4341
▁étage	-4342
ouverte	-4343
▁avance	-4344
▁droits	-4345
▁désesp	-4346
▁maître	-4347
▁paress	-4348
▁partis	-4349
▁pleuré	-4350
▁sombre	-4351
▁verrou	-4352
▁époque	-4353
▁éviter	-4354
enseigne	-4355
▁humaine	-4356
▁octobre	-4357
▁promets	-4358
▁période	-4359
▁reviend	-4360
▁station	-4361
▁critique	-4362
▁déranger	-4363
▁détermin	-4364
▁philosoph	-4365
information	-4366
▁rencontrés	-4367
▁connaissait	-4368
▁température	-4369
lir	-4370
▁Am	-4371
▁Br	-4372
érir	-4373
▁100	-4374
▁Dép	-4375
▁Esp	-4376
▁cro	-4377
▁dén	-4378
▁eau	-4379
▁foi	-4380
▁dise	-4381
▁doux	-4382
▁ence	-4383
▁surf	-4384
ouille	-4385
▁Salut	-4386
▁armes	-4387
▁fabri	-4388
▁rejet	-4389
▁sandw	-4390
▁écras	-4391
enfants	-4392
▁Chacun	-4393
▁compli	-4394
▁explos	-4395
▁membre	-4396
▁monter	-4397
▁musulm	-4398
▁précip	-4399
▁soucie	-4400
▁Kabylie	-4401
▁justice	-4402
▁univers	-4403
▁remettre	-4404
▁travaillent	-4405
hés	-4406
iée	-4407
mpe	-4408
tir	-4409
ades	-4410
angé	-4411
arme	-4412
otte	-4413
▁Col	-4414
▁fix	-4415
▁tor	-4416
habit	-4417
▁ours	-4418
aiment	-4419
▁Aimes	-4420
▁Entre	-4421
▁jaune	-4422
▁manif	-4423
▁paire	-4424
▁roses	-4425
▁Montre	-4426
▁compar	-4427
▁consac	-4428
▁contrô	-4429
▁source	-4430
▁vivait	-4431
accepter	-4432
exercice	-4433
▁parlons	-4434
▁Japonais	-4435
▁commandé	-4436
▁occasion	-4437
▁occident	-4438
▁quartier	-4439
▁fonctionn	-4440
▁scientifiques	-4441
▁os	-4442
pris	-4443
▁Cor	-4444
▁obé	-4445
▁out	-4446
▁put	-4447
▁asse	-4448
▁mill	-4449
anceux	-4450
ilités	-4451
quette	-4452
▁Soyez	-4453
▁brisé	-4454
▁douze	-4455
▁minim	-4456
▁tenté	-4457
enseign	-4458
envoyer	-4459
illesse	-4460
▁diable	-4461
▁fermée	-4462
▁humeur	-4463
▁mienne	-4464
▁points	-4465
▁Attends	-4466
▁moderne	-4467
▁raisons	-4468
▁utilise	-4469
attention	-4470
▁concerne	-4471
▁continue	-4472
▁semblant	-4473
▁étranger	-4474
▁certaines	-4475
▁spectacle	-4476
▁réellement	-4477
▁professionne	-4478
clé	-4479
oue	-4480
oul	-4481
pir	-4482
rip	-4483
▁zo	-4484
ongé	-4485
oqué	-4486
éléb	-4487
▁dan	-4488
▁sud	-4489
▁équ	-4490
estre	-4491
herbe	-4492
venue	-4493
étudi	-4494
▁anti	-4495
▁circ	-4496
▁doué	-4497
▁fasc	-4498
▁golf	-4499
azight	-4500
▁corri	-4501
▁frapp	-4502
▁fumée	-4503
urgence	-4504
▁Europe	-4505
▁courte	-4506
▁défaut	-4507
▁mètres	-4508
▁obligé	-4509
▁servir	-4510
▁confort	-4511
▁ennemis	-4512
▁reconnu	-4513
Allemagne	-4514
▁chanteur	-4515
▁espagnol	-4516
▁soixante	-4517
▁atteindre	-4518
▁tamazight	-4519
▁préférerais	-4520
In	-4521
ott	-4522
▁Is	-4523
alif	-4524
▁gal	-4525
▁tom	-4526
agère	-4527
▁Rest	-4528
▁déco	-4529
▁gasp	-4530
▁liqu	-4531
▁orig	-4532
▁couru	-4533
▁laiss	-4534
▁objet	-4535
▁sable	-4536
▁tourn	-4537
▁Lorsqu	-4538
▁Parlez	-4539
▁villes	-4540
▁réalisé	-4541
▁probable	-4542
▁victoire	-4543
importance	-4544
▁Allemagne	-4545
▁étrangère	-4546
▁supermarché	-4547
oins	-4548
îmes	-4549
▁har	-4550
▁indé	-4551
▁mise	-4552
▁perf	-4553
▁post	-4554
atoire	-4555
▁Aimez	-4556
▁Bonne	-4557
▁dirai	-4558
▁exist	-4559
▁insec	-4560
▁cassée	-4561
▁forces	-4562
▁permet	-4563
▁réserv	-4564
▁supéri	-4565
▁épouse	-4566
▁attenti	-4567
▁distrib	-4568
▁détails	-4569
▁joindre	-4570
▁Voudriez	-4571
▁journaux	-4572
▁millions	-4573
▁pantalon	-4574
▁naissance	-4575
aw	-4576
ym	-4577
iger	-4578
indi	-4579
ulti	-4580
uves	-4581
ycle	-4582
▁Ass	-4583
▁hom	-4584
▁lut	-4585
▁uns	-4586
ammes	-4587
enser	-4588
▁cout	-4589
▁math	-4590
achète	-4591
▁battu	-4592
▁coups	-4593
▁crème	-4594
▁gramm	-4595
▁héros	-4596
▁serez	-4597
▁échec	-4598
utilise	-4599
▁commis	-4600
▁négoci	-4601
▁rumeur	-4602
▁bagages	-4603
▁descend	-4604
▁lecture	-4605
▁occupés	-4606
ordinaire	-4607
▁constitu	-4608
▁quantité	-4609
▁permission	-4610
anou	-4611
eule	-4612
oint	-4613
ètre	-4614
▁Pau	-4615
▁Rép	-4616
▁buv	-4617
▁idé	-4618
ageux	-4619
aison	-4620
onses	-4621
▁Aide	-4622
▁alla	-4623
issons	-4624
uisent	-4625
▁bénéf	-4626
▁effic	-4627
▁monté	-4628
▁noire	-4629
▁pique	-4630
▁prêté	-4631
▁veste	-4632
excuser	-4633
▁course	-4634
▁ennuis	-4635
▁jouait	-4636
▁poulet	-4637
▁restes	-4638
▁écouté	-4639
▁écureu	-4640
▁costume	-4641
▁suivant	-4642
▁traduit	-4643
▁ceinture	-4644
▁embrassé	-4645
▁enceinte	-4646
▁sandwich	-4647
▁terminée	-4648
▁conscient	-4649
▁découvrir	-4650
▁escaliers	-4651
▁démocratie	-4652
▁kilomètres	-4653
▁malheureux	-4654
▁merveilleux	-4655
ji	-4656
arm	-4657
lég	-4658
omac	-4659
▁Pré	-4660
▁syn	-4661
étude	-4662
▁saut	-4663
▁sout	-4664
ection	-4665
existe	-4666
occupe	-4667
▁Crois	-4668
▁auras	-4669
▁crain	-4670
▁emmen	-4671
▁grimp	-4672
▁mouve	-4673
▁rasse	-4674
▁tente	-4675
▁caract	-4676
▁feriez	-4677
▁prénom	-4678
▁touché	-4679
espagnol	-4680
▁Pouvons	-4681
▁envoyer	-4682
▁financi	-4683
▁interpr	-4684
▁sympath	-4685
▁commerci	-4686
▁enseigne	-4687
▁magazine	-4688
▁pareille	-4689
▁réponses	-4690
▁histoires	-4691
▁connaissez	-4692
▁constamment	-4693
▁internation	-4694
dif	-4695
rog	-4696
opin	-4697
pend	-4698
uise	-4699
▁cab	-4700
▁nul	-4701
▁por	-4702
libat	-4703
océan	-4704
oyeux	-4705
épous	-4706
▁adul	-4707
illiam	-4708
onnant	-4709
ustrie	-4710
▁Heure	-4711
▁céléb	-4712
▁effet	-4713
▁faite	-4714
▁gorge	-4715
▁lapin	-4716
▁leçon	-4717
▁persu	-4718
▁titre	-4719
▁tomba	-4720
avaient	-4721
▁résolu	-4722
▁sortit	-4723
▁ticket	-4724
▁vivons	-4725
ographie	-4726
▁complet	-4727
▁célibat	-4728
▁pousser	-4729
embrasser	-4730
▁autorisé	-4731
▁traversé	-4732
▁différente	-4733
▁incroyable	-4734
rad	-4735
aule	-4736
rist	-4737
▁201	-4738
▁nat	-4739
▁web	-4740
agnes	-4741
ilier	-4742
onges	-4743
▁ivre	-4744
▁racc	-4745
▁rues	-4746
▁sinc	-4747
▁tire	-4748
entraî	-4749
▁barbe	-4750
▁cessé	-4751
▁direc	-4752
▁démar	-4753
▁simil	-4754
▁venus	-4755
▁êtres	-4756
▁coffre	-4757
▁gueule	-4758
▁salade	-4759
▁billets	-4760
▁dommage	-4761
▁fallait	-4762
▁précisé	-4763
▁prétend	-4764
▁renvers	-4765
▁traiter	-4766
▁apprécié	-4767
▁couleurs	-4768
▁innocent	-4769
▁violence	-4770
▁amoureuse	-4771
▁capitaine	-4772
▁considéré	-4773
▁toilettes	-4774
▁touristes	-4775
vu	-4776
bri	-4777
ita	-4778
tat	-4779
vén	-4780
▁Go	-4781
ones	-4782
rect	-4783
▁Dès	-4784
▁Ici	-4785
▁din	-4786
▁mél	-4787
▁tab	-4788
rivez	-4789
▁bond	-4790
▁embr	-4791
▁intr	-4792
▁lent	-4793
▁révé	-4794
alphab	-4795
▁aimez	-4796
▁bleue	-4797
▁défin	-4798
▁génie	-4799
▁maire	-4800
▁maîtr	-4801
▁noirs	-4802
▁préci	-4803
▁tapis	-4804
essence	-4805
▁dessin	-4806
▁devais	-4807
▁encour	-4808
▁fasses	-4809
▁fautes	-4810
▁Appelle	-4811
▁enfance	-4812
ascenseur	-4813
▁Français	-4814
▁conduite	-4815
▁convient	-4816
▁raconter	-4817
telligence	-4818
▁accompagn	-4819
▁compliqué	-4820
▁conseillé	-4821
▁regardait	-4822
▁voulaient	-4823
▁conférence	-4824
▁connaissais	-4825
▁soudainement	-4826
▁responsabilité	-4827
imm	-4828
off	-4829
oll	-4830
âme	-4831
▁na	-4832
anim	-4833
astr	-4834
ivid	-4835
uels	-4836
▁hyp	-4837
▁sag	-4838
chent	-4839
erait	-4840
ignes	-4841
▁Face	-4842
▁chim	-4843
▁clas	-4844
▁jume	-4845
▁remb	-4846
ailles	-4847
auteur	-4848
dition	-4849
ombres	-4850
▁Maria	-4851
▁crier	-4852
▁enreg	-4853
▁fallu	-4854
▁poète	-4855
▁remis	-4856
adresse	-4857
oubliez	-4858
▁Lequel	-4859
▁Mettez	-4860
▁achète	-4861
▁couple	-4862
▁effect	-4863
▁lèvres	-4864
▁sortes	-4865
▁trompé	-4866
▁éteint	-4867
▁chevaux	-4868
▁clients	-4869
▁consomm	-4870
▁croient	-4871
▁déclaré	-4872
▁inutile	-4873
▁serpent	-4874
▁supposé	-4875
▁algérien	-4876
▁monsieur	-4877
Angleterre	-4878
▁considère	-4879
▁mensonges	-4880
▁quelconque	-4881
écl	-4882
▁aî	-4883
ecti	-4884
itif	-4885
mith	-4886
olie	-4887
ongr	-4888
otid	-4889
ouff	-4890
ueur	-4891
▁Ber	-4892
▁Rob	-4893
▁hur	-4894
▁lav	-4895
▁mec	-4896
▁mos	-4897
▁éve	-4898
ament	-4899
envir	-4900
ourne	-4901
▁Rome	-4902
▁enqu	-4903
▁sain	-4904
▁vint	-4905
▁Smith	-4906
▁accue	-4907
▁coupe	-4908
▁gérer	-4909
▁oblig	-4910
▁privé	-4911
▁élève	-4912
italien	-4913
▁coûter	-4914
▁ennemi	-4915
▁paquet	-4916
▁privée	-4917
▁quotid	-4918
utiliser	-4919
échapper	-4920
▁brouill	-4921
▁longues	-4922
▁matinée	-4923
▁volonté	-4924
▁marchand	-4925
▁prennent	-4926
▁connaisse	-4927
▁conditions	-4928
▁ordinateurs	-4929
arg	-4930
gue	-4931
asun	-4932
lant	-4933
loge	-4934
▁fid	-4935
▁née	-4936
▁pir	-4937
huile	-4938
islam	-4939
▁Papa	-4940
▁Pard	-4941
▁plac	-4942
▁pros	-4943
▁pétr	-4944
aimais	-4945
emment	-4946
▁danse	-4947
▁illég	-4948
▁incon	-4949
▁maths	-4950
▁Christ	-4951
▁bouger	-4952
▁couche	-4953
▁dingue	-4954
▁décida	-4955
▁mignon	-4956
▁reprod	-4957
▁boisson	-4958
▁faisant	-4959
▁partage	-4960
▁sagesse	-4961
▁solaire	-4962
▁terrain	-4963
▁certaine	-4964
▁position	-4965
▁propriét	-4966
▁supporte	-4967
▁écrivain	-4968
▁directeur	-4969
▁excellent	-4970
▁serviette	-4971
▁algérienne	-4972
▁précisément	-4973
auc	-4974
rié	-4975
xim	-4976
deur	-4977
gues	-4978
èche	-4979
▁000	-4980
▁lin	-4981
pérer	-4982
tiens	-4983
écris	-4984
▁mété	-4985
▁nord	-4986
▁négl	-4987
▁ravi	-4988
▁roug	-4989
idence	-4990
▁Parle	-4991
▁diplô	-4992
▁léger	-4993
▁porté	-4994
▁psych	-4995
▁scène	-4996
▁surve	-4997
onnable	-4998
érateur	-4999
▁Italie	-5000
▁accent	-5001
▁contac	-5002
▁crédit	-5003
▁fleuve	-5004
▁telles	-5005
▁urgent	-5006
▁chances	-5007
▁prépare	-5008
▁biscuits	-5009
▁milliers	-5010
▁intention	-5011
▁disponible	-5012
▁supplément	-5013
▁impressionné	-5014
lor	-5015
obé	-5016
▁Gu	-5017
▁cu	-5018
ache	-5019
ares	-5020
assa	-5021
atri	-5022
book	-5023
itez	-5024
érez	-5025
▁200	-5026
▁Man	-5027
▁Mik	-5028
▁Sud	-5029
▁abe	-5030
▁île	-5031
agent	-5032
illés	-5033
monie	-5034
onter	-5035
▁Nord	-5036
▁cell	-5037
▁céré	-5038
▁déte	-5039
▁flot	-5040
▁joli	-5041
▁mecs	-5042
▁papa	-5043
▁poll	-5044
▁vase	-5045
avions	-5046
oivent	-5047
▁artif	-5048
▁brûlé	-5049
▁latin	-5050
origine	-5051
▁aimons	-5052
▁drogue	-5053
▁jouent	-5054
▁poupée	-5055
▁cherché	-5056
▁joueurs	-5057
▁pierres	-5058
▁portent	-5059
▁prévois	-5060
▁toucher	-5061
éducation	-5062
▁Regardez	-5063
▁chanceux	-5064
▁dentiste	-5065
▁donnerai	-5066
▁fatiguée	-5067
▁fonction	-5068
▁poursuiv	-5069
▁pression	-5070
▁réaliser	-5071
▁regretter	-5072
▁étrangères	-5073
▁intelligente	-5074
ash	-5075
▁Du	-5076
▁câ	-5077
onst	-5078
teur	-5079
▁vus	-5080
▁âgé	-5081
angez	-5082
cules	-5083
exist	-5084
▁bomb	-5085
▁gout	-5086
▁miel	-5087
endorm	-5088
entiel	-5089
issage	-5090
portun	-5091
▁Tiens	-5092
▁abatt	-5093
▁causé	-5094
▁demie	-5095
▁passi	-5096
▁éléph	-5097
istance	-5098
▁assise	-5099
▁contra	-5100
▁ordres	-5101
▁répand	-5102
▁traite	-5103
▁trompe	-5104
ignorais	-5105
▁méthode	-5106
▁passage	-5107
▁raconté	-5108
▁évident	-5109
▁Facebook	-5110
▁ridicule	-5111
▁trouvait	-5112
▁paresseux	-5113
▁pourrions	-5114
▁brouillard	-5115
▁attentivement	-5116
bon	-5117
ince	-5118
irez	-5119
itée	-5120
ries	-5121
État	-5122
œufs	-5123
▁bri	-5124
▁jud	-5125
▁vég	-5126
▁âme	-5127
olesc	-5128
ressi	-5129
▁Paul	-5130
▁gris	-5131
▁lavé	-5132
▁médi	-5133
▁suit	-5134
oiseau	-5135
▁Faire	-5136
▁métro	-5137
▁récol	-5138
▁régul	-5139
imagine	-5140
irmière	-5141
▁celles	-5142
▁cloche	-5143
▁commer	-5144
▁débrou	-5145
▁europé	-5146
▁expert	-5147
▁inconn	-5148
▁romans	-5149
▁sauter	-5150
▁surviv	-5151
▁liquide	-5152
▁meubles	-5153
▁minimum	-5154
▁occuper	-5155
▁passait	-5156
▁projets	-5157
▁manières	-5158
▁prendrai	-5159
▁présence	-5160
▁trouvent	-5161
▁algériens	-5162
▁incapable	-5163
▁naturelle	-5164
▁personnel	-5165
▁transform	-5166
▁concentrer	-5167
▁gentillesse	-5168
▁tremblement	-5169
io	-5170
ip	-5171
yd	-5172
ias	-5173
til	-5174
▁Di	-5175
▁mâ	-5176
adis	-5177
agon	-5178
auch	-5179
chau	-5180
eaux	-5181
erse	-5182
inet	-5183
ionn	-5184
itôt	-5185
tait	-5186
ésie	-5187
▁chu	-5188
▁dor	-5189
agers	-5190
usion	-5191
▁boul	-5192
▁capt	-5193
▁maig	-5194
▁ride	-5195
▁activ	-5196
▁aviez	-5197
▁cesse	-5198
▁coûté	-5199
▁entra	-5200
▁folle	-5201
▁sourd	-5202
oreille	-5203
▁accusé	-5204
▁avenir	-5205
▁chasse	-5206
▁dirais	-5207
▁faudra	-5208
▁fièvre	-5209
▁littér	-5210
▁prenez	-5211
▁profit	-5212
▁croyait	-5213
▁million	-5214
▁peindre	-5215
▁refaire	-5216
▁timbres	-5217
▁trouves	-5218
▁efficace	-5219
▁habitude	-5220
▁morceaux	-5221
▁médecins	-5222
▁montagnes	-5223
▁économique	-5224
Un	-5225
amp	-5226
nel	-5227
oya	-5228
▁Ac	-5229
aume	-5230
isté	-5231
onds	-5232
saka	-5233
▁Jus	-5234
▁Lib	-5235
▁côt	-5236
▁déç	-5237
▁ing	-5238
▁lab	-5239
▁méd	-5240
▁zoo	-5241
ctifs	-5242
odeur	-5243
▁agir	-5244
▁côte	-5245
▁leva	-5246
▁pull	-5247
▁équi	-5248
▁étab	-5249
▁lampe	-5250
achèter	-5251
▁copain	-5252
▁expéri	-5253
▁garage	-5254
▁génial	-5255
▁minuit	-5256
▁réfrig	-5257
▁sourit	-5258
▁aurions	-5259
▁logique	-5260
▁menteur	-5261
▁nourrir	-5262
▁parties	-5263
▁tromper	-5264
▁insectes	-5265
▁objectif	-5266
▁parfaite	-5267
▁recevoir	-5268
▁viendrai	-5269
▁musulmans	-5270
▁principal	-5271
▁traitement	-5272
intelligence	-5273
▁célibataire	-5274
ry	-5275
abs	-5276
adé	-5277
gés	-5278
ril	-5279
▁Em	-5280
▁cy	-5281
▁lo	-5282
emar	-5283
isez	-5284
omis	-5285
seau	-5286
érie	-5287
▁Jam	-5288
▁Pal	-5289
▁Toi	-5290
▁inj	-5291
▁pét	-5292
autom	-5293
cesse	-5294
quant	-5295
▁Port	-5296
▁récu	-5297
▁scol	-5298
urance	-5299
▁Mange	-5300
▁camar	-5301
▁chrét	-5302
▁pêche	-5303
▁tarte	-5304
ographe	-5305
▁Jamais	-5306
▁ancien	-5307
▁cambri	-5308
▁condam	-5309
▁détail	-5310
▁entour	-5311
▁fausse	-5312
▁lesque	-5313
▁lignes	-5314
▁traité	-5315
▁vaches	-5316
▁venait	-5317
▁discuté	-5318
▁hauteur	-5319
▁mosquée	-5320
▁risques	-5321
▁échappé	-5322
▁Quelques	-5323
▁ailleurs	-5324
▁chouette	-5325
▁expliqué	-5326
▁pourriez	-5327
▁présenté	-5328
▁rassembl	-5329
▁retrouvé	-5330
▁sûrement	-5331
▁Plusieurs	-5332
▁conseilla	-5333
▁impatient	-5334
▁Connaissez	-5335
▁distinguer	-5336
▁possibilité	-5337
▁augmentation	-5338
▁Ré	-5339
▁fe	-5340
aler	-5341
ende	-5342
rage	-5343
rées	-5344
ules	-5345
venu	-5346
érée	-5347
▁rêv	-5348
atifs	-5349
obile	-5350
phère	-5351
urant	-5352
▁Mike	-5353
▁furi	-5354
▁irré	-5355
▁myst	-5356
▁puni	-5357
▁rich	-5358
▁taux	-5359
aliste	-5360
allons	-5361
avance	-5362
iciens	-5363
lusion	-5364
ricité	-5365
▁Bible	-5366
▁appuy	-5367
▁enter	-5368
▁image	-5369
▁plans	-5370
▁situe	-5371
▁venez	-5372
▁étant	-5373
honneur	-5374
landais	-5375
▁Restez	-5376
▁couché	-5377
▁croiss	-5378
▁menace	-5379
▁vieill	-5380
position	-5381
▁actions	-5382
▁blagues	-5383
▁cerveau	-5384
▁dépensé	-5385
▁facture	-5386
▁reviens	-5387
inquiéter	-5388
▁augmenté	-5389
▁capacité	-5390
▁courrier	-5391
▁détendre	-5392
▁emprunté	-5393
▁manifest	-5394
▁remercie	-5395
▁cigarette	-5396
▁classique	-5397
▁difficulté	-5398
▁participer	-5399
omn	-5400
ste	-5401
▁Mi	-5402
acée	-5403
anes	-5404
ater	-5405
oiff	-5406
▁bra	-5407
▁cle	-5408
▁fri	-5409
autor	-5410
inent	-5411
ormer	-5412
▁Ceux	-5413
▁dict	-5414
▁enle	-5415
▁surp	-5416
▁vari	-5417
atives	-5418
▁Parce	-5419
▁Trois	-5420
▁charm	-5421
▁dérou	-5422
▁marin	-5423
▁ordre	-5424
▁plant	-5425
▁ramen	-5426
▁visit	-5427
▁végét	-5428
▁climat	-5429
▁dépour	-5430
▁invest	-5431
▁origin	-5432
▁plaint	-5433
▁sieste	-5434
▁trembl	-5435
▁étoile	-5436
▁entrepr	-5437
▁document	-5438
▁lumières	-5439
▁parviens	-5440
▁passagers	-5441
▁princesse	-5442
▁reviendra	-5443
▁construire	-5444
▁changements	-5445
▁travailleurs	-5446
ota	-5447
œuf	-5448
▁gê	-5449
olet	-5450
rigo	-5451
ûmes	-5452
▁fli	-5453
fique	-5454
osité	-5455
▁Comm	-5456
▁Sont	-5457
▁amic	-5458
▁aper	-5459
▁chaî	-5460
▁quas	-5461
▁susp	-5462
amuser	-5463
emploi	-5464
âteaux	-5465
▁Jusqu	-5466
▁Passe	-5467
▁amené	-5468
▁analy	-5469
▁baign	-5470
▁cauch	-5471
▁débat	-5472
▁linge	-5473
▁scand	-5474
▁signé	-5475
▁souri	-5476
▁série	-5477
erreurs	-5478
ruption	-5479
épouser	-5480
▁Colomb	-5481
▁arriva	-5482
▁auriez	-5483
▁client	-5484
▁Écoute	-5485
▁écoute	-5486
tiennent	-5487
▁dessous	-5488
▁frapper	-5489
▁individ	-5490
▁inventé	-5491
▁secours	-5492
▁Continue	-5493
▁correcte	-5494
▁criminel	-5495
▁inconvén	-5496
▁promesses	-5497
▁respecter	-5498
▁abandonner	-5499
▁chaussettes	-5500
▁connaissent	-5501
▁directement	-5502
▁démissionner	-5503
▁réfrigérateur	-5504
Es	-5505
adi	-5506
agir	-5507
chon	-5508
orit	-5509
teau	-5510
tout	-5511
vécu	-5512
étoi	-5513
▁Lui	-5514
▁bic	-5515
▁hés	-5516
▁lic	-5517
▁mén	-5518
▁ong	-5519
alier	-5520
lions	-5521
raine	-5522
trait	-5523
ulter	-5524
▁Lune	-5525
▁Mars	-5526
▁Vois	-5527
▁cach	-5528
▁jure	-5529
▁tels	-5530
ession	-5531
estion	-5532
▁admis	-5533
▁bague	-5534
▁côtés	-5535
▁influ	-5536
▁joues	-5537
▁mordu	-5538
▁nuclé	-5539
▁optim	-5540
▁ponct	-5541
▁reine	-5542
▁skier	-5543
▁spati	-5544
▁style	-5545
▁voilà	-5546
automne	-5547
diction	-5548
▁baiser	-5549
▁favori	-5550
▁pressé	-5551
▁soyons	-5552
alphabet	-5553
▁adolesc	-5554
▁aliment	-5555
▁bicycle	-5556
▁compréh	-5557
▁correct	-5558
▁pensées	-5559
▁soudain	-5560
▁soutien	-5561
▁suggère	-5562
▁survécu	-5563
▁Attendez	-5564
▁approche	-5565
▁bataille	-5566
▁contente	-5567
▁employés	-5568
▁profonde	-5569
▁préfères	-5570
▁retourné	-5571
▁répondit	-5572
▁semblent	-5573
▁boulanger	-5574
▁développe	-5575
▁poussière	-5576
▁rejoindre	-5577
▁relations	-5578
▁tradition	-5579
▁commencent	-5580
▁préférable	-5581
can	-5582
iré	-5583
tées	-5584
▁fan	-5585
▁imb	-5586
eriez	-5587
▁Sors	-5588
▁Util	-5589
▁ayez	-5590
▁bale	-5591
▁band	-5592
▁cens	-5593
▁mand	-5594
▁phén	-5595
▁rang	-5596
essaye	-5597
▁canad	-5598
▁casse	-5599
▁chass	-5600
▁colon	-5601
▁cuire	-5602
▁ingén	-5603
▁piège	-5604
▁rompu	-5605
▁réput	-5606
estomac	-5607
▁ailles	-5608
▁annulé	-5609
▁assass	-5610
▁casser	-5611
▁cercle	-5612
▁charge	-5613
▁laissa	-5614
▁manges	-5615
▁secrét	-5616
▁épuisé	-5617
▁éterne	-5618
▁artiste	-5619
▁concent	-5620
▁preuves	-5621
▁prouver	-5622
▁surface	-5623
▁logiciel	-5624
▁interromp	-5625
▁retrouver	-5626
▁Américains	-5627
▁excellente	-5628
▁travaillait	-5629
cis	-5630
dem	-5631
lut	-5632
édé	-5633
arch	-5634
ayez	-5635
crit	-5636
gies	-5637
ophe	-5638
orth	-5639
rale	-5640
çait	-5641
▁bre	-5642
▁cav	-5643
▁jui	-5644
▁pal	-5645
▁sév	-5646
▁voc	-5647
▁évé	-5648
enais	-5649
isser	-5650
oigne	-5651
▁Prés	-5652
▁créé	-5653
▁jupe	-5654
▁lion	-5655
▁mène	-5656
▁pois	-5657
▁posa	-5658
▁stat	-5659
▁véhi	-5660
▁élec	-5661
▁arrog	-5662
▁dépos	-5663
▁enfer	-5664
▁fière	-5665
▁louer	-5666
▁merde	-5667
▁moque	-5668
▁mécan	-5669
▁prati	-5670
▁vôtre	-5671
article	-5672
▁Soleil	-5673
▁exprès	-5674
▁pattes	-5675
▁pensée	-5676
▁terror	-5677
▁tiroir	-5678
▁treize	-5679
▁verrai	-5680
incendie	-5681
▁ajouter	-5682
▁désolée	-5683
▁moyenne	-5684
▁paysage	-5685
▁ressour	-5686
▁réjouis	-5687
▁répéter	-5688
▁version	-5689
anchement	-5690
▁déménagé	-5691
▁enseigné	-5692
▁imaginer	-5693
▁magasins	-5694
▁Bienvenue	-5695
▁apparence	-5696
▁centaines	-5697
▁doucement	-5698
▁décisions	-5699
▁grammaire	-5700
▁communauté	-5701
▁conducteur	-5702
▁production	-5703
▁rencontrée	-5704
▁information	-5705
▁Su	-5706
amin	-5707
êché	-5708
▁ais	-5709
▁pen	-5710
assit	-5711
onnez	-5712
ormes	-5713
otion	-5714
terie	-5715
▁coop	-5716
▁trés	-5717
humour	-5718
ologue	-5719
▁civil	-5720
▁conte	-5721
▁envah	-5722
▁euros	-5723
▁feras	-5724
▁loyer	-5725
▁multi	-5726
▁odeur	-5727
▁ouvre	-5728
▁Malgré	-5729
▁Robert	-5730
▁chargé	-5731
▁coincé	-5732
▁divers	-5733
▁fermés	-5734
▁malgré	-5735
▁planté	-5736
▁transm	-5737
▁volant	-5738
▁écrasé	-5739
▁Dépêche	-5740
▁blesser	-5741
▁comport	-5742
▁déjeuné	-5743
▁effrayé	-5744
▁hôpital	-5745
▁imaginé	-5746
▁meurent	-5747
▁pétrole	-5748
▁sentais	-5749
ativement	-5750
▁actuelle	-5751
▁attitude	-5752
▁commande	-5753
▁courriel	-5754
▁empêcher	-5755
▁grossier	-5756
▁majorité	-5757
▁opinions	-5758
▁pouvions	-5759
▁économie	-5760
▁descendre	-5761
▁propriété	-5762
▁Angleterre	-5763
▁pourraient	-5764
▁Heureusement	-5765
yg	-5766
ago	-5767
ein	-5768
mos	-5769
oss	-5770
ubl	-5771
ulg	-5772
▁pé	-5773
atte	-5774
gées	-5775
lice	-5776
ncid	-5777
▁arm	-5778
▁bol	-5779
▁raf	-5780
▁rig	-5781
▁roy	-5782
▁tur	-5783
▁élu	-5784
ierre	-5785
quées	-5786
rants	-5787
▁Pres	-5788
▁agit	-5789
▁caus	-5790
▁chir	-5791
▁fass	-5792
▁pist	-5793
▁rêvé	-5794
▁siff	-5795
▁zone	-5796
▁chiff	-5797
▁cuill	-5798
▁embau	-5799
▁extra	-5800
▁gardé	-5801
▁malin	-5802
▁modif	-5803
▁pages	-5804
▁perds	-5805
▁poign	-5806
▁salon	-5807
intérêt	-5808
itaires	-5809
ussitôt	-5810
▁Algéri	-5811
▁ballon	-5812
▁caisse	-5813
▁discut	-5814
▁jouets	-5815
▁sacrif	-5816
▁termes	-5817
▁violon	-5818
▁voyagé	-5819
▁éclair	-5820
indiquer	-5821
▁donnent	-5822
▁kabyles	-5823
▁oranges	-5824
▁parcour	-5825
▁ressens	-5826
▁victime	-5827
accompagn	-5828
entissage	-5829
▁confront	-5830
▁ministre	-5831
▁partager	-5832
▁premiers	-5833
▁présente	-5834
▁publique	-5835
▁rembours	-5836
▁remporté	-5837
▁réveille	-5838
▁contrôler	-5839
▁bicyclette	-5840
▁couverture	-5841
▁occidental	-5842
▁connaissons	-5843
▁technologie	-5844
▁construction	-5845
▁pratiquement	-5846
aj	-5847
do	-5848
va	-5849
ys	-5850
eng	-5851
iko	-5852
isp	-5853
yez	-5854
▁Ad	-5855
▁Aj	-5856
hara	-5857
oriz	-5858
raél	-5859
raël	-5860
rure	-5861
tile	-5862
unes	-5863
▁Mer	-5864
▁Rev	-5865
▁gla	-5866
▁goû	-5867
▁lou	-5868
▁rit	-5869
▁tig	-5870
▁égo	-5871
ignit	-5872
lande	-5873
onger	-5874
ousse	-5875
usses	-5876
élect	-5877
▁Desc	-5878
▁Oubl	-5879
▁Tony	-5880
▁Trav	-5881
▁diam	-5882
▁héri	-5883
▁onze	-5884
▁viré	-5885
▁Grèce	-5886
▁Saint	-5887
▁amusé	-5888
▁ayons	-5889
▁bande	-5890
▁coiff	-5891
▁conne	-5892
▁criti	-5893
▁frigo	-5894
▁fâché	-5895
▁gants	-5896
▁parie	-5897
▁plats	-5898
▁verte	-5899
▁voyez	-5900
▁acteur	-5901
▁chanté	-5902
▁double	-5903
▁désire	-5904
▁farine	-5905
▁précéd	-5906
▁qualif	-5907
▁réalis	-5908
▁soldat	-5909
▁Jackson	-5910
▁domaine	-5911
▁détruit	-5912
▁feuille	-5913
▁limites	-5914
▁marrant	-5915
▁naturel	-5916
▁proches	-5917
▁retirer	-5918
▁secrets	-5919
▁abeilles	-5920
▁demandes	-5921
▁voudrait	-5922
▁améliorer	-5923
▁chauffeur	-5924
▁courageux	-5925
▁espéranto	-5926
▁mouvement	-5927
▁téléphoné	-5928
▁élections	-5929
▁principale	-5930
▁fonctionner	-5931
▁philosophie	-5932
apprentissage	-5933
▁conséquences	-5934
▁propriétaire	-5935
ha	-5936
ma	-5937
ua	-5938
alé	-5939
eth	-5940
fie	-5941
gyp	-5942
ina	-5943
▁mû	-5944
ancy	-5945
aube	-5946
chez	-5947
ller	-5948
▁Pet	-5949
▁emm	-5950
▁mun	-5951
▁sor	-5952
aises	-5953
euble	-5954
ressé	-5955
▁Menn	-5956
▁argu	-5957
▁fraî	-5958
▁pâle	-5959
▁surm	-5960
▁tien	-5961
érance	-5962
▁Chois	-5963
▁Nancy	-5964
▁brûle	-5965
▁cardi	-5966
▁estim	-5967
▁flics	-5968
▁félic	-5969
▁garer	-5970
▁sauté	-5971
▁strat	-5972
▁tradu	-5973
▁tremp	-5974
▁vente	-5975
opinion	-5976
▁Berlin	-5977
▁allumé	-5978
▁blancs	-5979
▁chaîne	-5980
▁librai	-5981
▁modèle	-5982
▁objets	-5983
▁ouvrit	-5984
▁poches	-5985
▁refusa	-5986
▁repose	-5987
▁réchau	-5988
▁saches	-5989
▁trouva	-5990
apporter	-5991
versaire	-5992
éteindre	-5993
▁moutons	-5994
▁passion	-5995
▁assister	-5996
▁capables	-5997
▁concours	-5998
▁consiste	-5999
▁impliqué	-6000
▁pauvreté	-6001
▁richesse	-6002
▁scandale	-6003
▁contacter	-6004
▁transport	-6005
▁régulièrement	-6006
ket	-6007
lou	-6008
écu	-6009
▁ol	-6010
grés	-6011
urée	-6012
çant	-6013
▁Mad	-6014
▁gay	-6015
▁red	-6016
▁tas	-6017
ennuy	-6018
intes	-6019
onnés	-6020
ugais	-6021
▁Prem	-6022
▁coul	-6023
▁crié	-6024
▁fout	-6025
▁lien	-6026
▁renf	-6027
▁sexe	-6028
▁symb	-6029
▁zéro	-6030
illons	-6031
uelles	-6032
ximité	-6033
▁Compr	-6034
▁Mieux	-6035
▁créer	-6036
▁forts	-6037
▁irons	-6038
▁plomb	-6039
▁savon	-6040
▁taire	-6041
aissent	-6042
ignorer	-6043
ituteur	-6044
étagère	-6045
▁Mennad	-6046
▁claire	-6047
▁comple	-6048
▁mépris	-6049
▁parfum	-6050
▁quitte	-6051
▁veille	-6052
▁élevés	-6053
▁Presque	-6054
▁connait	-6055
▁employé	-6056
▁gratuit	-6057
▁permett	-6058
▁réduire	-6059
▁apporter	-6060
▁arrivent	-6061
▁blessure	-6062
▁commerce	-6063
▁corriger	-6064
▁fantômes	-6065
▁réussite	-6066
▁condition	-6067
▁demandais	-6068
▁désespéré	-6069
▁enseigner	-6070
▁pardonner	-6071
▁proximité	-6072
électricité	-6073
▁politiques	-6074
▁secrétaire	-6075
▁comprennent	-6076
▁artificielle	-6077
..	-6078
ât	-6079
awa	-6080
xte	-6081
▁Ab	-6082
▁Ge	-6083
char	-6084
fait	-6085
gner	-6086
rain	-6087
rime	-6088
état	-6089
▁Ben	-6090
▁bel	-6091
▁cra	-6092
▁noy	-6093
▁tal	-6094
ancée	-6095
belle	-6096
ricul	-6097
érait	-6098
▁brit	-6099
▁douz	-6100
▁moto	-6101
▁noix	-6102
▁pert	-6103
▁plaf	-6104
▁tués	-6105
orique	-6106
▁Osaka	-6107
▁affec	-6108
▁atter	-6109
▁ayant	-6110
▁chers	-6111
▁envis	-6112
▁hongr	-6113
▁nique	-6114
▁sonne	-6115
▁subst	-6116
agement	-6117
assurer	-6118
cidents	-6119
ouilles	-6120
▁araign	-6121
▁attrib	-6122
▁confir	-6123
▁lourde	-6124
▁ongles	-6125
▁orange	-6126
▁poussé	-6127
▁rendit	-6128
▁verres	-6129
▁éloign	-6130
ologique	-6131
▁appelée	-6132
▁bonjour	-6133
▁dispute	-6134
▁défauts	-6135
▁fichier	-6136
▁groupes	-6137
▁parlais	-6138
▁remarqu	-6139
▁Voudrais	-6140
▁carrière	-6141
▁fatigués	-6142
▁longueur	-6143
▁marchait	-6144
▁mignonne	-6145
▁resterai	-6146
▁retourne	-6147
▁souvient	-6148
▁victimes	-6149
▁cuisinier	-6150
▁documents	-6151
▁librairie	-6152
▁plastique	-6153
▁importance	-6154
▁meilleures	-6155
▁électrique	-6156
▁importantes	-6157
Is	-6158
apt	-6159
obe	-6160
▁Fu	-6161
èces	-6162
▁bav	-6163
▁don	-6164
▁œuf	-6165
arabe	-6166
choir	-6167
gypte	-6168
iture	-6169
quait	-6170
élève	-6171
▁Asse	-6172
▁carb	-6173
▁delà	-6174
▁pona	-6175
amitié	-6176
atures	-6177
▁Manon	-6178
▁admir	-6179
▁bleus	-6180
▁boule	-6181
▁culti	-6182
▁digne	-6183
▁délic	-6184
▁guide	-6185
▁pharm	-6186
▁rater	-6187
▁sonné	-6188
ationne	-6189
ensible	-6190
▁Sahara	-6191
▁Suisse	-6192
▁Voyons	-6193
▁auquel	-6194
▁cousin	-6195
▁craign	-6196
▁fascin	-6197
▁ferons	-6198
▁offrir	-6199
▁récomp	-6200
▁régler	-6201
▁réparé	-6202
▁épousé	-6203
attraper	-6204
idemment	-6205
▁Afrique	-6206
▁baisser	-6207
▁concern	-6208
▁conflit	-6209
▁dessert	-6210
▁habillé	-6211
▁mystère	-6212
▁sembles	-6213
▁traduis	-6214
▁Espérons	-6215
▁blanches	-6216
▁chambres	-6217
▁descendu	-6218
▁vieilles	-6219
▁araignées	-6220
▁déménager	-6221
▁détestent	-6222
▁deviennent	-6223
▁compétition	-6224
▁quotidienne	-6225
▁raisonnable	-6226
yn	-6227
lés	-6228
ymp	-6229
ôts	-6230
▁Ob	-6231
dire	-6232
iraf	-6233
émie	-6234
▁Bel	-6235
▁Rem	-6236
▁mai	-6237
▁pel	-6238
▁sap	-6239
▁sép	-6240
▁vom	-6241
▁égl	-6242
▁épr	-6243
aules	-6244
entie	-6245
écrit	-6246
érais	-6247
étang	-6248
▁clôt	-6249
▁file	-6250
▁murs	-6251
atrice	-6252
outine	-6253
quérir	-6254
▁Grand	-6255
▁James	-6256
▁accès	-6257
▁croir	-6258
▁exige	-6259
▁giraf	-6260
▁juger	-6261
▁lâche	-6262
▁navig	-6263
▁soupç	-6264
▁vague	-6265
Espagne	-6266
nements	-6267
▁amitié	-6268
▁associ	-6269
▁diplom	-6270
▁décour	-6271
▁détour	-6272
▁frappe	-6273
▁israél	-6274
▁lancer	-6275
▁volent	-6276
aremment	-6277
ncidence	-6278
▁achèter	-6279
▁besoins	-6280
▁confond	-6281
▁dormait	-6282
▁ferions	-6283
▁pourrai	-6284
▁prenons	-6285
▁stratég	-6286
▁valises	-6287
▁épaules	-6288
alisation	-6289
améliorer	-6290
▁apprécie	-6291
▁fréquent	-6292
▁opportun	-6293
▁parvenir	-6294
▁respirer	-6295
▁secondes	-6296
▁sensible	-6297
▁serpents	-6298
▁autrefois	-6299
▁camarades	-6300
▁cherchait	-6301
▁allergique	-6302
▁enseignants	-6303
▁littérature	-6304
▁prisonniers	-6305
▁inconvénient	-6306
▁terriblement	-6307
ky	-6308
emm	-6309
yth	-6310
▁mu	-6311
aura	-6312
bert	-6313
embr	-6314
hous	-6315
ives	-6316
lier	-6317
uira	-6318
édie	-6319
▁ath	-6320
▁fre	-6321
▁obs	-6322
▁séd	-6323
▁tue	-6324
encer	-6325
idité	-6326
image	-6327
oquer	-6328
étage	-6329
œuvre	-6330
▁Cons	-6331
▁Fuji	-6332
▁Trad	-6333
▁duré	-6334
▁jeta	-6335
▁pure	-6336
▁sing	-6337
erreur	-6338
explos	-6339
istant	-6340
liquez	-6341
resser	-6342
▁Ouvre	-6343
▁basse	-6344
▁favor	-6345
▁fuite	-6346
▁parla	-6347
▁possé	-6348
▁serré	-6349
▁singe	-6350
▁soign	-6351
▁sueur	-6352
▁virus	-6353
▁voter	-6354
annique	-6355
entions	-6356
housias	-6357
issante	-6358
▁action	-6359
▁brille	-6360
▁champs	-6361
▁degrés	-6362
▁direct	-6363
▁mourut	-6364
▁panier	-6365
▁phénom	-6366
▁poèmes	-6367
▁restés	-6368
▁signer	-6369
▁tourné	-6370
écriture	-6371
▁absence	-6372
▁décrire	-6373
▁défense	-6374
▁paradis	-6375
▁passent	-6376
▁plafond	-6377
▁rendent	-6378
▁retenir	-6379
▁superbe	-6380
▁tomates	-6381
▁veuille	-6382
▁visible	-6383
▁éveillé	-6384
attendait	-6385
▁aimerait	-6386
▁batterie	-6387
▁circonst	-6388
▁défendre	-6389
▁dépenses	-6390
▁mouchoir	-6391
▁musicien	-6392
▁médecine	-6393
▁national	-6394
▁pleuvait	-6395
▁respecte	-6396
▁seraient	-6397
▁électron	-6398
▁frontière	-6399
▁portugais	-6400
▁souvenirs	-6401
▁collection	-6402
▁réputation	-6403
▁travailles	-6404
▁confortable	-6405
▁instructions	-6406
▁merveilleuse	-6407
arc	-6408
ast	-6409
cte	-6410
ker	-6411
obs	-6412
▁12	-6413
▁er	-6414
▁pê	-6415
alog	-6416
neur	-6417
onté	-6418
ores	-6419
sons	-6420
▁aig	-6421
▁chè	-6422
▁mic	-6423
▁pes	-6424
aigne	-6425
culer	-6426
objet	-6427
▁Perm	-6428
▁aigu	-6429
▁appl	-6430
▁défi	-6431
▁heur	-6432
▁juin	-6433
▁mamm	-6434
▁âgée	-6435
enture	-6436
olique	-6437
ouvant	-6438
▁bouge	-6439
▁dames	-6440
▁fêtes	-6441
▁monte	-6442
▁métal	-6443
▁nuits	-6444
▁pitié	-6445
▁pénét	-6446
▁verti	-6447
▁vertu	-6448
ensable	-6449
honnête	-6450
illages	-6451
▁appell	-6452
▁brosse	-6453
▁connue	-6454
▁conser	-6455
▁décédé	-6456
▁justif	-6457
▁marque	-6458
▁perdue	-6459
▁prince	-6460
▁remède	-6461
▁tienne	-6462
▁trésor	-6463
affaires	-6464
itations	-6465
mosphère	-6466
▁anciens	-6467
▁compose	-6468
▁curieux	-6469
▁marteau	-6470
▁maîtres	-6471
▁méchant	-6472
▁raconte	-6473
▁robinet	-6474
évolution	-6475
▁Allemand	-6476
▁mangeons	-6477
▁musulman	-6478
▁pistolet	-6479
▁précieux	-6480
▁réfléchi	-6481
appartient	-6482
▁Président	-6483
▁caractère	-6484
▁policiers	-6485
▁pouvaient	-6486
▁puissions	-6487
▁Finalement	-6488
▁bouteilles	-6489
▁ressources	-6490
informations	-6491
▁ressemblent	-6492
▁sympathique	-6493
environnement	-6494
▁internationale	-6495
gh	-6496
ôm	-6497
ana	-6498
bum	-6499
oki	-6500
▁Be	-6501
▁Bl	-6502
▁Vi	-6503
▁be	-6504
▁lâ	-6505
▁rô	-6506
anie	-6507
chir	-6508
icie	-6509
issé	-6510
loit	-6511
▁Ouv	-6512
▁Rom	-6513
▁amp	-6514
▁cue	-6515
▁fal	-6516
▁gel	-6517
▁gif	-6518
▁hos	-6519
Union	-6520
aviez	-6521
endem	-6522
eries	-6523
organ	-6524
▁arra	-6525
▁bœuf	-6526
▁chôm	-6527
▁code	-6528
▁obst	-6529
▁poli	-6530
▁pèse	-6531
▁rand	-6532
▁toki	-6533
▁trib	-6534
▁voté	-6535
Italie	-6536
aliser	-6537
années	-6538
emprun	-6539
inguis	-6540
kraine	-6541
uteurs	-6542
▁Maroc	-6543
▁Nouve	-6544
▁affir	-6545
▁dises	-6546
▁grève	-6547
▁ident	-6548
▁jette	-6549
▁resta	-6550
▁rétab	-6551
▁rêver	-6552
▁sales	-6553
▁sinon	-6554
▁Était	-6555
Afrique	-6556
obtenir	-6557
▁Encore	-6558
▁adopté	-6559
▁causer	-6560
▁indisp	-6561
▁lendem	-6562
▁limite	-6563
▁observ	-6564
▁plaign	-6565
▁pleuve	-6566
▁ralent	-6567
▁sentit	-6568
abilités	-6569
endormir	-6570
▁Parlons	-6571
▁capital	-6572
▁composé	-6573
▁contenu	-6574
▁corromp	-6575
▁devenus	-6576
▁examens	-6577
▁fraîche	-6578
▁garanti	-6579
▁informé	-6580
▁sentent	-6581
▁vendent	-6582
▁vouliez	-6583
oublierai	-6584
▁anglaise	-6585
▁carottes	-6586
▁cuillère	-6587
▁particip	-6588
▁pharmaci	-6589
▁prévenir	-6590
▁puissant	-6591
▁renversé	-6592
appellerai	-6593
▁attendons	-6594
▁cardiaque	-6595
▁conseille	-6596
▁critiques	-6597
▁laisserai	-6598
▁objectifs	-6599
▁quasiment	-6600
▁écureuils	-6601
▁américaine	-6602
▁concernant	-6603
▁dangereuse	-6604
▁impatience	-6605
▁impression	-6606
▁légèrement	-6607
▁destination	-6608
▁commentaires	-6609
Ar	-6610
da	-6611
amé	-6612
ony	-6613
umé	-6614
▁CD	-6615
▁Ke	-6616
▁Ph	-6617
▁Év	-6618
ança	-6619
breu	-6620
lées	-6621
nois	-6622
osau	-6623
urde	-6624
étit	-6625
▁Bro	-6626
▁mut	-6627
▁ner	-6628
essus	-6629
iseur	-6630
riers	-6631
urait	-6632
écile	-6633
écout	-6634
▁Char	-6635
▁Cher	-6636
▁arab	-6637
▁arai	-6638
▁atom	-6639
▁bros	-6640
▁chap	-6641
▁crie	-6642
▁hein	-6643
▁menu	-6644
▁mons	-6645
▁stri	-6646
▁vies	-6647
▁épar	-6648
endons	-6649
ouvrit	-6650
ration	-6651
▁accus	-6652
▁ailes	-6653
▁amies	-6654
▁bombe	-6655
▁dieux	-6656
▁expos	-6657
▁fiers	-6658
▁folie	-6659
▁infin	-6660
▁météo	-6661
▁poing	-6662
▁polon	-6663
▁prosp	-6664
▁saoul	-6665
▁sorci	-6666
▁stade	-6667
▁trahi	-6668
▁vides	-6669
ription	-6670
▁Parles	-6671
▁disput	-6672
▁genoux	-6673
▁joyeux	-6674
▁métier	-6675
▁partit	-6676
▁perdus	-6677
▁pilote	-6678
▁planif	-6679
▁portée	-6680
▁pourra	-6681
▁repris	-6682
▁retiré	-6683
▁superf	-6684
uitement	-6685
élection	-6686
▁Appelez	-6687
▁Apporte	-6688
▁adorent	-6689
▁adultes	-6690
▁boivent	-6691
▁communi	-6692
▁entière	-6693
▁furieux	-6694
▁inhabit	-6695
▁mission	-6696
▁puisses	-6697
▁restait	-6698
▁tristes	-6699
▁trouvée	-6700
industrie	-6701
▁araignée	-6702
▁chinoise	-6703
▁endroits	-6704
▁gentille	-6705
▁pompiers	-6706
▁Algériens	-6707
▁blessures	-6708
▁chanteuse	-6709
▁fondament	-6710
▁lendemain	-6711
▁remarques	-6712
▁récupérer	-6713
▁prisonnier	-6714
▁automatique	-6715
▁entreprises	-6716
▁personnelle	-6717
▁développement	-6718
agi	-6719
anv	-6720
eus	-6721
his	-6722
osc	-6723
agée	-6724
bons	-6725
dent	-6726
osex	-6727
rète	-6728
tiez	-6729
ugal	-6730
▁tat	-6731
adies	-6732
allez	-6733
allée	-6734
envie	-6735
exemp	-6736
illet	-6737
iteur	-6738
liers	-6739
venir	-6740
éreux	-6741
▁Comp	-6742
▁bagu	-6743
▁barb	-6744
▁feux	-6745
▁gonf	-6746
▁mine	-6747
▁sacs	-6748
▁vote	-6749
▁épic	-6750
anvier	-6751
ophone	-6752
▁Grâce	-6753
▁Juste	-6754
▁avert	-6755
▁barre	-6756
▁embar	-6757
▁guère	-6758
▁lancé	-6759
▁obéir	-6760
▁piqué	-6761
▁plate	-6762
▁prote	-6763
▁rappr	-6764
▁sucré	-6765
▁types	-6766
arrière	-6767
étoiles	-6768
▁Gardez	-6769
▁aurons	-6770
▁bourse	-6771
▁chèvre	-6772
▁désert	-6773
▁légère	-6774
▁maigre	-6775
▁mammif	-6776
▁moquer	-6777
▁outils	-6778
▁parent	-6779
▁perdit	-6780
▁pointe	-6781
▁presse	-6782
▁quitta	-6783
▁respir	-6784
▁temple	-6785
▁éclata	-6786
▁écrite	-6787
ensemble	-6788
llemande	-6789
ormément	-6790
▁aimable	-6791
▁bananes	-6792
▁blessés	-6793
▁comptes	-6794
▁coutume	-6795
▁deviner	-6796
▁malades	-6797
▁mesures	-6798
▁papiers	-6799
▁vérifié	-6800
▁accompli	-6801
▁ancienne	-6802
▁bouillir	-6803
▁brillant	-6804
▁changent	-6805
▁collecti	-6806
▁domicile	-6807
▁dépourvu	-6808
▁exprimer	-6809
▁hongrois	-6810
▁indépend	-6811
▁suivante	-6812
▁veuilles	-6813
▁Cependant	-6814
▁attendait	-6815
▁cherchais	-6816
▁compromis	-6817
▁consulter	-6818
▁étudiante	-6819
appartement	-6820
▁cigarettes	-6821
▁commercial	-6822
▁découverte	-6823
▁formulaire	-6824
▁reconnaître	-6825
▁gratuitement	-6826
▁communication	-6827
▁connaissances	-6828
▁professionnel	-6829
arb	-6830
gué	-6831
oca	-6832
ppe	-6833
uté	-6834
▁St	-6835
ator	-6836
ogle	-6837
ples	-6838
umes	-6839
étés	-6840
▁agi	-6841
▁bêt	-6842
▁cis	-6843
▁dig	-6844
▁ski	-6845
▁tra	-6846
dieux	-6847
dique	-6848
encre	-6849
itter	-6850
obser	-6851
trape	-6852
▁cend	-6853
▁clav	-6854
▁clin	-6855
▁conj	-6856
▁exig	-6857
arrêta	-6858
chette	-6859
ennuie	-6860
ilibre	-6861
isible	-6862
obable	-6863
▁Alice	-6864
▁aurez	-6865
▁bébés	-6866
▁chute	-6867
▁doubl	-6868
▁durer	-6869
▁exact	-6870
▁franc	-6871
▁fémin	-6872
▁moral	-6873
▁nuage	-6874
▁passa	-6875
▁sapin	-6876
▁œuvre	-6877
arition	-6878
ministr	-6879
oiselle	-6880
onnaire	-6881
veloppe	-6882
▁banane	-6883
▁citron	-6884
▁comité	-6885
▁craint	-6886
▁dissim	-6887
▁figues	-6888
▁incons	-6889
▁libres	-6890
▁neiger	-6891
▁parten	-6892
▁publié	-6893
▁terrif	-6894
▁totale	-6895
▁utiles	-6896
▁ventre	-6897
▁voyons	-6898
▁énervé	-6899
approche	-6900
▁allongé	-6901
▁attaché	-6902
▁chaises	-6903
▁clôture	-6904
▁demeure	-6905
▁dinosau	-6906
▁grosses	-6907
▁jumeaux	-6908
▁placard	-6909
▁serveur	-6910
▁surtout	-6911
▁voyages	-6912
▁Écrivez	-6913
▁Portugal	-6914
▁aliments	-6915
▁assiette	-6916
▁champign	-6917
▁cherches	-6918
▁citoyens	-6919
▁condamné	-6920
▁dépenser	-6921
▁générale	-6922
▁habitent	-6923
▁maladies	-6924
▁papillon	-6925
▁présents	-6926
▁reprises	-6927
▁stupides	-6928
▁voudriez	-6929
▁confiture	-6930
▁disposons	-6931
▁enregistr	-6932
▁habitants	-6933
▁optimiste	-6934
▁publicité	-6935
▁rattraper	-6936
▁technique	-6937
▁éducation	-6938
▁génération	-6939
▁reviendrai	-6940
▁volontaire	-6941
▁commentaire	-6942
▁politiciens	-6943
▁professeurs	-6944
▁travaillons	-6945
▁personnalité	-6946
▁relativement	-6947
SA	-6948
wn	-6949
agr	-6950
lov	-6951
nie	-6952
pit	-6953
sme	-6954
ycl	-6955
▁ge	-6956
acté	-6957
dite	-6958
igné	-6959
oché	-6960
quin	-6961
reau	-6962
▁Nag	-6963
▁Tur	-6964
▁bij	-6965
▁blo	-6966
▁bét	-6967
▁hau	-6968
▁her	-6969
▁ill	-6970
▁lux	-6971
▁pic	-6972
▁vig	-6973
emmen	-6974
glais	-6975
isent	-6976
istan	-6977
verse	-6978
ègues	-6979
éléph	-6980
ôtres	-6981
▁brut	-6982
▁chag	-6983
▁clef	-6984
▁mail	-6985
▁maux	-6986
▁oses	-6987
▁pein	-6988
▁ronf	-6989
▁réel	-6990
▁trag	-6991
▁unif	-6992
▁vive	-6993
admire	-6994
effond	-6995
uation	-6996
évrier	-6997
▁Brown	-6998
▁Corée	-6999
▁Enfin	-7000
▁abond	-7001
▁cruel	-7002
▁envoy	-7003
▁haine	-7004
▁jouet	-7005
▁laine	-7006
▁natif	-7007
▁réfug	-7008
▁stric	-7009
▁trott	-7010
▁usage	-7011
▁vrais	-7012
mençons	-7013
oration	-7014
▁Assure	-7015
▁Google	-7016
▁Mangez	-7017
▁Pierre	-7018
▁Sortez	-7019
▁engagé	-7020
▁façons	-7021
▁figure	-7022
▁formid	-7023
▁foutre	-7024
▁frappa	-7025
▁impoli	-7026
▁lapins	-7027
▁mouton	-7028
▁plante	-7029
▁réduit	-7030
▁solide	-7031
▁tendre	-7032
espérais	-7033
▁Prenons	-7034
▁asseoir	-7035
▁bougies	-7036
▁chirurg	-7037
▁deviens	-7038
▁emporté	-7039
▁fantôme	-7040
▁italien	-7041
▁pelouse	-7042
▁propose	-7043
▁raisins	-7044
▁refuser	-7045
▁siècles	-7046
▁symbole	-7047
▁viennes	-7048
assurance	-7049
attendrai	-7050
▁complexe	-7051
▁continua	-7052
▁demandez	-7053
▁dépêcher	-7054
▁essayait	-7055
▁familles	-7056
▁regardes	-7057
▁ressenti	-7058
▁suicider	-7059
▁sérieuse	-7060
▁végétari	-7061
▁véhicule	-7062
▁étranges	-7063
▁accomplir	-7064
▁collègues	-7065
▁comprenez	-7066
▁milliards	-7067
▁prononcer	-7068
▁tentative	-7069
▁Christophe	-7070
▁Commençons	-7071
▁croissance	-7072
▁importants	-7073
▁improbable	-7074
▁journalistes	-7075
▁circonstances	-7076
▁environnement	-7077
▁signification	-7078
ja	-7079
azz	-7080
cée	-7081
lan	-7082
qsa	-7083
tée	-7084
▁Là	-7085
▁tâ	-7086
alle	-7087
ardé	-7088
atta	-7089
ayer	-7090
odes	-7091
oser	-7092
oure	-7093
ouvé	-7094
écut	-7095
érés	-7096
▁Tan	-7097
▁pur	-7098
▁stu	-7099
▁tax	-7100
chait	-7101
chets	-7102
ouest	-7103
tième	-7104
écart	-7105
étend	-7106
▁Aqsa	-7107
▁ache	-7108
▁bron	-7109
▁dira	-7110
▁guer	-7111
▁loué	-7112
▁État	-7113
▁égal	-7114
alités	-7115
ambass	-7116
envers	-7117
hommes	-7118
humeur	-7119
éclair	-7120
▁Alger	-7121
▁Coupe	-7122
▁Leurs	-7123
▁Voyez	-7124
▁avril	-7125
▁chuch	-7126
▁dette	-7127
▁désas	-7128
▁enfui	-7129
▁finit	-7130
▁gross	-7131
▁mardi	-7132
▁puits	-7133
▁quart	-7134
▁usine	-7135
apprend	-7136
ublique	-7137
▁Grande	-7138
▁abattu	-7139
▁déclen	-7140
▁dépens	-7141
▁espère	-7142
▁exacte	-7143
▁goutte	-7144
▁ignore	-7145
▁impôts	-7146
▁pardon	-7147
▁perman	-7148
▁places	-7149
▁pousse	-7150
▁poésie	-7151
▁pronon	-7152
▁raccro	-7153
▁rafraî	-7154
▁troubl	-7155
▁église	-7156
▁étasun	-7157
arrivera	-7158
▁Montrez	-7159
▁chômage	-7160
▁couloir	-7161
▁dorment	-7162
▁dossier	-7163
▁dépense	-7164
▁emboute	-7165
▁fraises	-7166
▁juillet	-7167
▁licenci	-7168
▁linguis	-7169
▁miracle	-7170
▁pardonn	-7171
▁passera	-7172
▁revenus	-7173
▁rumeurs	-7174
▁sociaux	-7175
existence	-7176
issements	-7177
▁Apportez	-7178
▁cheminée	-7179
▁disputer	-7180
▁développ	-7181
▁entendit	-7182
▁espérons	-7183
▁patients	-7184
▁pourtant	-7185
▁sauvages	-7186
▁suscepti	-7187
▁tableaux	-7188
▁traverse	-7189
▁trottoir	-7190
▁cérémonie	-7191
▁militaire	-7192
▁nucléaire	-7193
▁enthousias	-7194
▁fonctionné	-7195
▁intentions	-7196
▁recommandé	-7197
▁satisfaire	-7198
▁souhaiterais	-7199
dd	-7200
pp	-7201
ack	-7202
its	-7203
uez	-7204
êle	-7205
▁11	-7206
▁py	-7207
king	-7208
ouss	-7209
utri	-7210
▁Aux	-7211
▁Jou	-7212
▁Jui	-7213
▁Kar	-7214
▁Réf	-7215
▁not	-7216
▁san	-7217
▁vap	-7218
acles	-7219
assés	-7220
credi	-7221
icier	-7222
ituer	-7223
laves	-7224
llect	-7225
rient	-7226
▁Anne	-7227
▁Donc	-7228
▁Seul	-7229
▁Soud	-7230
▁ajou	-7231
▁aver	-7232
▁cath	-7233
▁cerf	-7234
▁dieu	-7235
▁hall	-7236
▁loge	-7237
▁pige	-7238
▁porc	-7239
▁sein	-7240
▁shir	-7241
▁tiss	-7242
▁tonn	-7243
aigner	-7244
aniste	-7245
itable	-7246
lation	-7247
orizon	-7248
tembre	-7249
▁absor	-7250
▁agent	-7251
▁borde	-7252
▁chiot	-7253
▁faibl	-7254
▁incor	-7255
▁kilos	-7256
▁masse	-7257
▁mince	-7258
▁nerfs	-7259
▁nommé	-7260
▁soirs	-7261
▁âgées	-7262
Ukraine	-7263
habille	-7264
▁Guerre	-7265
▁calcul	-7266
▁caméra	-7267
▁cinqui	-7268
▁crimes	-7269
▁diminu	-7270
▁disant	-7271
▁essaye	-7272
▁excuse	-7273
▁fidèle	-7274
▁hypoth	-7275
▁montra	-7276
▁mortes	-7277
▁néglig	-7278
▁oublie	-7279
▁pareil	-7280
▁rouler	-7281
▁révélé	-7282
▁sienne	-7283
▁située	-7284
▁sujets	-7285
▁tenter	-7286
addition	-7287
identité	-7288
▁Devrais	-7289
▁agressi	-7290
▁attaqué	-7291
▁bonbons	-7292
▁branche	-7293
▁deviend	-7294
▁espèces	-7295
▁gâteaux	-7296
▁horreur	-7297
▁inconnu	-7298
▁parvenu	-7299
▁rideaux	-7300
▁semblez	-7301
▁termine	-7302
▁troupes	-7303
obscurité	-7304
▁Essayons	-7305
▁amélioré	-7306
▁avantage	-7307
▁boutique	-7308
▁chiffres	-7309
▁confecti	-7310
▁déplacer	-7311
▁incendie	-7312
▁machines	-7313
▁manquent	-7314
▁réaction	-7315
▁services	-7316
▁survivre	-7317
▁tonnerre	-7318
▁écriture	-7319
entretenir	-7320
▁Permettez	-7321
▁allemande	-7322
▁avantages	-7323
▁cauchemar	-7324
▁détestait	-7325
▁habitudes	-7326
▁maîtriser	-7327
▁principes	-7328
▁promotion	-7329
▁reprendre	-7330
▁septembre	-7331
▁invitation	-7332
▁officielle	-7333
▁populaires	-7334
▁poursuivre	-7335
▁recherches	-7336
▁téléphoner	-7337
▁dérangerait	-7338
▁nécessaires	-7339
▁incroyablement	-7340
obl	-7341
uff	-7342
urr	-7343
assi	-7344
enqu	-7345
quie	-7346
roid	-7347
uies	-7348
ulte	-7349
urne	-7350
élic	-7351
▁Acc	-7352
▁Cal	-7353
▁Dix	-7354
▁You	-7355
▁enr	-7356
▁jur	-7357
▁nag	-7358
▁nid	-7359
▁pla	-7360
aimez	-7361
offre	-7362
ondez	-7363
▁Souv	-7364
▁abri	-7365
▁abst	-7366
▁aîné	-7367
▁carn	-7368
▁dépê	-7369
▁fumé	-7370
▁garé	-7371
▁idio	-7372
▁inti	-7373
▁rond	-7374
▁ryth	-7375
▁subi	-7376
▁élég	-7377
uscule	-7378
▁album	-7379
▁armée	-7380
▁ceris	-7381
▁copie	-7382
▁glaci	-7383
▁idéal	-7384
▁loups	-7385
▁pouss	-7386
▁recev	-7387
▁sacré	-7388
▁saign	-7389
▁seize	-7390
▁sèche	-7391
▁tenta	-7392
▁tenue	-7393
▁tigre	-7394
▁épais	-7395
▁équip	-7396
▁Martin	-7397
▁bijoux	-7398
▁brûler	-7399
▁dettes	-7400
▁excité	-7401
▁fierté	-7402
▁humide	-7403
▁introd	-7404
▁matéri	-7405
▁restée	-7406
▁seriez	-7407
▁strict	-7408
▁sécher	-7409
▁tombés	-7410
exprimer	-7411
▁Anglais	-7412
▁assurer	-7413
▁citoyen	-7414
▁contemp	-7415
▁courtes	-7416
▁divorce	-7417
▁fassiez	-7418
▁grimper	-7419
▁indique	-7420
▁injuste	-7421
▁jalouse	-7422
▁nettoyé	-7423
▁peintre	-7424
▁protest	-7425
▁tiendra	-7426
▁voisine	-7427
▁voleurs	-7428
explosion	-7429
▁Aimeriez	-7430
▁accroché	-7431
▁argument	-7432
▁douzaine	-7433
▁détruire	-7434
▁locuteur	-7435
▁paraître	-7436
▁pardonné	-7437
▁souffrir	-7438
enseignant	-7439
▁accidents	-7440
▁autrement	-7441
▁cinquième	-7442
▁fermement	-7443
▁nationale	-7444
▁phénomène	-7445
▁éléphants	-7446
▁considérer	-7447
▁infirmière	-7448
▁satisfaits	-7449
▁traducteur	-7450
▁uniquement	-7451
▁boulangerie	-7452
▁britannique	-7453
▁réservation	-7454
▁consommation	-7455
▁téléphonique	-7456
he	-7457
iz	-7458
ave	-7459
dez	-7460
die	-7461
kin	-7462
lia	-7463
vée	-7464
wan	-7465
▁Cl	-7466
anda	-7467
aper	-7468
conf	-7469
etty	-7470
lave	-7471
olue	-7472
yons	-7473
èles	-7474
ître	-7475
▁Gre	-7476
▁Luc	-7477
▁Roy	-7478
▁cac	-7479
▁Éte	-7480
▁Kate	-7481
▁Mère	-7482
▁Prof	-7483
▁ange	-7484
▁cage	-7485
▁fixe	-7486
▁mass	-7487
▁noyé	-7488
▁oign	-7489
allait	-7490
ologne	-7491
orange	-7492
▁Betty	-7493
▁compt	-7494
▁désag	-7495
▁genou	-7496
▁guéri	-7497
▁initi	-7498
▁islam	-7499
▁jeudi	-7500
▁pendu	-7501
▁rever	-7502
▁robot	-7503
▁répét	-7504
▁tours	-7505
▁virer	-7506
▁vocab	-7507
illance	-7508
jection	-7509
▁apport	-7510
▁baissé	-7511
▁basket	-7512
▁bottes	-7513
▁doulou	-7514
▁dégoût	-7515
▁effets	-7516
▁endomm	-7517
▁enlevé	-7518
▁fauteu	-7519
▁fiable	-7520
▁mangez	-7521
▁marath	-7522
▁marqué	-7523
▁mettez	-7524
▁mouche	-7525
▁poster	-7526
▁repous	-7527
▁rythme	-7528
▁réflex	-7529
▁signes	-7530
▁singes	-7531
▁sonner	-7532
▁sporti	-7533
▁statue	-7534
▁transp	-7535
▁voient	-7536
▁étroit	-7537
appareil	-7538
ications	-7539
térieure	-7540
▁Kabyles	-7541
▁Réfléch	-7542
▁annuler	-7543
▁arrêtée	-7544
▁avancer	-7545
▁chagrin	-7546
▁ciseaux	-7547
▁conserv	-7548
▁défaite	-7549
▁déprimé	-7550
▁empêché	-7551
▁moments	-7552
▁pensons	-7553
▁récolte	-7554
▁réservé	-7555
▁secteur	-7556
▁épouser	-7557
ceptionne	-7558
lications	-7559
étudiants	-7560
▁admettre	-7561
▁augmente	-7562
▁auraient	-7563
▁craindre	-7564
▁environs	-7565
▁profiter	-7566
▁puissiez	-7567
▁remarque	-7568
▁soutenir	-7569
▁Allemands	-7570
▁chauffage	-7571
▁deviendra	-7572
▁faisaient	-7573
▁justement	-7574
▁premières	-7575
▁processus	-7576
▁regardant	-7577
▁climatique	-7578
▁développer	-7579
▁formidable	-7580
▁profondeur	-7581
▁imagination	-7582
▁traductions	-7583
▁vocabulaire	-7584
▁intelligents	-7585
▁électronique	-7586
▁principalement	-7587
▁responsabilités	-7588
ahu	-7589
udg	-7590
âne	-7591
abri	-7592
cter	-7593
extr	-7594
iche	-7595
icip	-7596
ival	-7597
otes	-7598
ulté	-7599
èner	-7600
▁Eur	-7601
▁Fre	-7602
▁Ser	-7603
▁gym	-7604
▁iss	-7605
▁lus	-7606
▁vêt	-7607
aides	-7608
itant	-7609
lette	-7610
▁Bret	-7611
▁Prom	-7612
▁acte	-7613
▁budg	-7614
▁cool	-7615
▁cord	-7616
▁dest	-7617
▁dout	-7618
▁fest	-7619
▁fran	-7620
▁laid	-7621
▁méch	-7622
▁pend	-7623
▁prol	-7624
▁seau	-7625
▁slov	-7626
▁sûrs	-7627
▁épre	-7628
▁étap	-7629
alisme	-7630
ettent	-7631
ettons	-7632
ualité	-7633
utions	-7634
épaule	-7635
évanou	-7636
éviter	-7637
▁Fumer	-7638
▁Rends	-7639
▁biens	-7640
▁foyer	-7641
▁impli	-7642
▁inond	-7643
▁nourr	-7644
▁perro	-7645
▁pneus	-7646
▁roule	-7647
▁sauce	-7648
▁soins	-7649
▁sonna	-7650
▁vaste	-7651
▁voici	-7652
▁Écris	-7653
actions	-7654
rouille	-7655
▁Israël	-7656
▁Madame	-7657
▁ajouté	-7658
▁approp	-7659
▁balles	-7660
▁bouill	-7661
▁courut	-7662
▁justes	-7663
▁manuel	-7664
▁marron	-7665
▁prêtre	-7666
▁routes	-7667
▁soucis	-7668
▁territ	-7669
▁témoin	-7670
▁élevée	-7671
agissait	-7672
ellement	-7673
▁assisté	-7674
▁déplace	-7675
▁enquête	-7676
▁février	-7677
▁illégal	-7678
▁janvier	-7679
▁mouches	-7680
▁municip	-7681
▁partagé	-7682
▁proposé	-7683
▁simples	-7684
▁survenu	-7685
▁violent	-7686
autoroute	-7687
erlandais	-7688
▁Bretagne	-7689
▁activité	-7690
▁chasseur	-7691
▁démarrer	-7692
▁désastre	-7693
▁essentie	-7694
▁inquiète	-7695
▁mercredi	-7696
▁ouvertes	-7697
▁polonais	-7698
▁revienne	-7699
▁réserver	-7700
▁veuillez	-7701
▁écureuil	-7702
▁éteindre	-7703
▁attendent	-7704
▁autorisés	-7705
▁ennuyeuse	-7706
▁fréquence	-7707
▁gravement	-7708
▁opération	-7709
▁regardais	-7710
▁remarquer	-7711
▁trouveras	-7712
orthographe	-7713
▁accompagné	-7714
▁américains	-7715
▁conduisait	-7716
▁construite	-7717
▁lesquelles	-7718
▁moustiques	-7719
▁université	-7720
enseignement	-7721
▁application	-7722
▁journaliste	-7723
▁civilisation	-7724
▁marchandises	-7725
cté	-7726
ica	-7727
oko	-7728
ouc	-7729
ébu	-7730
Inde	-7731
atti	-7732
auph	-7733
culé	-7734
ieds	-7735
insi	-7736
inée	-7737
iron	-7738
odor	-7739
oler	-7740
tage	-7741
▁Sus	-7742
▁Tar	-7743
▁USA	-7744
▁asc	-7745
▁bor	-7746
▁cic	-7747
▁cot	-7748
▁fût	-7749
▁nié	-7750
▁sir	-7751
▁tol	-7752
aucun	-7753
essim	-7754
isées	-7755
ouvri	-7756
usine	-7757
échec	-7758
▁Chic	-7759
▁anxi	-7760
▁bran	-7761
▁brun	-7762
▁exer	-7763
▁inte	-7764
▁jazz	-7765
▁maqu	-7766
▁moti	-7767
▁ruis	-7768
▁typh	-7769
▁vant	-7770
▁visa	-7771
arrass	-7772
estres	-7773
onnait	-7774
érable	-7775
▁Autre	-7776
▁actes	-7777
▁aient	-7778
▁arabe	-7779
▁bondé	-7780
▁chale	-7781
▁déser	-7782
▁ferma	-7783
▁incom	-7784
▁magie	-7785
▁marie	-7786
▁nôtre	-7787
▁parte	-7788
▁réglé	-7789
▁stock	-7790
▁séché	-7791
▁teint	-7792
▁tiers	-7793
▁trébu	-7794
▁vitam	-7795
arrivée	-7796
augment	-7797
emmener	-7798
horloge	-7799
èvement	-7800
▁Albert	-7801
▁George	-7802
▁Ouvrez	-7803
▁Rendez	-7804
▁Tourne	-7805
▁adulte	-7806
▁aidera	-7807
▁arabes	-7808
▁blonde	-7809
▁cabane	-7810
▁charme	-7811
▁chauve	-7812
▁chèque	-7813
▁consom	-7814
▁donnez	-7815
▁doutes	-7816
▁fortes	-7817
▁frites	-7818
▁frustr	-7819
▁glacée	-7820
▁inspir	-7821
▁nettoy	-7822
▁option	-7823
▁pessim	-7824
▁réseau	-7825
▁sortis	-7826
▁stress	-7827
▁vision	-7828
▁écrits	-7829
▁étendu	-7830
applique	-7831
errement	-7832
essayais	-7833
▁Espagne	-7834
▁Essayez	-7835
▁allions	-7836
▁allumer	-7837
▁concurr	-7838
▁coûtent	-7839
▁diamant	-7840
▁dépassé	-7841
▁experts	-7842
▁flammes	-7843
▁malheur	-7844
▁mélange	-7845
▁options	-7846
▁ordonné	-7847
▁panneau	-7848
▁positif	-7849
▁raccour	-7850
▁recette	-7851
▁rejoint	-7852
▁revient	-7853
▁échouer	-7854
appellent	-7855
ignorance	-7856
interromp	-7857
▁Commence	-7858
▁attentif	-7859
▁aussitôt	-7860
▁bienvenu	-7861
▁boissons	-7862
▁candidat	-7863
▁changera	-7864
▁contenir	-7865
▁couverte	-7866
▁cultures	-7867
▁dessiner	-7868
▁disposer	-7869
▁désordre	-7870
▁espérait	-7871
▁imbécile	-7872
▁pianiste	-7873
▁poubelle	-7874
▁préoccup	-7875
▁prétendu	-7876
▁retourna	-7877
▁réfugiés	-7878
▁résister	-7879
▁sociétés	-7880
▁soulever	-7881
▁téléchar	-7882
▁vivaient	-7883
▁épouvant	-7884
abandonner	-7885
demoiselle	-7886
▁commettre	-7887
▁intellect	-7888
▁puissance	-7889
▁regardent	-7890
▁remplacer	-7891
▁similaire	-7892
▁trouverez	-7893
utilisation	-7894
▁cuisinière	-7895
▁fourchette	-7896
▁romantique	-7897
▁énormément	-7898
▁Apparemment	-7899
▁exceptionne	-7900
▁expériences	-7901
▁néerlandais	-7902
▁verrouillée	-7903
▁informatique	-7904
▁naturellement	-7905
▁supplémentaires	-7906
ax	-7907
bé	-7908
▁0	-7909
ada	-7910
ald	-7911
cue	-7912
dim	-7913
eté	-7914
hyd	-7915
hyp	-7916
iqu	-7917
ula	-7918
▁Dé	-7919
▁Ni	-7920
allé	-7921
aver	-7922
ling	-7923
oies	-7924
orce	-7925
osti	-7926
▁May	-7927
▁Ver	-7928
▁anc	-7929
▁arb	-7930
▁ger	-7931
▁nés	-7932
▁reb	-7933
accro	-7934
activ	-7935
arder	-7936
enfer	-7937
ensif	-7938
essai	-7939
idées	-7940
ieuse	-7941
onyme	-7942
écriv	-7943
êtons	-7944
▁Bois	-7945
▁Brun	-7946
▁Trop	-7947
▁coqu	-7948
▁corp	-7949
▁cuit	-7950
▁mélo	-7951
▁quai	-7952
▁tape	-7953
▁traf	-7954
▁vacc	-7955
estine	-7956
itieux	-7957
ochait	-7958
reuses	-7959
ucture	-7960
upport	-7961
▁Ainsi	-7962
▁abord	-7963
▁ambul	-7964
▁bains	-7965
▁canon	-7966
▁chair	-7967
▁dauph	-7968
▁durée	-7969
▁dépit	-7970
▁miens	-7971
▁neuve	-7972
▁quere	-7973
▁règne	-7974
▁saisi	-7975
▁soule	-7976
▁tendu	-7977
▁therm	-7978
accepte	-7979
atrième	-7980
attente	-7981
demment	-7982
ennuyer	-7983
exemple	-7984
horizon	-7985
lusions	-7986
vention	-7987
▁Croyez	-7988
▁Devine	-7989
▁Europé	-7990
▁amical	-7991
▁budget	-7992
▁calend	-7993
▁cesser	-7994
▁choqué	-7995
▁courts	-7996
▁dollar	-7997
▁domest	-7998
▁effond	-7999
▁espèce	-8000
▁formes	-8001
▁gardes	-8002
▁malent	-8003
▁ménage	-8004
▁plaire	-8005
▁prises	-8006
▁record	-8007
▁rejeté	-8008
▁remise	-8009
▁réside	-8010
▁sentis	-8011
▁souper	-8012
▁souver	-8013
▁traces	-8014
▁vidéos	-8015
▁écoles	-8016
▁évanou	-8017
escalier	-8018
▁Chicago	-8019
▁achetée	-8020
▁automne	-8021
▁baleine	-8022
▁cendres	-8023
▁clavier	-8024
▁collier	-8025
▁coûtera	-8026
▁diplôme	-8027
▁esprits	-8028
▁faibles	-8029
▁fiction	-8030
▁manques	-8031
▁mignons	-8032
▁normale	-8033
▁nourrit	-8034
▁oignons	-8035
▁ouverts	-8036
▁plainte	-8037
▁poignée	-8038
▁prenait	-8039
▁prévenu	-8040
▁raciste	-8041
▁remplir	-8042
▁retardé	-8043
▁réserve	-8044
▁sources	-8045
▁séparer	-8046
▁séparés	-8047
▁tickets	-8048
▁Nouvelle	-8049
▁célèbres	-8050
▁divorcer	-8051
▁examiner	-8052
▁fabriqué	-8053
▁familier	-8054
▁messages	-8055
▁regardez	-8056
▁scolaire	-8057
expression	-8058
▁assassiné	-8059
▁comporter	-8060
▁détective	-8061
▁insupport	-8062
▁mentionné	-8063
▁parlement	-8064
▁pharmacie	-8065
▁pollution	-8066
▁poursuivi	-8067
▁quatrième	-8068
▁rappelles	-8069
▁supérieur	-8070
▁surmonter	-8071
▁caractères	-8072
▁dinosaures	-8073
▁politicien	-8074
▁protection	-8075
▁rencontres	-8076
▁similaires	-8077
▁suggestion	-8078
▁volontiers	-8079
▁adolescents	-8080
▁fréquemment	-8081
▁considération	-8082
▁indispensable	-8083
Al	-8084
ID	-8085
pa	-8086
to	-8087
tô	-8088
ît	-8089
ham	-8090
iff	-8091
isa	-8092
nés	-8093
opt	-8094
adap	-8095
ainé	-8096
cipe	-8097
igme	-8098
ison	-8099
neau	-8100
nons	-8101
tein	-8102
èges	-8103
▁And	-8104
▁Eli	-8105
▁Lou	-8106
▁Mex	-8107
▁Min	-8108
▁Ont	-8109
▁blé	-8110
▁déd	-8111
▁far	-8112
▁mig	-8113
▁nus	-8114
▁pér	-8115
▁ten	-8116
▁têt	-8117
idiot	-8118
irais	-8119
ismes	-8120
itent	-8121
itive	-8122
luche	-8123
reint	-8124
ueuse	-8125
▁Plut	-8126
▁Tant	-8127
▁arti	-8128
▁avoc	-8129
▁corb	-8130
▁coré	-8131
▁cuir	-8132
▁exag	-8133
▁paci	-8134
▁rass	-8135
▁roue	-8136
▁sien	-8137
accent	-8138
alarme	-8139
angers	-8140
assion	-8141
avocat	-8142
effort	-8143
Égypte	-8144
▁Arriv	-8145
▁Jones	-8146
▁Juifs	-8147
▁alent	-8148
▁annul	-8149
▁diagn	-8150
▁décès	-8151
▁décéd	-8152
▁goûté	-8153
▁jeans	-8154
▁jouez	-8155
▁malch	-8156
▁music	-8157
▁nomme	-8158
▁placé	-8159
▁poker	-8160
▁porti	-8161
▁shirt	-8162
▁songe	-8163
▁stupé	-8164
▁tabac	-8165
▁troup	-8166
▁tueur	-8167
▁époux	-8168
▁étern	-8169
animaux	-8170
attaque	-8171
istique	-8172
quement	-8173
échelle	-8174
▁Fermez	-8175
▁Parler	-8176
▁acquis	-8177
▁actuel	-8178
▁aiguis	-8179
▁alcool	-8180
▁bougie	-8181
▁calmes	-8182
▁congés	-8183
▁débord	-8184
▁gratte	-8185
▁grippe	-8186
▁jusque	-8187
▁masque	-8188
▁natale	-8189
▁opposé	-8190
▁poison	-8191
▁prenne	-8192
▁retira	-8193
▁sentez	-8194
▁symptô	-8195
▁tomate	-8196
▁vagues	-8197
▁venais	-8198
▁voyait	-8199
▁Étasun	-8200
▁éclaté	-8201
▁étouff	-8202
Histoire	-8203
habituer	-8204
ympiques	-8205
▁Poutine	-8206
▁Premier	-8207
▁Soudain	-8208
▁apporte	-8209
▁attends	-8210
▁chargée	-8211
▁collège	-8212
▁emmener	-8213
▁enterré	-8214
▁explosé	-8215
▁gardien	-8216
▁girafes	-8217
▁homosex	-8218
▁immense	-8219
▁magique	-8220
▁mettent	-8221
▁perform	-8222
▁promène	-8223
▁quelles	-8224
▁rappell	-8225
▁suggéré	-8226
▁travaux	-8227
▁urgence	-8228
ologiques	-8229
▁Réveille	-8230
▁contents	-8231
▁fauteuil	-8232
▁généreux	-8233
▁habillée	-8234
▁intérêts	-8235
▁mangerai	-8236
▁organisé	-8237
▁produise	-8238
▁prononci	-8239
▁remonter	-8240
▁savaient	-8241
▁échapper	-8242
▁éléphant	-8243
▁Apprendre	-8244
▁brillante	-8245
▁demandait	-8246
▁diagnosti	-8247
▁démission	-8248
▁embrasser	-8249
▁encourage	-8250
▁industrie	-8251
▁persuader	-8252
▁pratiquer	-8253
▁randonnée	-8254
▁religieux	-8255
▁réchauffe	-8256
▁souhaitez	-8257
▁suffisant	-8258
▁utilisent	-8259
▁visiteurs	-8260
accompagner	-8261
▁adversaire	-8262
▁calendrier	-8263
▁compassion	-8264
▁enregistre	-8265
▁expériment	-8266
▁malentendu	-8267
▁surveiller	-8268
▁différences	-8269
▁démissionné	-8270
▁fantastique	-8271
▁franchement	-8272
▁compréhension	-8273
▁éternellement	-8274
▁malheureusement	-8275
go	-8276
gné	-8277
igu	-8278
ila	-8279
uko	-8280
âts	-8281
élè	-8282
▁vœ	-8283
acés	-8284
agés	-8285
akes	-8286
arpe	-8287
ceau	-8288
cien	-8289
comm	-8290
culp	-8291
rich	-8292
uent	-8293
ègue	-8294
érem	-8295
▁Ter	-8296
▁cho	-8297
▁sab	-8298
▁tuy	-8299
▁yen	-8300
accus	-8301
effet	-8302
enver	-8303
ignez	-8304
isses	-8305
oches	-8306
rimée	-8307
trons	-8308
épuis	-8309
érité	-8310
▁Hong	-8311
▁auto	-8312
▁cave	-8313
▁cria	-8314
▁déce	-8315
▁frag	-8316
▁ital	-8317
▁juda	-8318
▁obsé	-8319
▁orte	-8320
▁pape	-8321
▁ping	-8322
▁soum	-8323
▁vues	-8324
▁vulg	-8325
▁Étud	-8326
ardons	-8327
aucune	-8328
endrez	-8329
enfuir	-8330
heures	-8331
orités	-8332
▁Caire	-8333
▁Jette	-8334
▁Micha	-8335
▁dansé	-8336
▁essai	-8337
▁essuy	-8338
▁fainé	-8339
▁finie	-8340
▁grond	-8341
▁lieux	-8342
▁manip	-8343
▁meurs	-8344
▁saura	-8345
▁trous	-8346
▁vends	-8347
▁écris	-8348
▁égard	-8349
▁Joyeux	-8350
▁Marika	-8351
▁Pardon	-8352
▁alliez	-8353
▁aspect	-8354
▁attach	-8355
▁attiré	-8356
▁baisse	-8357
▁bordel	-8358
▁calmer	-8359
▁casque	-8360
▁combin	-8361
▁concep	-8362
▁disais	-8363
▁décenn	-8364
▁décrit	-8365
▁emmené	-8366
▁foudre	-8367
▁glissé	-8368
▁herbes	-8369
▁judici	-8370
▁mangea	-8371
▁requin	-8372
▁rompre	-8373
▁social	-8374
▁tendit	-8375
▁tâches	-8376
▁vapeur	-8377
éremment	-8378
▁Choisis	-8379
▁actrice	-8380
▁affront	-8381
▁amélior	-8382
▁arrêtés	-8383
▁attirer	-8384
▁blessée	-8385
▁catastr	-8386
▁cochons	-8387
▁commune	-8388
▁cousine	-8389
▁crayons	-8390
▁divorcé	-8391
▁fausses	-8392
▁horloge	-8393
▁lecteur	-8394
▁monstre	-8395
▁nombres	-8396
▁parlant	-8397
▁protège	-8398
▁renouve	-8399
▁restent	-8400
▁révéler	-8401
▁saurais	-8402
▁vivants	-8403
▁Belgique	-8404
▁accueill	-8405
▁aimerais	-8406
▁chaleure	-8407
▁complète	-8408
▁disparut	-8409
▁effectué	-8410
▁entendue	-8411
▁entraîné	-8412
▁essayons	-8413
▁inconsci	-8414
▁interrog	-8415
▁jugement	-8416
▁médaille	-8417
▁ouvriers	-8418
▁provient	-8419
▁utilisée	-8420
▁étonnant	-8421
infirmière	-8422
▁candidats	-8423
▁constitue	-8424
▁contrarié	-8425
▁désaccord	-8426
▁développé	-8427
▁forcément	-8428
▁fortement	-8429
▁nécessite	-8430
▁parlaient	-8431
▁plaisante	-8432
▁tentation	-8433
▁trouverai	-8434
▁viendrait	-8435
▁voisinage	-8436
imagination	-8437
▁apprennent	-8438
▁déterminer	-8439
▁personnage	-8440
▁recommande	-8441
▁remarquable	-8442
▁ressemblait	-8443
▁différemment	-8444
▁supplémentaire	-8445
▁personnellement	-8446
MS	-8447
by	-8448
ey	-8449
oz	-8450
aum	-8451
fgh	-8452
ola	-8453
opp	-8454
ral	-8455
▁Do	-8456
▁Oc	-8457
▁Tw	-8458
▁éb	-8459
▁ér	-8460
iros	-8461
nait	-8462
obus	-8463
olle	-8464
ouge	-8465
oûte	-8466
préh	-8467
vité	-8468
▁Bas	-8469
▁Cés	-8470
▁Exp	-8471
▁Nul	-8472
▁Sup	-8473
▁Vla	-8474
▁Voy	-8475
▁bac	-8476
▁coq	-8477
▁fas	-8478
▁fis	-8479
▁gré	-8480
▁tit	-8481
▁tun	-8482
assez	-8483
chiez	-8484
crire	-8485
intim	-8486
leman	-8487
mbles	-8488
ories	-8489
▁Jess	-8490
▁amer	-8491
▁hais	-8492
▁hont	-8493
▁mars	-8494
▁past	-8495
▁pile	-8496
▁piét	-8497
▁plai	-8498
▁poit	-8499
▁soie	-8500
▁élim	-8501
agnole	-8502
orient	-8503
ouvrez	-8504
▁Cesse	-8505
▁actif	-8506
▁avoué	-8507
▁aînée	-8508
▁brise	-8509
▁bulle	-8510
▁buvez	-8511
▁coulé	-8512
▁devra	-8513
▁empre	-8514
▁fonds	-8515
▁fondu	-8516
▁gamin	-8517
▁giflé	-8518
▁gosse	-8519
▁intim	-8520
▁lança	-8521
▁lisez	-8522
▁local	-8523
▁maill	-8524
▁péché	-8525
▁ronde	-8526
▁sculp	-8527
▁taill	-8528
▁tissu	-8529
▁vitre	-8530
▁voire	-8531
▁vérit	-8532
ectionn	-8533
iendrai	-8534
▁Jeanne	-8535
▁Sommes	-8536
▁avancé	-8537
▁bandes	-8538
▁cochon	-8539
▁coudre	-8540
▁croyez	-8541
▁donnes	-8542
▁dégâts	-8543
▁famili	-8544
▁grotte	-8545
▁idiote	-8546
▁inféri	-8547
▁jolies	-8548
▁jouais	-8549
▁mécont	-8550
▁passés	-8551
▁patrie	-8552
▁promit	-8553
▁répète	-8554
▁souffr	-8555
▁tempor	-8556
▁volcan	-8557
▁œuvres	-8558
▁Michael	-8559
▁absurde	-8560
▁annoncé	-8561
▁bruyant	-8562
▁dépasse	-8563
▁exister	-8564
▁faciles	-8565
▁fermier	-8566
▁fermées	-8567
▁fourmis	-8568
▁géniale	-8569
▁laissée	-8570
▁mandari	-8571
▁mouillé	-8572
▁ouvrage	-8573
▁partiel	-8574
▁pourras	-8575
▁refroid	-8576
▁remonte	-8577
▁restera	-8578
▁régions	-8579
▁sauvage	-8580
▁suicide	-8581
▁traîner	-8582
▁trouble	-8583
▁veiller	-8584
▁écharpe	-8585
▁écoutez	-8586
enseigner	-8587
nellement	-8588
▁Apprends	-8589
▁Laissons	-8590
▁adorable	-8591
▁attentes	-8592
▁champion	-8593
▁charmant	-8594
▁cherchez	-8595
▁collègue	-8596
▁faudrait	-8597
▁immeuble	-8598
▁lesquels	-8599
▁pensions	-8600
▁planètes	-8601
▁retrouve	-8602
▁trouvera	-8603
atmosphère	-8604
▁achèterai	-8605
▁anciennes	-8606
▁apprenons	-8607
▁cambriole	-8608
▁champagne	-8609
▁criminels	-8610
▁curiosité	-8611
▁gentleman	-8612
▁interprét	-8613
▁montrerai	-8614
▁nécessité	-8615
▁ordinaire	-8616
▁participé	-8617
▁perroquet	-8618
▁possibles	-8619
▁progressi	-8620
▁précédent	-8621
▁réception	-8622
▁sucreries	-8623
▁commençons	-8624
▁délicieuse	-8625
▁perfection	-8626
▁rembourser	-8627
▁récompense	-8628
▁serviettes	-8629
▁travaillez	-8630
▁évidemment	-8631
▁événements	-8632
▁compétences	-8633
▁débrouiller	-8634
▁grenouilles	-8635
▁magnifiques	-8636
▁recommencer	-8637
▁travaillais	-8638
▁personnelles	-8639
▁photographie	-8640
▁plaisanterie	-8641
▁épouvantable	-8642
▁appartiennent	-8643
▁prononciation	-8644
▁représentation	-8645
DN	-8646
gl	-8647
ko	-8648
hér	-8649
ilé	-8650
tie	-8651
ump	-8652
▁Jo	-8653
atic	-8654
cier	-8655
ires	-8656
lure	-8657
ompe	-8658
raie	-8659
sive	-8660
âmer	-8661
▁Ach	-8662
▁Enf	-8663
▁Jon	-8664
▁Mme	-8665
▁Rac	-8666
▁Sou	-8667
▁adv	-8668
▁asi	-8669
▁las	-8670
▁mob	-8671
▁nue	-8672
▁pag	-8673
▁péd	-8674
▁tac	-8675
dimir	-8676
embau	-8677
liqua	-8678
ommée	-8679
ongée	-8680
ourdi	-8681
tiers	-8682
usage	-8683
ygène	-8684
édois	-8685
▁Gust	-8686
▁Nett	-8687
▁culp	-8688
▁fisc	-8689
▁hand	-8690
▁hant	-8691
▁mend	-8692
▁noct	-8693
▁pair	-8694
▁prim	-8695
▁raff	-8696
arbres	-8697
aurons	-8698
enfuit	-8699
excuse	-8700
hébreu	-8701
iciels	-8702
igneur	-8703
oblige	-8704
▁César	-8705
▁Lisez	-8706
▁Tenez	-8707
▁chame	-8708
▁chier	-8709
▁colis	-8710
▁coude	-8711
▁croco	-8712
▁décla	-8713
▁décro	-8714
▁expul	-8715
▁final	-8716
▁lutte	-8717
▁légal	-8718
▁manqu	-8719
▁mener	-8720
▁miles	-8721
▁neigé	-8722
▁prier	-8723
▁sangu	-8724
▁saute	-8725
▁stati	-8726
▁tache	-8727
▁versé	-8728
▁viole	-8729
▁étape	-8730
aiderai	-8731
ajouter	-8732
aurions	-8733
enquête	-8734
isseurs	-8735
ossible	-8736
▁allais	-8737
▁amusés	-8738
▁assuré	-8739
▁bières	-8740
▁bourré	-8741
▁confus	-8742
▁deviné	-8743
▁déchar	-8744
▁démont	-8745
▁entrée	-8746
▁feront	-8747
▁firent	-8748
▁forcer	-8749
▁gloire	-8750
▁guérir	-8751
▁incont	-8752
▁marins	-8753
▁mordre	-8754
▁palais	-8755
▁plongé	-8756
▁pluies	-8757
▁poules	-8758
▁privil	-8759
▁précis	-8760
▁quator	-8761
▁renard	-8762
▁rocher	-8763
▁réclam	-8764
▁réveil	-8765
▁saigne	-8766
▁selfie	-8767
▁seules	-8768
▁séduis	-8769
▁tasses	-8770
▁tortue	-8771
▁trains	-8772
▁vaincu	-8773
▁veniez	-8774
▁étonné	-8775
améliore	-8776
appelait	-8777
imaginer	-8778
issaient	-8779
▁Promets	-8780
▁annonce	-8781
▁applaud	-8782
▁chèvres	-8783
▁combatt	-8784
▁complot	-8785
▁comptez	-8786
▁crainte	-8787
▁devrons	-8788
▁déposer	-8789
▁dérangé	-8790
▁entouré	-8791
▁finnois	-8792
▁grenier	-8793
▁parking	-8794
▁partira	-8795
▁partons	-8796
▁planche	-8797
▁pleuvra	-8798
▁potable	-8799
▁puisque	-8800
▁ramassé	-8801
▁ramener	-8802
▁rapides	-8803
▁rentrée	-8804
▁réponds	-8805
▁saurait	-8806
▁secrète	-8807
▁talents	-8808
▁tension	-8809
▁Écoutez	-8810
abandonne	-8811
ambassade	-8812
emprunter	-8813
quisition	-8814
▁Retourne	-8815
▁Vladimir	-8816
▁décevoir	-8817
▁esclaves	-8818
▁factures	-8819
▁gratuite	-8820
▁poitrine	-8821
▁poussent	-8822
▁respecté	-8823
▁septième	-8824
▁voulions	-8825
▁Travaille	-8826
▁apprécier	-8827
▁demandent	-8828
▁largement	-8829
▁provoquer	-8830
▁préoccupe	-8831
▁puissante	-8832
▁satisfais	-8833
▁événement	-8834
instituteur	-8835
▁conclusion	-8836
▁européenne	-8837
▁grenouille	-8838
▁inhabituel	-8839
▁japonaises	-8840
▁surprendre	-8841
▁coopération	-8842
▁susceptible	-8843
▁possibilités	-8844
▁embouteillage	-8845
▁intéressantes	-8846
▁quotidiennement	-8847
ba	-8848
arv	-8849
ban	-8850
cir	-8851
ily	-8852
nam	-8853
ney	-8854
oua	-8855
ovi	-8856
own	-8857
usc	-8858
ush	-8859
vue	-8860
▁Ju	-8861
▁Sy	-8862
▁bû	-8863
acte	-8864
amie	-8865
amus	-8866
berg	-8867
iler	-8868
irus	-8869
oine	-8870
ourd	-8871
riée	-8872
tels	-8873
usée	-8874
▁Gal	-8875
▁Ram	-8876
▁SMS	-8877
▁Sam	-8878
▁cur	-8879
▁dot	-8880
▁drô	-8881
▁flè	-8882
▁fun	-8883
▁rén	-8884
▁ste	-8885
▁émo	-8886
analy	-8887
andra	-8888
appel	-8889
arres	-8890
icule	-8891
isant	-8892
onald	-8893
posez	-8894
quets	-8895
rimin	-8896
uisez	-8897
ument	-8898
urger	-8899
▁Jeux	-8900
▁Lève	-8901
▁Norm	-8902
▁Pose	-8903
▁chic	-8904
▁cing	-8905
▁cook	-8906
▁drag	-8907
▁dîné	-8908
▁expl	-8909
▁fins	-8910
▁grin	-8911
▁hamb	-8912
▁marm	-8913
▁mult	-8914
▁mépr	-8915
▁pari	-8916
▁paye	-8917
▁pomm	-8918
▁péch	-8919
▁rage	-8920
▁saou	-8921
▁scep	-8922
▁succ	-8923
▁séle	-8924
▁toux	-8925
▁épée	-8926
admets	-8927
entrai	-8928
illait	-8929
illent	-8930
inrent	-8931
ionnat	-8932
énerve	-8933
▁Bruno	-8934
▁Jacob	-8935
▁Monte	-8936
▁Petit	-8937
▁aboie	-8938
▁adoré	-8939
▁ajout	-8940
▁dirig	-8941
▁dissi	-8942
▁décev	-8943
▁litté	-8944
▁loupé	-8945
▁noyer	-8946
▁outil	-8947
▁rayon	-8948
▁repar	-8949
▁sauve	-8950
▁sites	-8951
▁situé	-8952
▁tatou	-8953
▁virgu	-8954
▁vomir	-8955
▁étend	-8956
agricul	-8957
annonce	-8958
environ	-8959
exploit	-8960
onnante	-8961
ussions	-8962
étiques	-8963
▁Mayuko	-8964
▁achats	-8965
▁acheta	-8966
▁altern	-8967
▁aperçu	-8968
▁arrête	-8969
▁balcon	-8970
▁blâmer	-8971
▁boîtes	-8972
▁conven	-8973
▁couler	-8974
▁devras	-8975
▁dragon	-8976
▁décoll	-8977
▁défend	-8978
▁excess	-8979
▁excusé	-8980
▁former	-8981
▁habits	-8982
▁heurté	-8983
▁instin	-8984
▁intime	-8985
▁jalous	-8986
▁jouant	-8987
▁lisent	-8988
▁mirent	-8989
▁noires	-8990
▁perple	-8991
▁perspe	-8992
▁pertur	-8993
▁posséd	-8994
▁poudre	-8995
▁prêtes	-8996
▁ranger	-8997
▁rayons	-8998
▁restez	-8999
▁rideau	-9000
▁réconf	-9001
▁réprim	-9002
▁saviez	-9003
▁supers	-9004
▁suspec	-9005
▁sévère	-9006
▁taches	-9007
▁tonnes	-9008
aventure	-9009
étudiant	-9010
▁Charles	-9011
▁Pologne	-9012
▁Reviens	-9013
▁Romains	-9014
▁Twitter	-9015
▁absente	-9016
▁allumée	-9017
▁analyse	-9018
▁apparut	-9019
▁arrives	-9020
▁choisis	-9021
▁commenç	-9022
▁complex	-9023
▁désirer	-9024
▁entends	-9025
▁facteur	-9026
▁falaise	-9027
▁fatigue	-9028
▁gentils	-9029
▁gravité	-9030
▁inviter	-9031
▁majeure	-9032
▁modeste	-9033
▁médical	-9034
▁oreille	-9035
▁passées	-9036
▁procure	-9037
▁serions	-9038
▁serrure	-9039
▁soucier	-9040
▁valable	-9041
adorerais	-9042
opération	-9043
▁Asseyons	-9044
▁alliance	-9045
▁arrivait	-9046
▁articles	-9047
▁bonhomme	-9048
▁couteaux	-9049
▁coutumes	-9050
▁devenait	-9051
▁employer	-9052
▁festival	-9053
▁gaspille	-9054
▁informer	-9055
▁internet	-9056
▁marchant	-9057
▁pardonne	-9058
▁parlerai	-9059
▁plaintes	-9060
▁principe	-9061
▁programm	-9062
▁puissent	-9063
▁quatorze	-9064
▁ruisseau	-9065
▁slovaque	-9066
▁souffert	-9067
▁tiennent	-9068
▁trembler	-9069
achèterais	-9070
▁Palestine	-9071
▁assiettes	-9072
▁baignoire	-9073
▁cependant	-9074
▁commander	-9075
▁consacrer	-9076
▁exception	-9077
▁fonctions	-9078
▁hautement	-9079
▁influence	-9080
▁ingénieur	-9081
▁passionné	-9082
▁portaient	-9083
▁réveillée	-9084
▁arriverait	-9085
▁catholique	-9086
▁douloureux	-9087
▁instrument	-9088
▁naturelles	-9089
▁originaire	-9090
▁talentueux	-9091
▁transformé	-9092
▁téléviseur	-9093
▁Étasuniens	-9094
▁champignons	-9095
▁disparaître	-9096
▁normalement	-9097
▁opportunité	-9098
▁commencement	-9099
▁confectionné	-9100
▁fonctionnent	-9101
▁linguistique	-9102
▁soigneusement	-9103
▁extraordinaire	-9104
ADN	-9105
ako	-9106
ays	-9107
ium	-9108
lon	-9109
owe	-9110
tén	-9111
uée	-9112
▁Ak	-9113
▁Fe	-9114
▁Im	-9115
▁Ol	-9116
▁Sc	-9117
ador	-9118
arry	-9119
chiz	-9120
ermé	-9121
exer	-9122
imes	-9123
issa	-9124
itut	-9125
lète	-9126
écri	-9127
▁202	-9128
▁Dég	-9129
▁Ent	-9130
▁Mac	-9131
▁Per	-9132
▁Tam	-9133
▁gor	-9134
▁mys	-9135
▁méf	-9136
▁tau	-9137
▁épe	-9138
appuy	-9139
asion	-9140
auves	-9141
estes	-9142
fghan	-9143
naire	-9144
ondes	-9145
peare	-9146
rigue	-9147
èques	-9148
étéri	-9149
▁Inde	-9150
▁Lave	-9151
▁Taro	-9152
▁Vrai	-9153
▁aisé	-9154
▁brus	-9155
▁buis	-9156
▁coca	-9157
▁crée	-9158
▁doté	-9159
▁drap	-9160
▁guér	-9161
▁inév	-9162
▁luxe	-9163
▁mett	-9164
▁murm	-9165
▁nagé	-9166
▁nois	-9167
▁obsc	-9168
▁pion	-9169
▁pond	-9170
▁pren	-9171
▁pâte	-9172
▁race	-9173
▁rock	-9174
▁tira	-9175
▁trac	-9176
acités	-9177
hésite	-9178
itudes	-9179
jectif	-9180
lavage	-9181
origin	-9182
oterie	-9183
écureu	-9184
érique	-9185
▁Keiko	-9186
▁Trump	-9187
▁anges	-9188
▁baiss	-9189
▁boudd	-9190
▁catég	-9191
▁coron	-9192
▁crevé	-9193
▁déçus	-9194
▁galax	-9195
▁hauts	-9196
▁pâtes	-9197
▁quels	-9198
▁revue	-9199
▁sages	-9200
▁sauta	-9201
▁schiz	-9202
▁verbe	-9203
▁voile	-9204
▁égale	-9205
▁égaux	-9206
chestre	-9207
horreur	-9208
ruction	-9209
▁Passez	-9210
▁Shakes	-9211
▁affirm	-9212
▁apparu	-9213
▁assure	-9214
▁auront	-9215
▁briser	-9216
▁canard	-9217
▁chères	-9218
▁commet	-9219
▁conclu	-9220
▁contin	-9221
▁conver	-9222
▁cordes	-9223
▁disque	-9224
▁découp	-9225
▁estime	-9226
▁finira	-9227
▁images	-9228
▁incomp	-9229
▁jaunes	-9230
▁leçons	-9231
▁libéré	-9232
▁lisant	-9233
▁mandat	-9234
▁menacé	-9235
▁persév	-9236
▁revint	-9237
▁rougit	-9238
▁saisir	-9239
▁tunnel	-9240
▁vallée	-9241
▁Éteins	-9242
▁épaule	-9243
édiction	-9244
▁Docteur	-9245
▁Jessica	-9246
▁cellule	-9247
▁diffici	-9248
▁forment	-9249
▁fouillé	-9250
▁graines	-9251
▁honneur	-9252
▁identif	-9253
▁invitée	-9254
▁méprise	-9255
▁nations	-9256
▁orteils	-9257
▁pirates	-9258
▁prévoir	-9259
▁sachiez	-9260
▁sincère	-9261
▁trouvez	-9262
▁vendeur	-9263
▁éloigné	-9264
achèterai	-9265
atteindre	-9266
important	-9267
▁Aimerais	-9268
▁atomique	-9269
▁baleines	-9270
▁chapitre	-9271
▁chimique	-9272
▁chrétien	-9273
▁climatis	-9274
▁confiant	-9275
▁consacré	-9276
▁décembre	-9277
▁exemples	-9278
▁existent	-9279
▁faillite	-9280
▁fassions	-9281
▁mangeait	-9282
▁mangeant	-9283
▁natation	-9284
▁nerveuse	-9285
▁persuadé	-9286
▁prudence	-9287
▁remercié	-9288
▁réussira	-9289
▁suspendu	-9290
▁uniforme	-9291
▁Comprends	-9292
▁Continuez	-9293
▁alentours	-9294
▁ambitieux	-9295
▁attendant	-9296
▁capacités	-9297
▁cherchent	-9298
▁confirmer	-9299
▁croissant	-9300
▁essentiel	-9301
▁hypothèse	-9302
▁ignorance	-9303
▁individus	-9304
▁locuteurs	-9305
▁magazines	-9306
▁papillons	-9307
▁partirons	-9308
▁stratégie	-9309
▁structure	-9310
▁symptômes	-9311
▁automobile	-9312
▁corruption	-9313
▁demanderai	-9314
▁expression	-9315
▁pessimiste	-9316
▁reproduire	-9317
▁représente	-9318
▁Shakespeare	-9319
▁considèrent	-9320
▁déclaration	-9321
▁désagréable	-9322
▁enseignante	-9323
▁restaurants	-9324
▁distributeur	-9325
▁difficilement	-9326
▁nécessairement	-9327
▁progressivement	-9328
tu	-9329
cum	-9330
cés	-9331
dam	-9332
idé	-9333
inn	-9334
lax	-9335
raf	-9336
sif	-9337
ûte	-9338
▁Pe	-9339
▁ot	-9340
▁té	-9341
abat	-9342
arti	-9343
dile	-9344
ilée	-9345
intr	-9346
inés	-9347
itoy	-9348
iées	-9349
lend	-9350
omph	-9351
éros	-9352
▁Dét	-9353
▁Sui	-9354
▁atr	-9355
▁bil	-9356
▁jun	-9357
▁loy	-9358
▁pue	-9359
▁pât	-9360
▁rug	-9361
▁tch	-9362
accès	-9363
aigle	-9364
angle	-9365
arité	-9366
armes	-9367
auras	-9368
embar	-9369
etnam	-9370
hique	-9371
igner	-9372
olent	-9373
onstr	-9374
oppos	-9375
ourir	-9376
▁Cond	-9377
▁Ense	-9378
▁Karl	-9379
▁Leon	-9380
▁Marc	-9381
▁Pauv	-9382
▁Pays	-9383
▁Préf	-9384
▁Resp	-9385
▁Très	-9386
▁Vive	-9387
▁adap	-9388
▁astr	-9389
▁aéri	-9390
▁boue	-9391
▁clou	-9392
▁coco	-9393
▁crev	-9394
▁flic	-9395
▁fuir	-9396
▁gras	-9397
▁gêné	-9398
▁inté	-9399
▁kilo	-9400
▁nier	-9401
▁perp	-9402
▁poil	-9403
▁préj	-9404
▁stim	-9405
▁turc	-9406
▁unes	-9407
▁vale	-9408
alogue	-9409
ancien	-9410
animal	-9411
autant	-9412
avirus	-9413
etière	-9414
lèrent	-9415
oigner	-9416
optère	-9417
ouette	-9418
riques	-9419
sement	-9420
vembre	-9421
étions	-9422
▁Aidez	-9423
▁Aussi	-9424
▁Avons	-9425
▁Ouais	-9426
▁Seuls	-9427
▁aimée	-9428
▁aveug	-9429
▁cible	-9430
▁convi	-9431
▁câlin	-9432
▁délib	-9433
▁fonde	-9434
▁fusil	-9435
▁fûmes	-9436
▁mette	-9437
▁moche	-9438
▁monta	-9439
▁mètre	-9440
▁pince	-9441
▁rares	-9442
▁rende	-9443
▁salut	-9444
▁tuyau	-9445
▁têtes	-9446
▁venge	-9447
▁vécut	-9448
▁Étant	-9449
▁évité	-9450
anément	-9451
ercices	-9452
essayez	-9453
hésitez	-9454
itution	-9455
oiseaux	-9456
rimante	-9457
ulation	-9458
▁Envoie	-9459
▁Nagoya	-9460
▁Nombre	-9461
▁Oublie	-9462
▁allant	-9463
▁appels	-9464
▁appuyé	-9465
▁chatte	-9466
▁couvre	-9467
▁empire	-9468
▁ensole	-9469
▁envahi	-9470
▁finale	-9471
▁garant	-9472
▁grillé	-9473
▁handic	-9474
▁humble	-9475
▁idiots	-9476
▁limité	-9477
▁mascul	-9478
▁matchs	-9479
▁morale	-9480
▁nôtres	-9481
▁partez	-9482
▁plaque	-9483
▁poussa	-9484
▁rendue	-9485
▁report	-9486
▁robots	-9487
▁répare	-9488
▁séance	-9489
▁tribun	-9490
▁typhon	-9491
▁venons	-9492
▁voyant	-9493
▁vraies	-9494
▁éprouv	-9495
appelles	-9496
éléphant	-9497
▁Environ	-9498
▁Inutile	-9499
▁Jacques	-9500
▁Mexique	-9501
▁Raconte	-9502
▁Royaume	-9503
▁Turquie	-9504
▁appelez	-9505
▁attaque	-9506
▁baigner	-9507
▁charger	-9508
▁cookies	-9509
▁diplômé	-9510
▁déroule	-9511
▁détaill	-9512
▁express	-9513
▁gouttes	-9514
▁intense	-9515
▁légende	-9516
▁paraiss	-9517
▁peuples	-9518
▁portant	-9519
▁prévoit	-9520
▁rendait	-9521
▁ridicul	-9522
▁sachant	-9523
▁support	-9524
▁tombent	-9525
▁épaisse	-9526
▁Arrêtons	-9527
▁Palestin	-9528
▁Vraiment	-9529
▁agressif	-9530
▁attendez	-9531
▁canadien	-9532
▁cavalier	-9533
▁contexte	-9534
▁distrait	-9535
▁débutant	-9536
▁endormie	-9537
▁illusion	-9538
▁inquiets	-9539
▁laissera	-9540
▁marathon	-9541
▁méthodes	-9542
▁perplexe	-9543
▁portrait	-9544
▁pouvoirs	-9545
▁prononce	-9546
▁rentrant	-9547
▁répandue	-9548
▁solitude	-9549
▁sorcière	-9550
▁soutient	-9551
▁troupeau	-9552
▁utilisés	-9553
invitation	-9554
▁Américain	-9555
▁Autrefois	-9556
▁activités	-9557
▁assistant	-9558
▁augmenter	-9559
▁baguettes	-9560
▁bâtiments	-9561
▁certitude	-9562
▁conneries	-9563
▁déterminé	-9564
▁embrassée	-9565
▁existence	-9566
▁grossière	-9567
▁maîtresse	-9568
▁meurtrier	-9569
▁réprimand	-9570
▁sensibles	-9571
▁solutions	-9572
▁souverain	-9573
▁tristesse	-9574
▁continuent	-9575
▁enregistré	-9576
▁mouvements	-9577
▁plaisanter	-9578
▁révolution	-9579
▁territoire	-9580
exploitation	-9581
▁Franchement	-9582
▁accompagner	-9583
▁candidature	-9584
▁contiennent	-9585
▁disposition	-9586
▁économiques	-9587
▁Mademoiselle	-9588
▁intéressants	-9589
▁organisation	-9590
▁présentation	-9591
▁responsables	-9592
▁désespérément	-9593
▁insupportable	-9594
▁impressionnant	-9595
bi	-9596
...	-9597
Est	-9598
agh	-9599
até	-9600
aug	-9601
har	-9602
ipp	-9603
orv	-9604
sie	-9605
▁Ay	-9606
▁Gl	-9607
▁Pâ	-9608
▁Sp	-9609
▁hâ	-9610
▁sè	-9611
▁Él	-9612
agan	-9613
avec	-9614
cent	-9615
cide	-9616
cope	-9617
ider	-9618
isti	-9619
oiré	-9620
oral	-9621
rite	-9622
stan	-9623
ster	-9624
uité	-9625
xion	-9626
ésil	-9627
▁Aut	-9628
▁Cin	-9629
▁Déb	-9630
▁Jud	-9631
▁Pol	-9632
▁arc	-9633
▁diz	-9634
▁enj	-9635
▁fui	-9636
▁ros	-9637
▁rub	-9638
adeur	-9639
aterr	-9640
gérer	-9641
isage	-9642
isons	-9643
oween	-9644
rimés	-9645
▁Flav	-9646
▁Paci	-9647
▁arch	-9648
▁conç	-9649
▁frot	-9650
▁fuit	-9651
▁gelé	-9652
▁maté	-9653
▁noté	-9654
▁radi	-9655
▁rats	-9656
▁vest	-9657
▁vice	-9658
▁émer	-9659
▁éval	-9660
aidera	-9661
imagin	-9662
ortons	-9663
▁Accep	-9664
▁Calme	-9665
▁Liban	-9666
▁Trans	-9667
▁boite	-9668
▁carré	-9669
▁chand	-9670
▁conçu	-9671
▁céder	-9672
▁cœurs	-9673
▁dinde	-9674
▁décor	-9675
▁dépar	-9676
▁dériv	-9677
▁emmén	-9678
▁fondé	-9679
▁fract	-9680
▁immob	-9681
▁indic	-9682
▁jolis	-9683
▁moqué	-9684
▁mémor	-9685
▁plume	-9686
▁pourb	-9687
▁poêle	-9688
▁produ	-9689
▁proph	-9690
▁préte	-9691
▁saint	-9692
▁sourc	-9693
▁steak	-9694
▁thèse	-9695
▁toile	-9696
▁total	-9697
▁trent	-9698
▁verra	-9699
échappe	-9700
étrange	-9701
▁Jouons	-9702
▁Sandra	-9703
▁Soyons	-9704
▁access	-9705
▁affamé	-9706
▁aident	-9707
▁allées	-9708
▁appela	-9709
▁auteur	-9710
▁brésil	-9711
▁bétail	-9712
▁caress	-9713
▁chérie	-9714
▁clarif	-9715
▁diriez	-9716
▁déchir	-9717
▁déguis	-9718
▁fondre	-9719
▁glaces	-9720
▁ignoré	-9721
▁jungle	-9722
▁locale	-9723
▁majeur	-9724
▁misère	-9725
▁motivé	-9726
▁mousta	-9727
▁médias	-9728
▁portez	-9729
▁préser	-9730
▁renfor	-9731
▁satell	-9732
▁signal	-9733
▁submer	-9734
▁survie	-9735
▁timbre	-9736
▁trajet	-9737
▁trempé	-9738
▁tropic	-9739
▁élever	-9740
Internet	-9741
accorder	-9742
activité	-9743
emporter	-9744
estation	-9745
incident	-9746
oreilles	-9747
écureuil	-9748
▁Ajoutez	-9749
▁Assurez	-9750
▁Bientôt	-9751
▁Nations	-9752
▁arraché	-9753
▁atteign	-9754
▁banques	-9755
▁bouchée	-9756
▁capture	-9757
▁carbone	-9758
▁copains	-9759
▁disposé	-9760
▁drogues	-9761
▁déjeune	-9762
▁enfermé	-9763
▁essaies	-9764
▁falloir	-9765
▁fournit	-9766
▁guerres	-9767
▁loterie	-9768
▁marches	-9769
▁mentent	-9770
▁mystéri	-9771
▁nettoie	-9772
▁obtient	-9773
▁offensé	-9774
▁portail	-9775
▁pouviez	-9776
▁profité	-9777
▁racines	-9778
▁renvoyé	-9779
▁revenue	-9780
▁royaume	-9781
▁spatial	-9782
▁suicidé	-9783
▁suédois	-9784
▁triomph	-9785
▁trompes	-9786
▁écrites	-9787
▁élément	-9788
▁énergie	-9789
approcher	-9790
enveloppe	-9791
essentiel	-9792
exception	-9793
honnêteté	-9794
▁aimeriez	-9795
▁apprends	-9796
▁arrogant	-9797
▁autorité	-9798
▁bizarres	-9799
▁bénéfici	-9800
▁cellules	-9801
▁comporté	-9802
▁délicate	-9803
▁déménage	-9804
▁détestes	-9805
▁exercice	-9806
▁fichiers	-9807
▁félicité	-9808
▁journées	-9809
▁maîtrise	-9810
▁pleurait	-9811
▁pourrons	-9812
▁remplacé	-9813
▁réveilla	-9814
▁schizoph	-9815
▁sincères	-9816
▁spatiale	-9817
▁surprend	-9818
▁totalité	-9819
▁éléments	-9820
▁étudient	-9821
▁Attendons	-9822
▁Pacifique	-9823
▁Pardonnez	-9824
▁cerisiers	-9825
▁charmante	-9826
▁cherchons	-9827
▁chrétiens	-9828
▁cicatrice	-9829
▁constante	-9830
▁embarrass	-9831
▁formation	-9832
▁innocence	-9833
▁maintenir	-9834
▁pantalons	-9835
▁parcourir	-9836
▁recouvert	-9837
▁sensation	-9838
▁utilisant	-9839
▁République	-9840
▁chirurgien	-9841
▁compliment	-9842
▁dépression	-9843
▁embarrassé	-9844
▁militaires	-9845
▁produisent	-9846
▁ressembles	-9847
▁résistance	-9848
▁verrouillé	-9849
▁cambrioleur	-9850
▁coronavirus	-9851
▁culpabilité	-9852
▁instituteur	-9853
▁personnages	-9854
▁volontaires	-9855
▁négociations	-9856
▁surveillance	-9857
▁universitaire	-9858
▁professionnelle	-9859
ck	-9860
cut	-9861
dia	-9862
dom	-9863
gez	-9864
héd	-9865
inj	-9866
lix	-9867
oln	-9868
orp	-9869
ros	-9870
tal	-9871
uki	-9872
ués	-9873
évé	-9874
▁Ed	-9875
▁Nu	-9876
▁hy	-9877
▁ki	-9878
▁ly	-9879
anne	-9880
arez	-9881
ffér	-9882
gnes	-9883
hent	-9884
lire	-9885
ocal	-9886
onça	-9887
over	-9888
phel	-9889
rate	-9890
umin	-9891
èses	-9892
▁Emb	-9893
▁Hab	-9894
▁Jup	-9895
▁Sau	-9896
▁Tôt	-9897
▁ané	-9898
▁aud	-9899
▁dut	-9900
▁hon	-9901
▁jup	-9902
▁lat	-9903
▁nie	-9904
▁pyj	-9905
▁sté	-9906
▁typ	-9907
▁urb	-9908
amuse	-9909
chées	-9910
dible	-9911
emars	-9912
ennui	-9913
hisky	-9914
influ	-9915
▁	-9916
e	-9917
s	-9918
a	-9919
i	-9920
n	-9921
t	-9922
u	-9923
r	-9924
o	-9925
l	-9926
d	-9927
m	-9928
p	-9929
.	-9930
c	-9931
é	-9932
v	-9933
'	-9934
q	-9935
f	-9936
g	-9937
b	-9938
h	-9939
J	-9940
j	-9941
-	-9942
à	-9943
T	-9944
x	-9945
,	-9946
?	-9947
L	-9948
è	-9949
I	-9950
C	-9951
y	-9952
z	-9953
ê	-9954
E	-9955
N	-9956
M	-9957
P	-9958
ç	-9959
A	-9960
S	-9961
!	-9962
Q	-9963
V	-9964
D	-9965
O	-9966
’	-9967
ô	-9968
î	-9969
«	-9970
»	-9971
k	-9972
U	-9973
û	-9974
B	-9975
â	-9976
ù	-9977
R	-9978
F	-9979
œ	-9980
Ç	-9981
0	-9982
Z	-9983
À	-9984
Y	-9985
1	-9986
É	-9987
G	-9988
H	-9989
w	-9990
ë	-9991
K	-9992
2	-9993
:	-9994
"	-9995
;	-9996
